<unk>	0
<pad>	0
<s>	0
</s>	0
▁the	-3.23558
.	-3.36627
,	-3.45017
s	-3.55585
▁of	-3.6245
▁and	-3.89753
▁to	-4.0434
▁in	-4.26277
▁a	-4.34841
▁is	-4.58293
▁for	-4.98144
▁-	-5.07884
▁that	-5.1021
▁you	-5.24025
▁be	-5.25575
ed	-5.27304
ing	-5.29441
▁The	-5.31065
▁(	-5.35515
▁not	-5.42193
▁are	-5.49107
▁with	-5.49293
▁on	-5.5056
▁it	-5.52001
)	-5.52261
▁or	-5.52988
d	-5.58109
▁'	-5.60377
▁by	-5.62818
▁as	-5.66431
▁have	-5.69803
▁was	-5.70808
:	-5.7096
▁from	-5.71657
▁will	-5.72982
▁they	-5.73236
▁them	-5.82399
▁this	-5.83788
▁I	-5.85573
▁has	-5.91415
▁which	-5.93809
;	-5.96187
▁who	-5.96709
▁their	-6.00959
▁s	-6.01229
ly	-6.03162
▁his	-6.03985
▁He	-6.05298
▁he	-6.07845
t	-6.084
▁an	-6.08891
▁A	-6.16739
er	-6.16858
▁at	-6.22046
▁Allah	-6.23205
▁all	-6.2492
▁And	-6.26301
▁We	-6.30622
e	-6.32826
▁your	-6.36438
?	-6.36706
y	-6.36893
al	-6.40087
▁India	-6.407
▁	-6.41816
-	-6.44772
▁one	-6.46677
▁but	-6.47556
'	-6.47689
▁we	-6.48443
▁do	-6.51273
a	-6.52019
▁been	-6.54464
▁"	-6.55531
▁In	-6.55725
▁any	-6.57276
▁were	-6.58029
▁can	-6.59659
▁had	-6.60869
n	-6.61188
i	-6.61655
▁those	-6.63125
▁him	-6.63349
▁It	-6.63561
▁people	-6.63623
▁said	-6.64984
▁when	-6.66995
in	-6.67147
▁shall	-6.68027
▁so	-6.69618
r	-6.69927
▁other	-6.73671
▁/	-6.7429
▁also	-6.76369
%	-6.76818
▁if	-6.77589
▁God	-6.77864
re	-6.77921
▁what	-6.78177
▁no	-6.79433
▁there	-6.81189
!	-6.81357
▁our	-6.82834
th	-6.831
▁may	-6.84494
▁its	-6.85396
▁Lord	-6.854
es	-6.88646
▁This	-6.90432
▁S	-6.92205
▁out	-6.94201
▁would	-6.94489
▁time	-6.95519
▁up	-6.96335
▁such	-6.97343
▁only	-6.97867
▁_	-6.98833
▁“	-7.02122
▁made	-7.05512
or	-7.05707
▁me	-7.06039
▁under	-7.06047
m	-7.08212
▁then	-7.09259
▁should	-7.09295
▁more	-7.0977
▁about	-7.10113
▁C	-7.11352
▁like	-7.11407
▁into	-7.11545
c	-7.13184
▁re	-7.1452
▁But	-7.1645
▁over	-7.16574
S	-7.17948
▁my	-7.18316
▁They	-7.1905
b	-7.19332
▁than	-7.20354
▁two	-7.21454
▁So	-7.21626
▁some	-7.22061
▁P	-7.23895
▁[	-7.24998
▁us	-7.25359
an	-7.25455
▁”	-7.25563
▁new	-7.26613
l	-7.27522
▁1	-7.2759
▁these	-7.27826
k	-7.28
ation	-7.2876
▁before	-7.2891
st	-7.29107
h	-7.30091
▁after	-7.30562
▁Indian	-7.32616
▁His	-7.33057
▁life	-7.3458
O	-7.35138
▁day	-7.35569
▁say	-7.3706
▁un	-7.37955
A	-7.3853
able	-7.4011
▁her	-7.41143
p	-7.41284
’	-7.41506
▁being	-7.41537
le	-7.41576
▁B	-7.41634
▁good	-7.42937
ar	-7.43968
▁make	-7.4446
▁D	-7.44801
ment	-7.45323
]	-7.45886
▁world	-7.46287
ity	-7.4665
ur	-7.47455
it	-7.48854
▁If	-7.49494
g	-7.49572
I	-7.49862
▁You	-7.50415
il	-7.51308
▁through	-7.51744
▁come	-7.52999
on	-7.53
▁Government	-7.53041
▁President	-7.5315
ers	-7.53486
▁between	-7.54131
en	-7.54556
▁country	-7.54914
▁work	-7.54953
ri	-7.55277
▁&	-7.55485
▁used	-7.55541
o	-7.55697
C	-7.55734
ic	-7.56103
▁way	-7.56366
▁know	-7.56471
▁down	-7.56728
▁de	-7.56866
u	-7.57036
▁could	-7.57601
D	-7.57686
▁well	-7.57696
▁O	-7.57915
▁first	-7.58029
ma	-7.58073
▁e	-7.58682
li	-7.6132
▁year	-7.61343
▁upon	-7.61839
▁E	-7.61869
▁many	-7.61985
ness	-7.6297
▁years	-7.62991
na	-7.63138
B	-7.63554
▁Act	-7.64001
▁There	-7.64234
▁very	-7.64526
▁did	-7.64561
▁see	-7.64787
ion	-7.65447
▁All	-7.65504
▁To	-7.65812
at	-7.65826
ul	-7.66065
▁believe	-7.66217
▁where	-7.66454
▁most	-7.66566
▁earth	-7.67057
▁against	-7.67764
▁take	-7.6993
▁man	-7.70106
▁2	-7.7082
us	-7.7101
▁right	-7.71042
ta	-7.71216
el	-7.72059
"	-7.73186
▁M	-7.73238
ent	-7.7335
▁G	-7.73564
la	-7.73611
▁N	-7.73662
▁part	-7.73963
▁per	-7.75027
▁even	-7.75112
▁19	-7.75238
▁K	-7.75604
ra	-7.7583
▁State	-7.75883
f	-7.76258
ti	-7.76582
▁given	-7.77429
▁among	-7.77695
ive	-7.77906
),	-7.78215
▁place	-7.78656
to	-7.78706
P	-7.79277
▁because	-7.79344
▁own	-7.79401
▁Him	-7.7947
▁must	-7.79902
▁L	-7.80039
▁use	-7.80129
x	-7.80344
M	-7.80812
▁b	-7.81146
▁Re	-7.81405
▁give	-7.81455
▁back	-7.82051
▁water	-7.82218
▁help	-7.82417
am	-7.82427
▁every	-7.82966
▁go	-7.83322
▁does	-7.83714
▁set	-7.84613
▁F	-7.84773
▁ye	-7.85552
▁section	-7.86199
▁sub	-7.86221
▁am	-7.86481
▁order	-7.86779
▁great	-7.86801
um	-7.86801
▁>	-7.86812
▁sent	-7.86938
▁T	-7.8708
as	-7.87088
vi	-7.87112
▁d	-7.88232
T	-7.88445
▁Day	-7.88608
).	-7.8882
te	-7.89156
▁When	-7.8932
E	-7.89703
▁number	-7.90219
ll	-7.90562
▁An	-7.90722
ant	-7.90736
▁whom	-7.90902
w	-7.91052
▁<	-7.91179
▁For	-7.91401
▁As	-7.91522
▁No	-7.91669
▁R	-7.91896
▁away	-7.91922
▁get	-7.92607
▁how	-7.92877
the	-7.93422
▁person	-7.93684
▁now	-7.93858
."	-7.94053
▁development	-7.94974
▁end	-7.95382
▁Our	-7.95628
ch	-7.95789
et	-7.9616
▁during	-7.96195
ro	-7.96651
▁system	-7.96941
▁case	-7.97015
▁power	-7.97191
▁same	-7.97235
▁while	-7.9806
se	-7.98236
▁name	-7.98804
▁just	-7.99082
▁she	-7.99289
▁each	-7.99474
ir	-7.99489
▁men	-8.0004
▁long	-8.00968
▁file	-8.01406
▁both	-8.01631
...	-8.01729
▁account	-8.02615
ary	-8.0279
▁Do	-8.03208
▁found	-8.03369
▁called	-8.03592
lo	-8.04032
▁etc	-8.04056
▁another	-8.04066
▁fear	-8.05862
ter	-8.06135
▁things	-8.0617
▁here	-8.06632
▁nor	-8.06993
▁land	-8.07504
ance	-8.07698
▁different	-8.07699
R	-8.07868
▁Then	-8.07929
▁indeed	-8.08354
id	-8.08513
man	-8.08698
ate	-8.09196
▁three	-8.09246
▁5	-8.09515
▁came	-8.09695
▁3	-8.09809
G	-8.10125
ism	-8.10564
▁without	-8.10711
ha	-8.10748
▁knowledge	-8.11203
▁period	-8.11203
▁National	-8.1197
▁want	-8.12313
▁Shri	-8.12451
L	-8.12647
de	-8.12759
▁form	-8.13234
▁H	-8.13393
ol	-8.13684
▁‘	-8.13866
U	-8.14225
▁means	-8.14603
▁much	-8.14857
▁information	-8.1496
F	-8.16339
▁p	-8.16557
ve	-8.17065
▁need	-8.17739
z	-8.1828
un	-8.18281
▁state	-8.18504
”	-8.1851
ia	-8.18647
▁find	-8.18724
▁co	-8.18773
▁government	-8.19783
▁On	-8.20103
va	-8.20213
▁Minister	-8.20358
N	-8.20816
▁unto	-8.20973
▁truth	-8.21151
▁women	-8.21237
▁Say	-8.21414
sh	-8.21596
:%	-8.21936
age	-8.2212
di	-8.22433
me	-8.22734
/	-8.23088
▁OF	-8.23105
▁become	-8.23109
less	-8.2325
ies	-8.23261
▁That	-8.23466
▁g	-8.24075
▁created	-8.24178
est	-8.24497
▁public	-8.24528
ya	-8.24599
ful	-8.24694
▁present	-8.24743
▁message	-8.24996
▁cannot	-8.25116
H	-8.25132
▁De	-8.25354
im	-8.25371
▁Me	-8.25456
▁last	-8.25478
▁con	-8.25794
▁human	-8.264
▁important	-8.26414
▁let	-8.26481
▁t	-8.26489
ne	-8.26568
▁except	-8.26618
ist	-8.27401
▁–	-8.2751
▁What	-8.27569
ci	-8.2774
▁income	-8.28369
ge	-8.28503
▁company	-8.28581
▁business	-8.28929
▁New	-8.28964
ry	-8.2907
▁amount	-8.29267
ty	-8.29554
▁W	-8.29626
▁surely	-8.29749
▁taken	-8.29832
▁list	-8.29992
▁never	-8.30097
▁today	-8.30232
▁known	-8.30435
ting	-8.30549
ine	-8.30826
▁These	-8.31046
▁process	-8.31162
ous	-8.31264
▁support	-8.31448
v	-8.31805
▁children	-8.32515
▁love	-8.3292
op	-8.33282
▁My	-8.33326
▁best	-8.33474
▁various	-8.33842
ad	-8.33996
and	-8.3402
▁turn	-8.34702
tra	-8.34814
ut	-8.34968
▁themselves	-8.35803
▁better	-8.35971
▁Book	-8.36198
▁evil	-8.3629
▁small	-8.36325
▁18	-8.36407
ated	-8.365
▁hand	-8.36749
▁within	-8.36864
▁clear	-8.37299
▁mind	-8.37319
V	-8.37382
▁done	-8.37912
▁bring	-8.38216
▁body	-8.38372
ating	-8.38884
▁left	-8.3894
is	-8.3931
▁window	-8.39312
▁social	-8.39461
▁respect	-8.40417
2	-8.40553
he	-8.40631
▁going	-8.40688
▁education	-8.40846
▁free	-8.40989
▁dis	-8.41611
▁due	-8.41644
▁c	-8.41724
▁open	-8.419
ak	-8.41959
▁book	-8.42004
▁value	-8.42194
▁days	-8.42569
▁think	-8.42694
▁call	-8.42991
▁put	-8.43275
ce	-8.43474
▁6	-8.43627
▁law	-8.43633
ver	-8.43676
▁head	-8.43918
▁10	-8.44937
W	-8.45022
▁too	-8.45039
▁f	-8.4506
▁full	-8.45123
▁st	-8.45167
▁Ba	-8.45179
▁towards	-8.45408
▁large	-8.45423
▁8	-8.45523
▁far	-8.4564
▁high	-8.45769
▁Central	-8.45784
▁fact	-8.46023
▁language	-8.46078
hi	-8.46114
wa	-8.46236
▁One	-8.46459
▁available	-8.46515
▁light	-8.47658
ish	-8.47851
▁cause	-8.48092
▁i	-8.48125
▁change	-8.48354
ence	-8.48483
▁times	-8.48691
▁return	-8.48705
▁U	-8.48722
4	-8.48865
ot	-8.49152
ted	-8.49167
▁heavens	-8.49307
▁brought	-8.4935
▁off	-8.49393
▁thou	-8.49458
▁J	-8.49879
▁punishment	-8.50161
▁service	-8.50303
▁At	-8.50778
▁4	-8.50998
be	-8.51376
▁again	-8.51436
▁date	-8.51513
ni	-8.51706
▁family	-8.51728
▁7	-8.51919
section	-8.52857
▁old	-8.53142
▁economic	-8.53196
▁non	-8.53242
▁Ra	-8.53471
▁death	-8.53543
▁Bhavan	-8.53736
K	-8.53827
▁view	-8.54249
▁something	-8.54372
▁en	-8.54413
ac	-8.54417
▁Who	-8.54469
▁might	-8.54953
ure	-8.55026
▁matter	-8.55037
j	-8.5504
▁four	-8.55339
▁whole	-8.5539
▁provide	-8.55574
up	-8.55653
▁food	-8.55717
▁She	-8.55935
go	-8.5597
▁self	-8.56243
▁others	-8.56271
3	-8.5659
▁project	-8.56773
▁Un	-8.57164
▁data	-8.57488
▁keep	-8.57528
of	-8.57557
▁group	-8.57653
▁true	-8.57713
▁pre	-8.57849
▁national	-8.57874
ial	-8.57878
no	-8.57906
▁show	-8.58321
▁interest	-8.58538
▁area	-8.58632
ho	-8.58648
▁capital	-8.58659
▁local	-8.58736
▁provided	-8.58795
▁Dr	-8.59004
▁already	-8.59201
tic	-8.59521
▁level	-8.59844
▁together	-8.59966
▁worship	-8.59968
▁night	-8.60046
▁Ma	-8.60307
ling	-8.60516
▁religion	-8.60534
▁few	-8.60678
▁gave	-8.60925
▁create	-8.60942
▁follow	-8.61161
▁Ka	-8.61349
▁nation	-8.61597
▁control	-8.61746
▁countries	-8.61905
▁Indeed	-8.61928
▁Rs	-8.62183
▁Rashtrapati	-8.62388
▁ask	-8.62453
▁Your	-8.62479
▁Delhi	-8.62594
▁following	-8.62634
▁:	-8.62815
▁pro	-8.62854
▁age	-8.63138
▁above	-8.63159
▁action	-8.63164
▁path	-8.63341
▁Those	-8.63445
▁little	-8.63614
▁V	-8.63618
▁signs	-8.63749
▁equal	-8.63819
▁Al	-8.63855
eth	-8.64192
—	-8.64272
▁himself	-8.64354
mo	-8.64379
▁based	-8.64538
▁war	-8.64618
▁type	-8.64681
▁services	-8.64992
tion	-8.65333
pr	-8.65345
▁cost	-8.65394
nd	-8.65891
▁making	-8.66092
rs	-8.66163
▁art	-8.66476
▁thought	-8.66532
▁less	-8.66731
▁sector	-8.66741
▁policy	-8.66887
▁special	-8.671
sa	-8.67476
ang	-8.67548
▁until	-8.67606
▁having	-8.67838
▁faith	-8.67931
▁able	-8.68171
▁clause	-8.68268
pe	-8.68273
lu	-8.68328
▁areas	-8.6837
▁still	-8.68531
▁example	-8.68545
▁though	-8.6864
ee	-8.68781
▁address	-8.68783
▁Sa	-8.68834
▁words	-8.68878
▁15	-8.68914
▁la	-8.69006
▁di	-8.69295
▁point	-8.69304
ian	-8.69461
▁seen	-8.69558
▁around	-8.69571
▁wrong	-8.69616
▁side	-8.69716
Y	-8.69719
▁society	-8.69847
▁hearts	-8.69864
▁took	-8.70275
▁Con	-8.70404
fi	-8.70431
ig	-8.70451
▁heart	-8.70498
for	-8.7071
▁occasion	-8.7082
▁m	-8.70883
▁political	-8.70901
▁command	-8.70919
ities	-8.71025
ck	-8.7107
▁cent	-8.71092
▁members	-8.7117
▁certain	-8.71172
▁home	-8.71172
▁common	-8.71442
▁%	-8.71517
▁thing	-8.71527
▁pay	-8.71603
▁always	-8.71926
▁whose	-8.72035
▁second	-8.72058
ga	-8.72164
▁folder	-8.72241
ke	-8.72259
▁market	-8.72475
nic	-8.72499
▁position	-8.72544
▁along	-8.72818
om	-8.7287
▁believers	-8.73012
▁main	-8.73026
▁nothing	-8.73057
▁act	-8.73317
▁therefore	-8.73336
▁Man	-8.73512
▁term	-8.73625
▁o	-8.73628
▁12	-8.73762
▁whether	-8.73889
1	-8.74051
▁cl	-8.74322
▁including	-8.74363
▁house	-8.74488
▁9	-8.74807
▁St	-8.74941
▁deeds	-8.75015
▁ever	-8.75079
▁tax	-8.7532
▁Lo	-8.75323
▁kind	-8.7537
▁Ha	-8.75379
ub	-8.75477
▁Bank	-8.75549
▁further	-8.75959
co	-8.76071
pur	-8.76099
▁five	-8.76158
▁vi	-8.76173
▁research	-8.76217
▁Show	-8.76226
▁Na	-8.76239
▁Go	-8.76572
ka	-8.76632
▁young	-8.7664
▁British	-8.76734
▁yet	-8.76746
▁Be	-8.76915
mi	-8.76955
min	-8.77041
▁leave	-8.77045
▁total	-8.7716
▁growth	-8.77287
▁look	-8.77349
ru	-8.77724
▁nature	-8.77871
nt	-8.78011
▁health	-8.78047
▁child	-8.78145
do	-8.78173
▁La	-8.78178
▁Messenger	-8.7825
▁reward	-8.78275
ap	-8.78291
▁meeting	-8.78365
▁Court	-8.78478
▁course	-8.78487
▁received	-8.78671
▁error	-8.78727
▁became	-8.78786
▁question	-8.78843
ah	-8.79137
▁later	-8.79141
ise	-8.79228
▁States	-8.79413
▁held	-8.79564
▁enter	-8.79573
▁Please	-8.79806
ring	-8.80177
▁THE	-8.80185
ite	-8.80474
▁House	-8.80547
▁money	-8.80567
men	-8.80716
em	-8.80897
▁play	-8.80906
▁line	-8.80966
▁read	-8.80996
▁post	-8.81255
▁key	-8.81274
▁word	-8.81293
▁next	-8.8131
▁After	-8.81333
▁Most	-8.81431
▁k	-8.81641
▁office	-8.8168
▁live	-8.81801
▁English	-8.81899
▁20	-8.82113
▁required	-8.82481
▁Hindi	-8.82698
iv	-8.82728
▁son	-8.82848
ba	-8.82952
▁x	-8.82953
▁Prime	-8.8296
▁Singh	-8.82963
amp	-8.83185
▁PRESIDENT	-8.83205
▁visit	-8.83214
▁previous	-8.83459
mb	-8.83499
▁application	-8.83821
av	-8.83993
ible	-8.84105
po	-8.84349
▁Committee	-8.84364
▁several	-8.84434
▁selected	-8.84468
▁possible	-8.84527
▁text	-8.84582
We	-8.84747
▁How	-8.84909
▁face	-8.84948
▁industry	-8.85066
ca	-8.85265
▁movement	-8.85336
}	-8.85372
▁foreign	-8.85561
▁send	-8.85615
▁Mo	-8.85878
▁plant	-8.86149
▁result	-8.86209
▁hands	-8.86227
▁building	-8.86261
▁Some	-8.86543
▁either	-8.86609
▁activities	-8.86699
▁start	-8.8685
▁Ministry	-8.87034
▁certainly	-8.87124
▁bank	-8.87162
▁mother	-8.87255
▁rate	-8.87285
▁authority	-8.87289
▁fire	-8.87384
▁tell	-8.87541
▁field	-8.87559
ja	-8.87661
▁seek	-8.877
▁father	-8.88114
▁Su	-8.88337
tri	-8.88365
▁ten	-8.8844
▁University	-8.88749
▁forth	-8.88812
▁itself	-8.88972
▁technology	-8.89042
▁(1)	-8.89088
▁trade	-8.89199
con	-8.89273
ana	-8.89343
▁Vi	-8.89348
▁image	-8.89408
▁financial	-8.89409
▁production	-8.89434
▁purpose	-8.89685
▁save	-8.8991
▁anything	-8.90079
▁went	-8.90112
▁Co	-8.90462
tu	-8.90511
▁Department	-8.9055
▁scheme	-8.90558
ens	-8.90574
lic	-8.90871
20	-8.9098
▁computer	-8.91016
▁Or	-8.91052
▁subject	-8.91292
▁General	-8.91326
pa	-8.91513
▁near	-8.91687
▁current	-8.91768
▁soul	-8.9179
da	-8.91835
▁ra	-8.91895
▁court	-8.91899
▁history	-8.92122
▁working	-8.92206
vo	-8.92214
▁quality	-8.92245
▁short	-8.92343
▁With	-8.92379
▁understand	-8.92501
▁don	-8.92634
▁property	-8.92686
ji	-8.92696
▁Select	-8.92797
▁Pradesh	-8.92954
▁established	-8.93022
ran	-8.93164
▁individual	-8.93251
▁air	-8.93376
▁Open	-8.93406
▁knows	-8.93482
▁imp	-8.93506
our	-8.93643
▁Mi	-8.93822
▁provisions	-8.93867
▁major	-8.93918
▁peace	-8.94158
▁share	-8.94219
gu	-8.94248
ip	-8.94331
▁future	-8.94361
▁using	-8.94434
00	-8.9454
▁website	-8.94542
▁Ram	-8.94606
▁strong	-8.94616
▁credit	-8.94671
cu	-8.94808
▁therein	-8.94835
▁remember	-8.94841
▁necessary	-8.94878
▁behind	-8.95111
▁increase	-8.95255
▁started	-8.95521
ach	-8.95652
▁Development	-8.95695
▁Hindu	-8.95717
led	-8.95724
pi	-8.95819
▁access	-8.95826
▁since	-8.9585
▁mercy	-8.95998
▁Could	-8.95998
har	-8.96017
▁hath	-8.96038
▁role	-8.96046
▁effect	-8.96191
▁experience	-8.96313
▁million	-8.96314
▁{	-8.96392
▁referred	-8.96552
▁trust	-8.96576
▁network	-8.96578
ative	-8.96774
▁demand	-8.9684
▁run	-8.96874
▁’	-8.96876
ow	-8.96905
ct	-8.97101
▁past	-8.97241
▁security	-8.97263
▁related	-8.97265
▁Congress	-8.97266
▁real	-8.97294
▁ex	-8.9736
▁By	-8.97631
hu	-8.97691
one	-8.97712
▁greater	-8.97844
ization	-8.97955
▁Thus	-8.98068
ts	-8.98073
▁List	-8.98075
▁asked	-8.98272
▁sign	-8.98278
per	-8.98312
▁000	-8.9842
line	-8.98499
▁sure	-8.98518
▁community	-8.98552
▁w	-8.9866
▁higher	-8.98712
RB	-8.98819
ab	-8.9882
▁whatever	-8.98919
▁written	-8.99011
▁got	-8.99065
▁Us	-8.99209
▁RRB	-8.99229
▁city	-8.99403
▁sea	-8.99464
▁revealed	-8.99494
▁guidance	-8.99625
▁doubt	-8.99627
▁Now	-8.99732
▁specified	-8.99796
▁mode	-8.99829
os	-8.99869
▁living	-8.99879
▁11	-9.00032
▁once	-9.00157
▁institutions	-9.00335
▁students	-9.00338
▁sense	-9.0059
▁paid	-9.0066
bo	-9.0073
▁reason	-9.0078
▁Union	-9.00827
ally	-9.00974
▁modern	-9.01081
▁hard	-9.01402
ium	-9.01459
▁class	-9.01558
▁Muslim	-9.01594
ised	-9.01686
qu	-9.01741
▁witness	-9.0177
▁rest	-9.01955
ized	-9.02033
▁force	-9.02242
ship	-9.02253
▁problem	-9.02271
▁lo	-9.02383
▁hope	-9.02939
▁verily	-9.0294
▁soon	-9.02974
▁story	-9.03048
ay	-9.03111
▁months	-9.0316
▁complete	-9.03197
▁16	-9.03606
▁continue	-9.03606
ile	-9.03679
ud	-9.03686
▁told	-9.03743
▁culture	-9.0375
▁poor	-9.03881
▁server	-9.04008
▁thy	-9.04314
ize	-9.04428
▁believed	-9.04457
▁till	-9.04544
land	-9.04744
ph	-9.04784
▁Pa	-9.04793
▁Parliament	-9.04863
▁six	-9.04898
▁school	-9.0504
ward	-9.05075
▁Gandhi	-9.05083
▁Constitution	-9.05125
▁INDIA	-9.05182
ious	-9.05294
▁manner	-9.05312
▁eyes	-9.05442
▁Bo	-9.05445
▁accept	-9.05761
▁add	-9.05801
▁progress	-9.05835
▁car	-9.05949
▁tree	-9.06358
▁century	-9.06367
AL	-9.06415
▁High	-9.0648
▁files	-9.06645
▁writing	-9.06678
5	-9.06716
▁international	-9.06951
▁why	-9.07014
▁however	-9.07044
ever	-9.07207
tal	-9.07237
ning	-9.07268
▁turned	-9.07305
▁blood	-9.0733
▁basis	-9.07338
▁doing	-9.07341
▁close	-9.07479
▁village	-9.07496
▁works	-9.07505
▁speak	-9.07593
▁receive	-9.07748
▁benefit	-9.0776
▁party	-9.07794
▁appointed	-9.07886
▁investment	-9.07888
bi	-9.07905
all	-9.07943
▁test	-9.07979
▁ground	-9.08014
▁Mr	-9.08065
ical	-9.08083
▁Bengal	-9.08171
The	-9.08199
▁energy	-9.08214
▁http	-9.08244
▁considered	-9.08249
▁size	-9.08278
▁Muslims	-9.08439
▁loss	-9.0863
▁single	-9.08761
▁rule	-9.0892
▁particular	-9.08925
▁meet	-9.09023
(	-9.09031
▁Surely	-9.09031
▁Moses	-9.09181
ding	-9.09274
▁Prophet	-9.09276
▁transfer	-9.09368
▁v	-9.09372
ving	-9.09581
▁inter	-9.0959
gi	-9.09595
▁Council	-9.09705
▁payment	-9.09761
qui	-9.09861
▁structure	-9.09976
▁Po	-9.10056
▁Verily	-9.10112
▁global	-9.10157
▁Fire	-9.10217
▁general	-9.10249
tro	-9.10341
▁14	-9.10452
▁task	-9.1075
?"	-9.10757
ven	-9.1078
▁25	-9.10797
▁exchange	-9.10914
tax	-9.10947
dic	-9.10972
▁care	-9.11018
▁wish	-9.1111
▁problems	-9.11185
les	-9.11225
▁However	-9.11326
red	-9.11385
▁Information	-9.11586
▁purposes	-9.11732
▁assessee	-9.11744
▁check	-9.11778
▁spread	-9.11927
▁bear	-9.11946
▁Israel	-9.11955
ram	-9.11978
ton	-9.12149
ten	-9.12261
▁search	-9.12295
▁sun	-9.12573
▁30	-9.12633
▁stage	-9.12689
▁crore	-9.127
▁comes	-9.12724
▁religious	-9.12725
▁disbelieve	-9.13385
▁America	-9.13399
▁write	-9.13554
ard	-9.13556
▁often	-9.13571
▁management	-9.13608
▁passed	-9.1368
▁region	-9.13783
ner	-9.14083
▁wealth	-9.14194
▁Ro	-9.14405
▁changes	-9.14405
▁issued	-9.14453
kar	-9.14484
▁Add	-9.14657
▁Ga	-9.14662
ari	-9.14739
▁report	-9.14911
▁none	-9.1497
▁met	-9.15112
▁allowed	-9.1512
▁terms	-9.15211
▁thus	-9.15238
▁Muhammad	-9.15245
▁contact	-9.15254
):	-9.15254
▁hear	-9.15322
▁*	-9.15403
▁needs	-9.15462
way	-9.15467
▁patient	-9.15487
der	-9.15601
▁freedom	-9.15647
▁stone	-9.15664
▁Ja	-9.15714
au	-9.1574
▁sound	-9.15779
▁everything	-9.16064
▁ha	-9.16127
▁creation	-9.16192
▁File	-9.16267
▁taking	-9.16282
▁natural	-9.16335
▁source	-9.16338
du	-9.16511
▁produce	-9.16552
we	-9.1661
▁personal	-9.16635
▁books	-9.16639
▁eat	-9.16757
ble	-9.16787
▁Name	-9.16887
▁function	-9.16936
▁Mar	-9.16971
ng	-9.1709
ala	-9.17226
▁fight	-9.17255
▁ma	-9.17409
▁Se	-9.1743
lt	-9.17435
▁Fa	-9.17564
▁Va	-9.17743
▁seven	-9.17849
▁Sub	-9.17862
▁goods	-9.17916
▁neither	-9.17937
▁member	-9.17949
▁pass	-9.17956
▁Public	-9.18034
mit	-9.18046
▁efforts	-9.18187
▁alone	-9.18208
▁really	-9.18232
▁fast	-9.18298
▁assessment	-9.18447
▁duty	-9.18508
▁programme	-9.18563
so	-9.18617
▁Let	-9.18618
▁according	-9.18689
▁outside	-9.18724
▁ve	-9.18767
▁space	-9.18789
▁conditions	-9.19011
▁X	-9.19021
▁parts	-9.19048
▁Such	-9.19125
▁least	-9.19188
▁temple	-9.19253
▁population	-9.1935
▁Mu	-9.19358
▁Institute	-9.19449
▁deny	-9.19455
▁mo	-9.19487
▁Error	-9.19515
▁brother	-9.19594
▁forward	-9.19731
▁Pro	-9.19923
▁lot	-9.19962
▁developed	-9.19984
▁messages	-9.20059
▁disease	-9.20079
▁early	-9.20096
J	-9.20184
▁training	-9.20212
▁Whether	-9.20246
▁entire	-9.20273
▁move	-9.20316
▁na	-9.20363
▁persons	-9.20456
q	-9.2048
▁ensure	-9.20551
▁guide	-9.20612
▁followed	-9.20771
▁science	-9.21051
ER	-9.21072
tor	-9.2113
▁literature	-9.21152
▁ba	-9.2116
▁promise	-9.21253
▁fall	-9.21286
▁Da	-9.21428
▁Pre	-9.21454
▁bar	-9.21581
ex	-9.21582
▁13	-9.21627
▁judge	-9.21707
▁video	-9.21757
▁price	-9.21804
AR	-9.21814
▁color	-9.2183
▁evidence	-9.21862
▁provision	-9.21874
▁original	-9.2193
▁secret	-9.21964
▁dead	-9.21997
▁woman	-9.22143
▁deal	-9.22209
▁Ar	-9.22309
▁17	-9.224
▁spirit	-9.22466
▁remain	-9.22515
ors	-9.22647
▁situation	-9.22851
AN	-9.22866
▁matters	-9.2309
▁month	-9.23102
ator	-9.23113
▁Islam	-9.23115
▁pi	-9.23149
▁Even	-9.23163
od	-9.23182
▁saying	-9.23185
▁Ne	-9.23252
▁Officer	-9.23363
ory	-9.23365
▁Not	-9.23458
▁feel	-9.23461
tan	-9.23552
▁device	-9.23607
▁capacity	-9.23676
▁Di	-9.23885
▁Board	-9.23897
▁Canno	-9.23992
▁People	-9.24203
▁favour	-9.24285
war	-9.24406
▁document	-9.24406
▁Ta	-9.24429
▁righteous	-9.24477
▁include	-9.24532
▁approach	-9.24575
▁character	-9.24614
▁gives	-9.24694
▁industrial	-9.24756
▁half	-9.24899
▁export	-9.2494
▁program	-9.25069
▁wife	-9.25103
▁1.	-9.2511
▁ill	-9.25219
▁Section	-9.25276
▁May	-9.25345
▁king	-9.25485
▁condition	-9.25511
▁claim	-9.25691
▁private	-9.25704
▁pa	-9.25716
▁study	-9.25736
ii	-9.25858
▁l	-9.2591
▁record	-9.25921
ik	-9.26007
▁San	-9.26075
▁author	-9.26144
▁saw	-9.26177
▁Asia	-9.26223
▁ho	-9.26263
▁disc	-9.26369
▁regard	-9.26424
▁n	-9.26441
▁die	-9.26552
▁sin	-9.26606
▁answer	-9.26611
▁mankind	-9.26764
▁firm	-9.26985
▁deep	-9.26993
▁li	-9.27046
sion	-9.27047
▁angels	-9.27066
▁Z	-9.271
▁lost	-9.27181
▁Mukherjee	-9.27407
▁try	-9.27421
▁mail	-9.27531
ug	-9.27581
▁plan	-9.27769
▁Ad	-9.27915
6	-9.27917
▁flow	-9.27919
▁hold	-9.2799
▁operation	-9.28053
▁material	-9.28067
ash	-9.28088
▁almost	-9.28165
▁Sabha	-9.28221
▁lead	-9.28271
▁district	-9.28404
ions	-9.2846
den	-9.28608
▁resources	-9.28623
9	-9.28635
▁opens	-9.28679
▁torment	-9.28685
▁break	-9.28732
▁ti	-9.28811
▁earlier	-9.28888
▁kept	-9.29001
▁Project	-9.29107
▁lakh	-9.2923
▁user	-9.29245
IC	-9.29259
▁desire	-9.29275
▁direction	-9.29303
▁talk	-9.29373
▁big	-9.29419
▁Merciful	-9.29436
▁across	-9.29472
▁Ex	-9.29517
ations	-9.29598
▁Commission	-9.29616
▁Le	-9.29638
gg	-9.29665
▁raised	-9.2968
▁va	-9.29711
▁mis	-9.29776
▁makes	-9.2983
▁similar	-9.29839
▁Where	-9.29903
▁strength	-9.29967
ster	-9.29998
▁po	-9.30001
▁thee	-9.30043
ell	-9.30123
▁issue	-9.30133
://	-9.30245
ified	-9.30341
nu	-9.30464
▁enough	-9.30511
press	-9.30522
▁environment	-9.3063
▁notice	-9.30686
▁host	-9.31041
▁Use	-9.31125
▁physical	-9.31257
cent	-9.31318
▁third	-9.31357
▁job	-9.31461
▁0	-9.31594
▁top	-9.31655
▁Y	-9.31785
▁rec	-9.32004
▁grant	-9.32016
▁rain	-9.32023
▁Republic	-9.32031
▁Centre	-9.32219
mp	-9.32313
▁hundred	-9.3237
▁agreement	-9.32493
IS	-9.32567
▁products	-9.3259
▁apply	-9.32593
▁farmers	-9.32627
▁stand	-9.32667
▁sum	-9.32715
▁female	-9.32747
▁sp	-9.32825
▁astray	-9.32862
▁East	-9.32901
ju	-9.32944
▁institution	-9.32986
ign	-9.33049
▁West	-9.33184
▁fund	-9.33243
act	-9.33295
▁South	-9.33393
ill	-9.33436
▁page	-9.33446
▁Te	-9.3354
▁below	-9.33663
ai	-9.33707
ag	-9.33732
▁allow	-9.33824
▁decision	-9.33842
▁carried	-9.33965
ie	-9.34005
ight	-9.3404
▁please	-9.34089
ability	-9.34197
ology	-9.34272
val	-9.34274
▁Bi	-9.34512
▁rich	-9.34524
▁god	-9.34566
▁failed	-9.34621
▁connection	-9.34664
▁April	-9.34773
▁United	-9.34807
▁decided	-9.34844
▁guided	-9.34898
ft	-9.349
han	-9.34904
▁reach	-9.34968
▁rural	-9.35009
▁comp	-9.35137
▁attack	-9.35315
▁success	-9.35342
▁ancient	-9.35355
ect	-9.35371
▁direct	-9.35412
▁low	-9.35539
▁From	-9.35548
▁consider	-9.356
▁prepared	-9.35629
by	-9.35655
▁relating	-9.35859
▁instrument	-9.3591
▁eight	-9.35992
▁economy	-9.36055
sha	-9.36234
▁prayer	-9.36304
▁Have	-9.3638
▁Cha	-9.36414
use	-9.36415
▁front	-9.36467
ging	-9.36545
▁(2)	-9.36611
▁behalf	-9.36643
pl	-9.36701
gh	-9.36748
▁Sanskrit	-9.36761
▁World	-9.3684
▁wide	-9.36846
son	-9.3685
▁disbelievers	-9.36869
ries	-9.36876
▁Th	-9.37051
ping	-9.37174
▁App	-9.37287
day	-9.37415
ger	-9.37492
tain	-9.37576
▁built	-9.37591
▁prevent	-9.37823
▁difficult	-9.37871
▁boy	-9.37925
▁projects	-9.37933
▁meaning	-9.38164
▁actually	-9.38264
▁specific	-9.38392
ea	-9.38435
mer	-9.38453
▁lower	-9.38507
▁statement	-9.38511
▁Har	-9.38516
ani	-9.38585
▁2.	-9.3863
▁popular	-9.3867
▁im	-9.388
ery	-9.3883
▁bi	-9.38907
▁led	-9.38955
▁Pranab	-9.38991
▁Their	-9.39018
▁birth	-9.39103
▁Chief	-9.39154
▁Can	-9.39166
X	-9.3923
▁whoever	-9.39306
▁import	-9.39338
▁Scheme	-9.39435
▁Technology	-9.39435
▁copy	-9.39435
▁cases	-9.39499
▁river	-9.39505
bar	-9.39576
▁certificate	-9.39596
▁deposit	-9.39713
end	-9.3986
out	-9.39979
▁letter	-9.40033
▁50	-9.40036
ification	-9.40072
ual	-9.40228
▁mark	-9.40287
▁happy	-9.40328
▁Income	-9.40329
▁rights	-9.40416
king	-9.40418
IN	-9.40472
ib	-9.40489
shi	-9.40522
▁Account	-9.40534
▁paper	-9.40548
▁issues	-9.40578
▁protect	-9.40641
▁honour	-9.40778
▁unbelievers	-9.40868
▁poet	-9.4088
▁leaders	-9.40891
▁Pra	-9.40933
▁com	-9.41055
▁road	-9.41074
▁th	-9.41146
▁Education	-9.41271
▁especially	-9.41271
▁Par	-9.41283
▁style	-9.41315
▁le	-9.41324
▁event	-9.41399
▁Save	-9.41452
▁published	-9.41458
oc	-9.41517
▁scale	-9.41531
tter	-9.41617
▁besides	-9.41624
▁tr	-9.41628
▁Commissioner	-9.41731
IT	-9.41739
▁opportunity	-9.4185
▁provides	-9.41889
▁born	-9.41892
▁tradition	-9.41906
▁Sri	-9.41992
tr	-9.42102
▁relations	-9.42204
▁states	-9.42323
▁TO	-9.42338
ki	-9.42478
▁100	-9.42502
▁coming	-9.42546
▁Li	-9.42559
▁clean	-9.42599
▁Message	-9.42724
▁Ca	-9.42827
ition	-9.42962
▁accepted	-9.43048
her	-9.43132
▁display	-9.43176
▁Right	-9.43224
▁providing	-9.43269
ps	-9.4327
▁morning	-9.43356
port	-9.43403
▁simple	-9.43521
isation	-9.43585
▁develop	-9.43658
dra	-9.43717
bu	-9.43722
▁focus	-9.43737
▁method	-9.43808
RI	-9.43812
ments	-9.4391
▁load	-9.43922
▁friends	-9.43935
▁Under	-9.43937
rate	-9.43944
▁lives	-9.43944
▁Category	-9.43985
ron	-9.44049
mon	-9.44084
▁Ko	-9.4412
▁concerned	-9.44129
▁During	-9.44147
ec	-9.44169
aries	-9.4424
▁facilities	-9.4424
▁active	-9.44255
▁View	-9.44293
▁cultural	-9.44325
▁Ab	-9.44328
▁Service	-9.4433
▁Pan	-9.44382
rr	-9.44394
▁giving	-9.4441
▁forms	-9.44439
▁wrote	-9.44452
▁idea	-9.445
▁easy	-9.44623
ick	-9.44667
▁increased	-9.44686
▁grow	-9.44778
▁status	-9.44836
▁effective	-9.44962
▁caused	-9.44973
▁ship	-9.44986
▁details	-9.45126
cc	-9.45132
▁spend	-9.45145
10	-9.45186
▁reached	-9.45189
▁cover	-9.45226
▁central	-9.45231
External	-9.45271
▁cr	-9.45469
▁rules	-9.45504
▁infrastructure	-9.45564
▁Bar	-9.45642
▁While	-9.4565
▁separate	-9.45661
ung	-9.45683
▁North	-9.45819
▁ca	-9.45869
▁cut	-9.45879
▁legal	-9.45887
▁game	-9.45922
▁International	-9.45953
bha	-9.46051
▁Maha	-9.4607
▁bo	-9.46247
▁ta	-9.46312
▁Hereafter	-9.46341
▁measure	-9.46396
▁prescribed	-9.46428
▁began	-9.46482
▁card	-9.4653
sis	-9.46538
▁Rama	-9.46582
▁unit	-9.46662
▁thereof	-9.46708
ze	-9.46742
▁groups	-9.46826
▁Governor	-9.46857
ide	-9.47009
▁room	-9.47117
▁rather	-9.47128
▁pl	-9.47131
▁American	-9.47181
▁obey	-9.47259
▁oil	-9.47291
▁Time	-9.47366
▁default	-9.47387
▁contract	-9.47483
▁cast	-9.47612
tt	-9.47643
▁March	-9.47646
▁site	-9.47668
▁instead	-9.47691
▁harm	-9.47705
lin	-9.47796
▁justice	-9.47902
▁root	-9.47932
▁unless	-9.47958
ction	-9.48148
▁24	-9.48162
cr	-9.4818
RE	-9.48238
▁bound	-9.4824
ff	-9.48287
▁base	-9.4829
▁yourselves	-9.4831
▁forgive	-9.4836
▁beyond	-9.48487
▁build	-9.48517
▁hu	-9.48519
mal	-9.48579
nch	-9.48658
chi	-9.48695
ara	-9.48777
▁importance	-9.48787
▁values	-9.48866
▁lie	-9.48888
let	-9.48989
▁loan	-9.49053
▁belongs	-9.49229
▁Director	-9.4936
▁film	-9.49413
▁responsible	-9.49466
▁object	-9.49481
▁shown	-9.49625
▁beginning	-9.49651
▁music	-9.49685
▁sky	-9.49757
cal	-9.4976
▁heaven	-9.49809
▁watch	-9.49825
▁conduct	-9.49843
▁Of	-9.4991
ration	-9.50029
▁Africa	-9.50218
8	-9.50244
▁places	-9.50295
ny	-9.50356
▁programmes	-9.50446
▁content	-9.50451
▁Bu	-9.50543
▁serve	-9.50544
▁folk	-9.50745
▁bit	-9.50767
▁session	-9.50818
light	-9.50843
ld	-9.50878
▁permission	-9.50879
],	-9.5098
▁listen	-9.51007
set	-9.51041
▁Hell	-9.51294
ged	-9.51363
16	-9.51393
▁vision	-9.51481
▁remove	-9.51488
▁balance	-9.51499
▁dispute	-9.51505
▁advance	-9.51579
▁learn	-9.51626
▁reflect	-9.51636
▁stay	-9.51664
▁wind	-9.51721
▁spiritual	-9.51739
ali	-9.51761
▁returned	-9.51927
▁Raj	-9.51964
▁article	-9.52056
▁male	-9.52066
▁placed	-9.52114
▁Other	-9.52144
▁says	-9.52162
▁forest	-9.52271
▁password	-9.52326
▁Failed	-9.5237
▁potential	-9.52417
▁bad	-9.52423
▁eye	-9.52485
ore	-9.52761
▁r	-9.52766
▁setting	-9.52903
▁appeal	-9.52924
▁treatment	-9.53003
ice	-9.53039
▁step	-9.53063
pt	-9.53145
▁version	-9.53151
ler	-9.53168
rd	-9.53172
▁Bill	-9.53197
▁Qu	-9.5329
▁para	-9.53359
▁IN	-9.53415
▁practice	-9.53431
tar	-9.53469
▁Dis	-9.53596
▁round	-9.53615
▁addition	-9.53641
▁heard	-9.53685
▁understanding	-9.53861
This	-9.53973
▁Bha	-9.54006
▁range	-9.541
▁code	-9.54113
▁design	-9.54115
ture	-9.54179
▁Jo	-9.54212
dy	-9.54227
▁thousand	-9.54251
▁quite	-9.54293
▁traditional	-9.54399
▁collection	-9.54422
▁Research	-9.54463
nce	-9.54525
▁+	-9.54659
▁Are	-9.54664
▁becomes	-9.5467
▁fair	-9.54672
gra	-9.54725
▁model	-9.54743
fe	-9.54752
▁organisation	-9.54752
▁Quran	-9.54756
▁option	-9.54757
▁gone	-9.54795
▁Evolution	-9.5484
wi	-9.5487
thi	-9.54894
▁asset	-9.54901
▁servants	-9.54956
ham	-9.54988
▁expression	-9.55085
▁dance	-9.55155
▁labour	-9.5517
▁lies	-9.55187
▁existing	-9.55193
▁unjust	-9.55218
▁praise	-9.55252
▁Bharat	-9.55266
▁correct	-9.55267
▁rivers	-9.55291
▁Set	-9.55309
▁War	-9.55349
▁added	-9.55394
▁speech	-9.55489
▁friend	-9.55577
▁Comp	-9.55636
▁existence	-9.55711
▁charge	-9.55858
▁news	-9.55867
mu	-9.55912
▁Up	-9.5598
▁promote	-9.56027
istic	-9.56049
▁US	-9.56052
▁activity	-9.56081
▁white	-9.56114
mark	-9.56121
▁Many	-9.56162
▁parents	-9.56171
▁Sha	-9.56201
▁port	-9.56257
▁rise	-9.56338
▁Per	-9.56434
ple	-9.56482
▁exp	-9.56519
▁Pakistan	-9.56553
▁System	-9.56601
▁establish	-9.56619
gen	-9.56629
not	-9.56718
▁basic	-9.56742
ound	-9.5679
▁Sam	-9.56801
▁Pe	-9.56831
che	-9.56886
▁drink	-9.56917
▁agricultural	-9.56937
▁request	-9.571
▁mental	-9.57201
▁employment	-9.57239
yan	-9.57285
ava	-9.57312
▁link	-9.57316
tha	-9.57433
▁black	-9.57711
▁mean	-9.57727
▁week	-9.57738
▁cell	-9.57845
▁citizens	-9.57849
▁anti	-9.57876
▁goes	-9.58173
▁=	-9.58205
▁fi	-9.58213
▁fe	-9.58225
▁concerning	-9.58256
▁pain	-9.58283
▁Search	-9.58301
ES	-9.58428
▁taste	-9.58441
mar	-9.58491
▁sh	-9.58546
gn	-9.58642
ber	-9.58644
▁reference	-9.58713
▁felt	-9.58747
▁languages	-9.58807
▁fo	-9.58841
▁touch	-9.58861
▁se	-9.58929
og	-9.58933
▁goal	-9.58933
▁knew	-9.58938
▁presented	-9.58975
▁plus	-9.58987
▁getting	-9.5902
▁21	-9.59025
▁Create	-9.59036
▁format	-9.59047
▁Ch	-9.5906
▁moment	-9.59062
▁parties	-9.59304
▁Therefore	-9.59327
▁running	-9.59399
▁wise	-9.59404
▁opinion	-9.59425
▁pe	-9.5944
▁app	-9.59452
12	-9.59509
▁Car	-9.59533
ces	-9.59559
▁learning	-9.59573
▁generation	-9.59657
▁aware	-9.59713
▁Resurrection	-9.59722
▁fixed	-9.59877
▁ne	-9.59911
side	-9.59918
▁Krishna	-9.5997
ped	-9.59971
put	-9.60265
und	-9.6028
▁Ya	-9.60291
▁Europe	-9.60598
▁connect	-9.60601
▁secure	-9.60618
▁warm	-9.6063
▁extend	-9.60656
▁sale	-9.60672
que	-9.60695
▁verses	-9.60835
In	-9.60861
ably	-9.6088
▁y	-9.60994
▁green	-9.61019
▁ro	-9.61046
▁Why	-9.61054
Allah	-9.61059
▁Gu	-9.61096
▁colour	-9.61119
▁department	-9.61158
▁names	-9.61186
▁mentioned	-9.61194
▁ones	-9.61206
▁lay	-9.61256
▁wanted	-9.61275
▁ago	-9.61312
fa	-9.61323
▁mu	-9.61362
▁novel	-9.61376
▁generally	-9.61419
▁painful	-9.61489
▁carry	-9.61574
mm	-9.61611
▁police	-9.61724
eg	-9.61724
▁usually	-9.61808
▁produced	-9.61863
▁responsibility	-9.62027
▁plain	-9.62028
▁civil	-9.62057
▁destroyed	-9.62119
▁Folder	-9.6223
unt	-9.62287
▁sight	-9.62356
▁immediately	-9.62533
▁Wa	-9.6255
rit	-9.62557
▁Today	-9.62597
▁fish	-9.62666
▁formed	-9.62698
▁Supreme	-9.62791
▁severe	-9.62819
row	-9.62849
▁fa	-9.62879
▁En	-9.62941
wan	-9.62942
▁tried	-9.63015
▁presence	-9.63099
▁According	-9.63149
▁cur	-9.63157
▁associated	-9.63166
oo	-9.63228
chan	-9.63233
AT	-9.63289
▁wishes	-9.6333
▁associate	-9.63389
ising	-9.63434
▁Enter	-9.6346
▁ideal	-9.63483
▁Kashmir	-9.63509
OR	-9.63698
▁red	-9.6375
▁item	-9.63753
ada	-9.63822
▁Science	-9.63869
▁dream	-9.6387
▁cross	-9.6387
▁accounts	-9.63876
▁31	-9.63878
▁won	-9.63914
▁Ku	-9.63919
▁Plan	-9.63922
ama	-9.63932
▁blind	-9.63973
▁pure	-9.64094
▁draw	-9.64114
▁opportunities	-9.64128
▁avoid	-9.64129
▁manifest	-9.64254
par	-9.64308
▁continued	-9.64404
ier	-9.64431
▁significant	-9.64439
▁Office	-9.64445
bb	-9.64471
▁Kar	-9.64521
▁ways	-9.64608
▁King	-9.64617
▁feed	-9.64673
▁moon	-9.64716
▁fr	-9.64804
▁medical	-9.64806
lam	-9.64806
▁Sp	-9.64841
▁fine	-9.64843
▁poetry	-9.64888
▁du	-9.6493
▁serious	-9.64961
▁Every	-9.65092
▁expenditure	-9.65116
▁struggle	-9.65116
▁performance	-9.65145
▁join	-9.65154
▁Tri	-9.65209
▁famous	-9.65221
▁belong	-9.65261
▁sha	-9.65269
uc	-9.65316
tru	-9.65318
▁animals	-9.65372
▁offer	-9.65387
▁ideas	-9.6542
▁forgiveness	-9.65436
▁feet	-9.65438
▁Islamic	-9.65489
▁ON	-9.65492
▁Fe	-9.65528
▁Explanation	-9.65588
▁regarding	-9.65595
▁companies	-9.65641
▁industries	-9.65641
▁beautiful	-9.65693
▁Yet	-9.65703
▁degree	-9.65708
▁anyone	-9.6571
▁youth	-9.65818
▁scientific	-9.65851
▁Shah	-9.65887
if	-9.66024
▁Mon	-9.66158
▁enable	-9.6619
11	-9.66194
▁exercise	-9.66221
▁procedure	-9.66221
▁press	-9.66267
ric	-9.66284
▁Any	-9.66362
▁calendar	-9.66379
▁exist	-9.66397
▁Provided	-9.66403
▁houses	-9.66454
dar	-9.66475
▁Wise	-9.66479
▁reject	-9.66559
▁final	-9.66624
▁contribution	-9.66672
▁assistance	-9.66715
▁particularly	-9.66754
▁directory	-9.66763
rt	-9.66825
▁occur	-9.66874
▁bill	-9.66887
▁station	-9.66892
▁note	-9.66904
▁revelations	-9.66913
▁normal	-9.66922
▁workers	-9.67036
▁punish	-9.67055
▁nine	-9.67186
▁h	-9.67215
▁units	-9.67262
▁Address	-9.67337
form	-9.67446
▁forces	-9.67447
He	-9.67479
ify	-9.67498
▁joint	-9.67521
▁gra	-9.676
▁supply	-9.67658
rat	-9.67767
▁pray	-9.67861
▁software	-9.67875
▁email	-9.67888
ency	-9.67909
▁Group	-9.67927
▁successful	-9.681
▁fully	-9.68163
▁journey	-9.68196
▁plants	-9.68211
▁ja	-9.68223
▁relevant	-9.6825
▁attempt	-9.6825
▁proper	-9.68292
▁Thou	-9.68293
cl	-9.68354
▁essential	-9.68442
▁dec	-9.68523
ack	-9.68543
▁select	-9.68544
▁Which	-9.68574
▁powers	-9.68576
▁granted	-9.68664
▁Import	-9.68683
▁26	-9.68693
▁contains	-9.68702
▁Only	-9.68718
br	-9.68726
▁accordance	-9.68748
▁fruit	-9.68826
▁relation	-9.68839
▁ver	-9.68969
▁Work	-9.6905
▁drive	-9.69056
▁team	-9.69064
▁laid	-9.69093
ants	-9.69104
gar	-9.69131
▁media	-9.69148
▁release	-9.69262
▁former	-9.69277
pro	-9.69378
▁concern	-9.69412
▁2000	-9.69422
▁takes	-9.69426
▁perhaps	-9.69444
▁Tamil	-9.69444
▁limited	-9.6946
▁administration	-9.69553
▁Start	-9.69629
▁minister	-9.69666
▁feeling	-9.69709
▁Last	-9.69961
▁Truth	-9.69992
▁location	-9.70003
▁nu	-9.70014
▁Calcutta	-9.70046
▁Guru	-9.70093
▁speed	-9.70107
▁machine	-9.70131
▁multi	-9.70147
▁chief	-9.7016
▁Will	-9.70252
▁ch	-9.70305
▁picture	-9.70321
▁stop	-9.70343
▁includes	-9.7035
▁Bal	-9.70376
▁limit	-9.70379
pp	-9.70381
▁target	-9.70432
▁husband	-9.70432
▁supported	-9.70475
▁agriculture	-9.70487
▁choose	-9.70601
▁appear	-9.7064
);	-9.70656
▁January	-9.70669
▁banks	-9.70732
▁centre	-9.70822
▁memory	-9.71116
ris	-9.71127
▁north	-9.71139
▁23	-9.71171
▁gain	-9.7125
▁convey	-9.71265
▁table	-9.71295
▁regular	-9.713
▁risk	-9.71322
▁Pharaoh	-9.71514
▁profit	-9.71544
▁directly	-9.71607
iya	-9.71656
You	-9.71676
cor	-9.71679
▁sufficient	-9.71789
ists	-9.71792
▁product	-9.7186
ulation	-9.71903
▁standard	-9.71904
▁consideration	-9.71917
▁Enable	-9.71944
▁voice	-9.72044
▁cities	-9.72105
▁middle	-9.72157
▁effort	-9.72175
vel	-9.722
▁relative	-9.72212
▁Si	-9.72221
▁mi	-9.72264
▁Change	-9.72271
▁weight	-9.72323
▁door	-9.72358
▁Mumbai	-9.72493
▁relationship	-9.72562
ned	-9.72631
nal	-9.72732
bit	-9.72735
eep	-9.72806
▁guard	-9.72871
▁depend	-9.72898
▁quot	-9.72909
▁portion	-9.72941
▁covered	-9.72943
struct	-9.72962
▁grace	-9.72984
▁length	-9.73001
▁denied	-9.73002
▁hill	-9.73017
▁Lok	-9.73153
▁travel	-9.73244
ened	-9.73245
▁attention	-9.73294
▁expect	-9.73301
▁master	-9.7336
uch	-9.73398
hal	-9.73415
▁influence	-9.73419
▁inside	-9.73428
▁pleasure	-9.73455
▁looking	-9.73459
▁mountains	-9.73475
nath	-9.7356
▁award	-9.73575
▁changed	-9.73576
▁Power	-9.73636
uck	-9.73646
▁perform	-9.7365
▁fit	-9.73749
▁waste	-9.73759
▁store	-9.73801
0	-9.73805
▁count	-9.73924
ose	-9.7396
▁shape	-9.7408
▁Management	-9.74139
▁mutual	-9.74142
▁22	-9.74222
▁Abraham	-9.74397
▁Sur	-9.74676
▁cooperation	-9.74713
▁Shi	-9.74809
xi	-9.74827
▁Children	-9.74828
▁See	-9.74833
▁match	-9.74866
▁script	-9.74973
▁construction	-9.75015
▁attend	-9.75078
van	-9.75083
▁town	-9.7511
▁Fund	-9.75113
▁promised	-9.75137
▁milk	-9.75175
▁highest	-9.75214
▁largest	-9.75216
▁assets	-9.7526
▁discussion	-9.7526
▁28	-9.75305
▁Pur	-9.75399
▁Forgiving	-9.75406
▁south	-9.75408
▁straight	-9.75464
▁else	-9.7552
▁skin	-9.75529
▁figure	-9.75574
▁AND	-9.75696
▁Image	-9.75698
▁IT	-9.75718
▁cor	-9.75739
▁purchase	-9.75871
▁innovation	-9.75929
▁enjoy	-9.75985
▁protection	-9.75999
▁Move	-9.7614
▁Home	-9.76144
▁chastisement	-9.76172
▁extent	-9.76182
▁percent	-9.76203
▁marriage	-9.76221
▁Ho	-9.76295
▁wait	-9.76302
▁twenty	-9.76337
▁Hindus	-9.76354
▁27	-9.76363
▁proof	-9.76509
▁festival	-9.76513
ika	-9.76515
▁pattern	-9.7663
▁gods	-9.76634
▁stream	-9.7667
▁sons	-9.76768
▁measures	-9.76779
▁official	-9.76786
▁Western	-9.76808
▁contain	-9.7681
▁opened	-9.7696
▁systems	-9.76981
▁someone	-9.77146
▁implementation	-9.77188
▁Edit	-9.77204
▁net	-9.77219
▁custom	-9.7725
▁longer	-9.77318
▁advice	-9.77396
▁deemed	-9.77397
▁connected	-9.7747
fer	-9.77493
▁enemy	-9.77514
▁hours	-9.77611
ING	-9.77691
▁appropriate	-9.77708
▁villages	-9.77789
▁June	-9.7783
▁officers	-9.77868
▁steps	-9.77891
▁December	-9.7796
html	-9.77972
▁Well	-9.77973
▁Tax	-9.77995
▁European	-9.78013
▁Kha	-9.78062
It	-9.78149
▁Sc	-9.78173
▁wall	-9.78192
!"	-9.78214
▁al	-9.78273
▁Am	-9.78295
000	-9.78364
▁violence	-9.78406
ome	-9.78444
hy	-9.78456
▁Inter	-9.78497
time	-9.7858
▁association	-9.78585
▁Delete	-9.7859
ue	-9.7861
“	-9.78681
▁Min	-9.78753
▁benefits	-9.78848
▁Fi	-9.78878
▁Copy	-9.78881
My	-9.78894
▁included	-9.78933
▁channel	-9.79005
▁complex	-9.79065
tric	-9.79109
▁deduction	-9.79166
▁completed	-9.79209
aka	-9.79223
ken	-9.79239
▁played	-9.7929
▁height	-9.79302
izing	-9.79337
▁organ	-9.79351
▁entered	-9.7937
▁standing	-9.79419
▁educational	-9.79442
▁unique	-9.79505
eration	-9.79519
▁burden	-9.79551
itis	-9.79574
ek	-9.79601
01	-9.79656
▁belief	-9.7968
▁leading	-9.79721
▁Bihar	-9.79836
pu	-9.79874
And	-9.79924
▁response	-9.80032
▁trial	-9.80064
ular	-9.8012
▁Pat	-9.80167
▁species	-9.80225
What	-9.80233
▁otherwise	-9.80239
▁maintain	-9.8032
▁wage	-9.80391
cation	-9.80431
▁walk	-9.80443
▁Chandra	-9.80444
▁PM	-9.80465
ew	-9.80472
▁gas	-9.80482
▁Gujarat	-9.80497
af	-9.80553
▁hour	-9.80555
▁democracy	-9.80579
las	-9.80641
▁saved	-9.80723
▁raise	-9.80729
ID	-9.80731
▁rank	-9.80979
ath	-9.81006
▁doers	-9.81095
▁tea	-9.81166
ved	-9.81233
▁ki	-9.81237
nk	-9.81272
▁apart	-9.81282
▁Text	-9.81317
▁fill	-9.81342
▁distance	-9.81376
▁commit	-9.81406
▁domestic	-9.81437
▁ob	-9.81464
▁bond	-9.81573
▁ready	-9.81596
▁annual	-9.81627
▁foot	-9.81665
▁technical	-9.81746
▁Finance	-9.81746
▁minus	-9.81765
▁log	-9.81808
▁storage	-9.81808
cept	-9.81936
▁documents	-9.8199
▁hospital	-9.81993
▁Policy	-9.81993
▁buy	-9.81994
▁plugin	-9.82055
▁Ti	-9.82098
ates	-9.82126
▁faces	-9.8213
▁First	-9.82147
▁stock	-9.82195
com	-9.82202
cy	-9.82207
esh	-9.82222
▁3.	-9.8224
▁def	-9.82297
7	-9.82337
▁Post	-9.82342
▁laws	-9.82387
yn	-9.82389
▁lu	-9.8239
▁moral	-9.82407
▁ce	-9.82478
▁stories	-9.8249
▁Law	-9.82524
▁Ni	-9.82529
ko	-9.82579
za	-9.82593
itation	-9.82595
rid	-9.826
▁sides	-9.82629
iii	-9.82639
ctor	-9.82687
▁Messengers	-9.82763
▁items	-9.8284
▁Language	-9.82926
▁mass	-9.82953
▁2014	-9.82958
▁Remove	-9.82988
▁located	-9.83029
lan	-9.8303
▁types	-9.8304
▁powerful	-9.83071
▁surface	-9.83114
IR	-9.83149
▁km	-9.83168
pos	-9.83175
▁screen	-9.83239
▁che	-9.83306
▁October	-9.83335
su	-9.83348
▁ju	-9.83409
▁debt	-9.83439
▁useful	-9.83484
lf	-9.83494
▁safe	-9.83571
▁sins	-9.8359
If	-9.83632
kh	-9.83633
sur	-9.83649
▁80	-9.83659
▁heavy	-9.8368
read	-9.83692
▁numbers	-9.83738
▁commercial	-9.83741
rn	-9.83775
tation	-9.83817
az	-9.83819
▁leader	-9.83825
▁employees	-9.83836
▁partners	-9.83842
pha	-9.83846
▁argument	-9.83868
art	-9.83953
IL	-9.83979
▁title	-9.83991
▁Ru	-9.84012
mukherjee	-9.84058
pranab	-9.84121
▁achieve	-9.84122
▁knowing	-9.84136
▁recent	-9.84213
with	-9.84405
CC	-9.84457
Q	-9.84463
▁Corporation	-9.845
▁Arab	-9.84609
▁funds	-9.8462
▁drop	-9.84634
▁rock	-9.84654
▁growing	-9.84676
▁Assembly	-9.84714
▁mighty	-9.84742
▁Here	-9.84814
▁valid	-9.84819
▁0.	-9.8487
uk	-9.84892
low	-9.84904
▁deliver	-9.84965
AM	-9.84973
uring	-9.84985
▁conf	-9.85023
▁sat	-9.85041
▁Nehru	-9.85073
▁origin	-9.85243
▁external	-9.85265
▁staff	-9.85332
▁Programme	-9.85554
ED	-9.85555
▁sacrifice	-9.85585
wer	-9.85663
▁block	-9.85679
▁adopted	-9.85691
▁gar	-9.85698
▁SAW	-9.85714
▁weak	-9.85823
▁divine	-9.85843
▁Tra	-9.85857
▁kill	-9.85864
cus	-9.85917
▁teaching	-9.85921
cha	-9.86053
RA	-9.86111
▁pen	-9.86124
▁Ki	-9.86126
▁Contact	-9.86164
▁Sal	-9.86166
▁string	-9.86166
▁Satan	-9.86205
▁notification	-9.86221
▁hearing	-9.86231
▁exceed	-9.86244
▁officer	-9.86247
▁recompense	-9.86294
▁committed	-9.86321
ा	-9.86487
▁pur	-9.8649
over	-9.86492
▁improve	-9.86504
▁update	-9.86546
▁divided	-9.86553
▁animal	-9.86563
▁named	-9.86625
hold	-9.86655
▁gardens	-9.86663
▁operations	-9.86727
▁involved	-9.86773
▁shows	-9.868
uri	-9.86834
17	-9.86863
▁40	-9.86868
▁Kan	-9.86902
▁contained	-9.86923
cular	-9.86952
▁Bombay	-9.87007
▁square	-9.87021
ute	-9.8705
▁engaged	-9.87078
▁Secretary	-9.87079
▁reading	-9.87093
fully	-9.8712
▁Chairman	-9.87202
▁stated	-9.87249
AC	-9.873
▁Air	-9.87331
▁declared	-9.87331
▁avail	-9.87398
▁cash	-9.87437
▁payable	-9.87462
▁nations	-9.87487
▁September	-9.87492
▁concept	-9.8753
ix	-9.87606
▁gl	-9.87713
▁destroy	-9.87869
▁Print	-9.87874
▁Conference	-9.87927
▁Path	-9.87978
hood	-9.88029
▁independent	-9.88093
▁functions	-9.88181
▁policies	-9.88383
lay	-9.88385
▁Ri	-9.88387
kha	-9.88481
▁volume	-9.88515
▁Uttar	-9.88516
▁entry	-9.88534
▁November	-9.88556
▁China	-9.88562
▁ban	-9.88589
▁cap	-9.88602
▁registered	-9.88619
▁military	-9.88713
▁1,	-9.88727
▁Ke	-9.88865
▁aid	-9.88893
▁caste	-9.89015
▁amongst	-9.89065
▁review	-9.89074
▁CD	-9.89113
▁Nath	-9.89153
hara	-9.89244
ey	-9.89258
▁rid	-9.89297
ient	-9.8931
▁Khan	-9.89322
For	-9.89368
▁(%	-9.89416
▁average	-9.89446
▁appointment	-9.89496
▁warning	-9.89574
▁seem	-9.896
▁Unto	-9.89601
▁Part	-9.89686
▁developing	-9.89705
▁qu	-9.89707
▁favor	-9.89712
▁families	-9.89778
▁confirm	-9.89855
var	-9.89879
▁Out	-9.89883
▁Send	-9.89917
meter	-9.89937
▁cha	-9.89937
▁results	-9.9001
▁refuge	-9.90113
▁thinking	-9.90162
dal	-9.9025
▁El	-9.90275
▁fee	-9.90289
iz	-9.90316
tta	-9.90323
▁track	-9.9046
▁doctor	-9.90477
▁reform	-9.9052
bil	-9.90528
▁fathers	-9.90533
▁undertaking	-9.90742
▁bow	-9.90828
▁submit	-9.90847
▁helped	-9.90906
▁Exchange	-9.90922
▁sometimes	-9.90925
oth	-9.90994
▁Art	-9.91045
▁circumstances	-9.91058
▁lived	-9.91068
▁micro	-9.91113
▁exists	-9.91127
tive	-9.91152
▁cells	-9.91158
▁publication	-9.91181
▁division	-9.91201
jan	-9.91209
▁Nay	-9.91234
▁additional	-9.91251
▁expressed	-9.91284
▁processing	-9.91306
▁Nor	-9.91386
▁evening	-9.91416
▁academic	-9.91465
▁button	-9.91474
▁schemes	-9.91493
▁Para	-9.91555
fo	-9.91563
▁trees	-9.91584
▁skill	-9.91643
▁Check	-9.91682
right	-9.9174
▁Paradise	-9.91754
▁Gandhiji	-9.91906
▁mention	-9.921
▁invest	-9.92102
▁challenge	-9.92114
▁Punjab	-9.92132
AS	-9.92185
▁Kerala	-9.92217
▁ball	-9.92242
▁season	-9.92243
▁box	-9.92246
▁2007	-9.92299
▁fruits	-9.92311
▁(3)	-9.92364
▁August	-9.9238
▁proposal	-9.92423
▁utter	-9.92448
▁cat	-9.92473
▁URL	-9.92491
▁Mission	-9.92492
▁Tu	-9.9255
▁remained	-9.92559
aya	-9.92629
▁variety	-9.92698
▁truly	-9.92699
▁graph	-9.92765
▁foundation	-9.92782
▁hide	-9.92807
▁temples	-9.9283
▁consciousness	-9.92867
▁increasing	-9.92871
▁column	-9.92905
▁taught	-9.92917
▁arrangement	-9.92948
▁mouth	-9.93043
▁explain	-9.93084
▁conflict	-9.93181
▁seed	-9.93231
▁difference	-9.93266
▁affect	-9.93308
▁Mal	-9.93339
under	-9.93349
▁sort	-9.93366
▁Port	-9.93385
Muhammad	-9.93503
▁soil	-9.93636
▁objective	-9.93671
▁leaves	-9.93712
▁component	-9.93737
▁frame	-9.93778
▁manufacture	-9.93806
▁achievement	-9.93808
TH	-9.93841
▁memo	-9.93851
▁killed	-9.93874
▁Knowing	-9.93917
ties	-9.93919
ulate	-9.9393
▁symbol	-9.93934
▁dated	-9.93975
▁rejected	-9.93992
▁professional	-9.94015
▁2015	-9.94038
▁opening	-9.94078
▁messengers	-9.94089
ography	-9.94226
▁extended	-9.94242
▁terrorism	-9.9431
▁needed	-9.94349
▁events	-9.94391
▁Also	-9.94409
▁web	-9.94418
▁School	-9.94435
▁possess	-9.94484
▁seems	-9.94497
▁wives	-9.94508
io	-9.9451
▁2006	-9.94522
▁false	-9.94641
ati	-9.94677
▁chosen	-9.94703
▁proud	-9.94765
▁standards	-9.94772
▁partnership	-9.94798
▁Over	-9.94799
Ma	-9.94952
▁River	-9.95023
▁te	-9.95132
Do	-9.95134
▁ST	-9.95148
▁star	-9.95154
▁lack	-9.95177
▁suffer	-9.95256
▁sleep	-9.9528
▁likely	-9.95286
▁Sun	-9.95322
▁advantage	-9.95351
▁distribution	-9.95421
▁perfect	-9.95538
▁remote	-9.95564
▁slave	-9.95564
▁fields	-9.95627
▁messenger	-9.9563
▁July	-9.95701
▁double	-9.95708
▁whosoever	-9.9577
▁medium	-9.95777
try	-9.95805
▁suit	-9.95824
▁adult	-9.95849
▁series	-9.95863
▁joy	-9.95876
ral	-9.95881
▁earned	-9.95896
▁trying	-9.95921
".	-9.95957
▁District	-9.95989
▁Great	-9.96061
ef	-9.96168
▁refers	-9.96237
▁Division	-9.96279
▁described	-9.96322
▁desires	-9.96425
▁glad	-9.96453
▁win	-9.9648
▁wear	-9.96523
▁organization	-9.96525
▁elements	-9.96527
▁destination	-9.96561
▁2005	-9.96653
▁gold	-9.9666
▁reveal	-9.96766
▁truthful	-9.96831
▁Maharashtra	-9.96849
▁input	-9.96878
▁Ganga	-9.96883
▁independence	-9.96919
▁questions	-9.96962
▁super	-9.96994
▁broad	-9.97072
▁train	-9.97145
▁battle	-9.97215
ole	-9.97289
▁larger	-9.97341
mat	-9.97368
gin	-9.97414
▁abroad	-9.97496
▁“”	-9.9753
▁Had	-9.9755
▁Rajasthan	-9.97568
▁observed	-9.97574
▁shares	-9.97595
▁forget	-9.97596
log	-9.97612
name	-9.97622
▁cattle	-9.97649
▁fail	-9.97696
▁element	-9.97748
▁holding	-9.9778
▁context	-9.97796
▁Raja	-9.97848
▁burn	-9.97895
▁Certificate	-9.97931
▁1961	-9.97931
▁expected	-9.97933
▁board	-9.98083
pen	-9.9819
▁output	-9.98218
▁ID	-9.98252
▁hell	-9.98264
▁dust	-9.98272
No	-9.98288
▁par	-9.9834
▁Wi	-9.98376
▁remains	-9.98377
▁Du	-9.98391
▁Tagore	-9.98443
nc	-9.98448
▁vast	-9.98483
bal	-9.98511
▁empty	-9.98513
▁images	-9.98567
▁welcome	-9.98586
▁tidings	-9.98587
▁phase	-9.98591
▁transport	-9.98596
▁lines	-9.9868
SS	-9.98731
▁Type	-9.98806
▁2013	-9.98813
▁resolution	-9.98952
▁introduced	-9.98982
Our	-9.98991
▁launched	-9.98997
▁determined	-9.99
▁comment	-9.99019
▁defined	-9.99039
▁em	-9.9904
▁online	-9.99045
14	-9.99129
▁hidden	-9.99172
▁Op	-9.9918
▁Force	-9.99206
▁clearly	-9.99356
▁wisdom	-9.99393
▁friendly	-9.99397
▁Description	-9.99467
acy	-9.99514
▁fellow	-9.99552
zi	-9.99594
▁consumer	-9.99625
▁crops	-9.99635
dis	-9.99638
▁causes	-9.99695
ini	-9.99797
▁trans	-9.99803
▁representative	-9.99843
▁majority	-9.99854
▁Sir	-9.99897
bul	-9.99922
▁removed	-9.99929
▁poems	-9.99961
▁pra	-9.99985
▁2008	-10
▁29	-10.0002
▁looked	-10.0002
▁February	-10.0016
▁Men	-10.0022
▁font	-10.0023
▁crop	-10.0024
▁Mah	-10.0026
▁Exp	-10.0028
▁Because	-10.0028
▁died	-10.003
anda	-10.003
▁Nepal	-10.0036
some	-10.0037
▁poverty	-10.0043
].	-10.0043
rry	-10.0045
▁60	-10.005
▁description	-10.005
▁teachers	-10.0053
ata	-10.0056
▁cave	-10.0061
▁Akbar	-10.0065
▁fresh	-10.0066
▁impact	-10.0068
▁safety	-10.0068
▁literary	-10.0073
▁spent	-10.0074
▁throughout	-10.0075
▁rupees	-10.0076
▁maximum	-10.0089
▁reduce	-10.0095
ese	-10.0095
ological	-10.0101
ME	-10.0105
▁Though	-10.0112
▁attain	-10.0112
▁Date	-10.0119
▁Free	-10.0119
ong	-10.012
▁ourselves	-10.0125
▁easily	-10.0125
▁beauty	-10.0125
▁Mahatma	-10.0133
▁instance	-10.0133
▁communication	-10.0134
▁army	-10.0138
▁initial	-10.0141
▁Water	-10.0145
18	-10.0152
▁strike	-10.0155
▁translation	-10.0156
▁restrict	-10.0156
▁pressure	-10.0158
▁ka	-10.016
▁da	-10.0162
▁philosophy	-10.0163
▁studies	-10.0178
▁delivered	-10.0178
▁reply	-10.0178
▁universal	-10.0185
▁confidence	-10.0201
ump	-10.0203
▁Chi	-10.0209
▁partner	-10.0213
▁era	-10.0214
▁phone	-10.0221
▁affairs	-10.0236
▁worked	-10.0238
▁Qur	-10.0241
▁assigned	-10.0242
▁positive	-10.0246
▁offered	-10.0247
ST	-10.0249
▁Data	-10.0251
_	-10.0252
▁flag	-10.0253
▁moving	-10.0264
▁interests	-10.0264
▁songs	-10.0268
▁Color	-10.0269
▁vital	-10.0273
long	-10.028
▁establishment	-10.0284
▁Display	-10.0284
▁sculpture	-10.0284
▁medicine	-10.0292
▁horse	-10.0292
▁dark	-10.0293
▁greatest	-10.03
▁disbelieved	-10.03
▁border	-10.0315
▁pair	-10.0317
vas	-10.0318
▁obtain	-10.0318
▁unity	-10.0319
gue	-10.0326
from	-10.0332
▁35	-10.0336
MS	-10.0337
्	-10.0338
▁manager	-10.0343
▁promotion	-10.0345
dhi	-10.0358
▁History	-10.0373
▁mission	-10.0374
▁Network	-10.0384
▁Health	-10.0385
▁wa	-10.0385
▁approved	-10.0385
▁Both	-10.0394
▁dry	-10.0398
ook	-10.0402
▁examination	-10.0407
▁petitioner	-10.0414
▁Special	-10.0415
▁covenant	-10.0422
tent	-10.0434
▁encourage	-10.0439
hya	-10.044
▁launch	-10.0441
▁garden	-10.0441
▁girl	-10.0448
▁yield	-10.0453
▁gift	-10.0453
▁brothers	-10.0458
▁User	-10.046
50	-10.0461
▁Services	-10.0468
▁Bengali	-10.0473
▁Default	-10.0477
▁decide	-10.0479
but	-10.0485
▁Google	-10.0492
▁replied	-10.0492
▁forbidden	-10.0493
ibility	-10.0493
dha	-10.0495
▁birds	-10.0501
▁proceed	-10.0504
▁Hour	-10.0517
raj	-10.0518
▁seeking	-10.0524
▁escape	-10.0524
▁{0}	-10.0534
verse	-10.0537
fl	-10.0538
▁extension	-10.0547
▁hair	-10.0548
▁kingdom	-10.0555
nes	-10.0555
▁oath	-10.0565
ire	-10.0569
▁devotion	-10.057
▁Among	-10.0571
▁sell	-10.0574
▁reduced	-10.058
▁levels	-10.0584
gro	-10.0589
▁merely	-10.0596
▁AT	-10.0598
▁gains	-10.0603
▁ri	-10.0603
kin	-10.0604
▁strengthen	-10.0605
▁Did	-10.0606
atic	-10.0606
▁Hu	-10.0609
▁welfare	-10.061
▁daily	-10.061
▁household	-10.0611
▁machinery	-10.0613
▁sectors	-10.0619
▁namely	-10.0619
▁UN	-10.0623
▁lesson	-10.0623
▁Control	-10.0625
▁late	-10.0625
▁blessings	-10.063
▁initiatives	-10.0631
▁plot	-10.0637
▁mainly	-10.0638
dia	-10.0648
tical	-10.0649
▁attract	-10.065
▁...	-10.0654
▁Subhas	-10.0659
▁4.	-10.066
▁wherein	-10.0663
▁pleased	-10.0663
▁dear	-10.0672
▁editor	-10.0675
▁excellent	-10.0681
▁habit	-10.0682
▁failure	-10.0683
“”	-10.0684
▁Besides	-10.0689
08	-10.0689
▁Web	-10.0691
▁Scripture	-10.0697
▁teacher	-10.0699
▁Environment	-10.0704
▁substance	-10.0705
▁Since	-10.0714
▁resource	-10.0723
▁cold	-10.0727
▁happened	-10.073
▁warn	-10.0731
▁branch	-10.0734
▁integral	-10.0736
▁minimum	-10.0736
▁applications	-10.0747
clause	-10.076
▁grain	-10.0764
SE	-10.0766
▁charges	-10.0766
▁Each	-10.0767
▁Red	-10.0773
▁installed	-10.0781
ancy	-10.0787
▁reminder	-10.0789
▁calls	-10.079
▁carrying	-10.0792
▁lest	-10.0797
▁warner	-10.0805
▁sought	-10.0808
▁urban	-10.0813
▁primary	-10.0816
▁authorities	-10.082
▁regional	-10.0821
▁enterprise	-10.0824
▁gen	-10.0827
▁creating	-10.0827
▁characters	-10.0828
▁2002	-10.0829
▁cook	-10.083
▁tri	-10.0832
▁Nav	-10.0834
▁Two	-10.0835
vid	-10.0836
▁cre	-10.0837
▁inform	-10.0837
ET	-10.0845
ming	-10.0849
▁u	-10.0868
lig	-10.0868
▁bio	-10.0869
▁;	-10.0871
▁east	-10.0873
▁II	-10.0877
▁receipt	-10.0881
▁institute	-10.0883
▁express	-10.0888
▁aim	-10.0892
▁Application	-10.0897
▁vote	-10.0903
▁internal	-10.0907
▁palm	-10.0909
▁Official	-10.0913
▁bus	-10.0914
▁cry	-10.0914
coming	-10.0919
ific	-10.0921
▁center	-10.093
▁2016	-10.0932
car	-10.0933
▁chi	-10.0936
▁College	-10.0938
▁library	-10.0938
kan	-10.0938
▁worth	-10.0939
▁joined	-10.0944
▁Ju	-10.0949
▁settings	-10.095
aj	-10.095
▁Financial	-10.0954
▁ge	-10.0957
▁challenges	-10.0958
▁campaign	-10.0962
asi	-10.0967
▁equipment	-10.097
▁companion	-10.097
▁bra	-10.0974
▁huge	-10.0975
▁resident	-10.0978
lar	-10.0979
cious	-10.0987
▁Trans	-10.099
je	-10.1
▁articles	-10.1002
▁2001	-10.1003
▁profits	-10.1011
▁affected	-10.1015
now	-10.1019
▁cancel	-10.1021
▁spot	-10.1022
▁lose	-10.1023
▁finance	-10.1036
▁har	-10.104
▁Her	-10.1042
▁highly	-10.1046
ade	-10.1046
▁transgress	-10.1051
▁Ac	-10.1053
▁citizen	-10.1054
▁audit	-10.1057
▁fundamental	-10.1069
▁Make	-10.1071
▁rare	-10.1074
▁possession	-10.1077
▁believing	-10.1078
▁communities	-10.1078
▁background	-10.1079
▁Yoga	-10.1081
▁critical	-10.1082
▁brings	-10.1083
▁upper	-10.109
▁prosperity	-10.1096
30	-10.1101
▁keeping	-10.1103
▁suffering	-10.1119
▁happen	-10.1123
osis	-10.1127
ev	-10.1127
med	-10.1129
▁filled	-10.113
rk	-10.113
▁completely	-10.1131
▁selection	-10.1136
▁darkness	-10.114
▁Mary	-10.1142
▁click	-10.1147
▁submitted	-10.1149
▁probably	-10.1152
▁trouble	-10.1152
▁heat	-10.1152
▁Assam	-10.1153
▁(19	-10.1154
▁Authority	-10.1156
▁Col	-10.1158
▁railway	-10.1161
",	-10.1174
▁Page	-10.1175
▁hi	-10.1175
▁confident	-10.1177
▁Auto	-10.1178
▁actual	-10.1181
▁drawn	-10.1182
▁committee	-10.1185
ok	-10.1186
▁Reserve	-10.1187
other	-10.1189
▁Ali	-10.119
▁choice	-10.1194
▁Bir	-10.1194
▁fell	-10.1195
▁generations	-10.1197
point	-10.1197
▁schools	-10.1202
▁technique	-10.1202
▁spring	-10.1206
▁homes	-10.1207
▁damage	-10.1207
train	-10.1207
▁Excellency	-10.121
▁Number	-10.121
▁collect	-10.1221
▁historical	-10.1224
wise	-10.1233
▁consequence	-10.1235
▁latter	-10.1239
▁delivery	-10.1241
▁conceal	-10.1244
ank	-10.1246
▁guilty	-10.1252
▁relief	-10.1252
▁college	-10.1252
▁intellectual	-10.1252
▁entitled	-10.126
▁reality	-10.1262
▁Click	-10.1269
dh	-10.1269
▁Hon	-10.127
▁Modi	-10.127
▁jinn	-10.1277
▁visible	-10.1277
▁Rules	-10.1278
▁abide	-10.1279
▁prove	-10.128
▁Ph	-10.1285
▁latest	-10.1286
pat	-10.1287
my	-10.1289
▁Shiva	-10.1292
▁mal	-10.1293
ura	-10.1294
▁seat	-10.1295
,"	-10.1297
▁agreed	-10.1298
▁greetings	-10.1303
▁agree	-10.1304
▁delay	-10.131
▁auto	-10.1314
▁inner	-10.1316
▁practices	-10.1328
▁leadership	-10.133
▁flu	-10.133
bin	-10.1336
position	-10.1337
uff	-10.1342
▁Company	-10.1345
▁Life	-10.1346
gr	-10.1349
▁sick	-10.1352
▁Foreign	-10.1353
▁prophet	-10.1353
▁learned	-10.1355
▁Help	-10.1357
▁Speaking	-10.1362
▁bodies	-10.1362
▁cow	-10.1364
▁Andhra	-10.1371
▁conference	-10.1371
ye	-10.1374
▁breath	-10.1379
▁duties	-10.138
▁everyone	-10.1383
▁requirements	-10.1386
▁Library	-10.1387
▁souls	-10.14
ker	-10.1404
hil	-10.1404
dev	-10.1405
▁Gardens	-10.1407
▁sand	-10.1409
▁delete	-10.141
▁England	-10.1413
▁thereby	-10.1413
gri	-10.1414
▁passing	-10.1416
▁sacred	-10.1421
▁yourself	-10.1424
iness	-10.1427
▁Sar	-10.1427
▁daughter	-10.1428
▁approval	-10.143
▁Export	-10.1432
avi	-10.1434
▁Buddha	-10.1439
▁commitment	-10.1442
▁admit	-10.1446
▁facility	-10.1447
▁Ve	-10.1455
▁iron	-10.146
hana	-10.1461
▁director	-10.1461
▁bri	-10.1465
▁seized	-10.1466
▁points	-10.1467
▁Tribunal	-10.1473
▁multiple	-10.1474
▁chance	-10.1478
II	-10.1479
▁Mat	-10.1486
▁attitude	-10.1494
RO	-10.1495
▁experiment	-10.1499
east	-10.1499
▁filter	-10.1507
▁tongue	-10.1516
▁blame	-10.1518
60	-10.152
▁Trust	-10.1525
▁features	-10.153
▁tissue	-10.1533
▁wronged	-10.1537
.—	-10.1542
▁kinds	-10.1543
▁fat	-10.1544
▁chain	-10.155
▁performed	-10.155
▁aspects	-10.1551
▁Non	-10.1556
▁although	-10.1559
▁incident	-10.1559
▁participation	-10.1559
▁Mark	-10.1562
▁Mail	-10.1562
▁victory	-10.1568
▁shared	-10.1576
▁audio	-10.1576
LE	-10.158
▁pan	-10.1583
▁sit	-10.1584
▁inspired	-10.1586
mination	-10.1588
▁solve	-10.1589
▁Park	-10.159
app	-10.1592
▁planning	-10.1597
▁sold	-10.1602
а	-10.1602
ina	-10.1603
▁acts	-10.1605
▁moved	-10.1606
▁Word	-10.1611
shan	-10.1614
-2018	-10.162
▁Gra	-10.1621
lab	-10.1621
ob	-10.1627
▁Cor	-10.1627
▁Play	-10.1631
▁archive	-10.1632
▁suggest	-10.1633
cast	-10.1633
▁myself	-10.1634
▁Unit	-10.1636
▁engine	-10.1637
▁climate	-10.1637
▁delight	-10.1639
▁sad	-10.1645
▁Railway	-10.1646
▁cloth	-10.1647
▁spoke	-10.165
▁painting	-10.1651
15	-10.1653
▁suitable	-10.1662
▁principles	-10.1663
▁Report	-10.1672
▁Internet	-10.1673
▁views	-10.1674
▁governance	-10.1675
▁defence	-10.1675
OL	-10.1677
ATION	-10.1677
▁ru	-10.1677
▁disk	-10.1678
▁Assistant	-10.1681
▁registration	-10.1681
▁wing	-10.1688
▁Current	-10.169
ON	-10.169
▁arise	-10.1701
▁west	-10.1707
▁Clear	-10.1708
▁profession	-10.1708
▁bestowed	-10.1714
soever	-10.1716
▁adequate	-10.1716
▁tab	-10.1717
AD	-10.1718
▁Chand	-10.1722
▁differ	-10.1723
▁Like	-10.1728
lock	-10.1735
rang	-10.1739
▁mountain	-10.1739
ita	-10.1741
▁Kumar	-10.1745
▁Read	-10.1747
ock	-10.1748
▁released	-10.1751
▁sport	-10.176
▁insurance	-10.176
▁Article	-10.1761
▁diseases	-10.1762
nga	-10.1765
nna	-10.1768
▁sitting	-10.1772
ators	-10.1777
▁attached	-10.1781
UN	-10.1786
▁ahead	-10.1792
▁bilateral	-10.1805
work	-10.1806
▁drama	-10.181
EM	-10.1814
cer	-10.1815
▁wood	-10.1817
▁reforms	-10.1818
▁street	-10.1822
▁Self	-10.1824
▁faithful	-10.1831
▁Ver	-10.1832
▁nearly	-10.1836
▁repent	-10.1837
▁reader	-10.1837
▁owner	-10.1838
▁resolve	-10.184
▁desert	-10.184
ough	-10.1845
▁Custom	-10.1849
▁Mighty	-10.1849
▁exc	-10.1857
own	-10.1857
▁follows	-10.1869
▁prior	-10.187
▁complaint	-10.1875
▁Ye	-10.1875
▁changing	-10.1876
▁pest	-10.1877
▁photo	-10.1885
▁Document	-10.1885
▁convert	-10.1888
▁magic	-10.1894
▁stood	-10.1896
▁gr	-10.1899
▁materials	-10.19
▁forever	-10.19
▁Hari	-10.19
▁enabled	-10.1904
back	-10.1906
▁Press	-10.1917
▁Invalid	-10.1921
▁agent	-10.1921
rous	-10.1925
nda	-10.1929
▁swear	-10.193
▁About	-10.1931
▁participate	-10.1939
▁chemical	-10.1942
air	-10.1945
mic	-10.1947
▁revolution	-10.1953
▁BC	-10.1955
▁map	-10.1955
▁Command	-10.1958
02	-10.1961
nam	-10.1962
▁Shar	-10.197
▁platform	-10.1975
▁poll	-10.1976
▁guardian	-10.1977
nagar	-10.1983
▁1999	-10.1994
▁recently	-10.2
▁Za	-10.2
▁achieved	-10.2002
▁tourist	-10.2007
▁containing	-10.2007
▁waiting	-10.2007
▁treat	-10.201
▁individuals	-10.2014
▁Fl	-10.2014
05	-10.2016
IM	-10.2019
▁facilitate	-10.202
▁consists	-10.2021
▁reasons	-10.2025
▁piece	-10.2036
▁nuclear	-10.2038
▁agencies	-10.2038
▁Mad	-10.2044
▁Das	-10.2046
▁shift	-10.2047
AB	-10.2049
▁improvement	-10.2056
▁extra	-10.2056
pati	-10.2057
lia	-10.206
HA	-10.2061
▁metal	-10.2065
▁More	-10.2067
▁Ser	-10.207
▁charged	-10.2074
arian	-10.2084
▁Kovind	-10.2084
▁Knower	-10.2084
▁proportion	-10.2093
▁package	-10.2095
▁mon	-10.2099
▁returns	-10.2106
abad	-10.211
EN	-10.2113
▁player	-10.2113
▁shop	-10.2116
▁gets	-10.2122
▁treated	-10.2126
09	-10.2127
▁criminal	-10.2129
▁Another	-10.2133
▁bright	-10.2135
▁proved	-10.2137
▁ph	-10.2137
е	-10.2139
▁methods	-10.2141
▁neck	-10.2142
▁priority	-10.2144
arch	-10.2146
▁Civil	-10.2148
▁principle	-10.2148
▁pick	-10.2149
▁register	-10.2152
nia	-10.2153
▁Don	-10.2154
matic	-10.2155
▁replace	-10.2162
▁defeat	-10.2167
▁Code	-10.2171
▁Rajya	-10.2173
▁Dev	-10.2177
ace	-10.2179
▁hero	-10.2182
▁Province	-10.2185
▁(1	-10.219
▁row	-10.2196
▁regions	-10.2198
▁2012	-10.2202
▁Palestinian	-10.2203
▁forgiving	-10.2203
▁cease	-10.2207
▁limits	-10.2208
▁Gha	-10.2208
▁observe	-10.2212
▁awareness	-10.2212
▁Society	-10.2212
eous	-10.2217
▁fighting	-10.2217
▁election	-10.2217
comp	-10.2218
▁Back	-10.2223
▁camp	-10.2223
▁Char	-10.2227
▁witnesses	-10.223
▁distinct	-10.2231
▁Party	-10.2232
▁poem	-10.2238
▁allowance	-10.2248
▁coal	-10.2249
ov	-10.2258
▁manufacturing	-10.2259
EL	-10.2261
▁Has	-10.2265
▁survey	-10.2268
▁Che	-10.2272
▁strive	-10.2278
▁absolute	-10.2287
▁wonder	-10.2287
▁recorded	-10.2291
▁tu	-10.2294
▁mobile	-10.2296
▁insects	-10.2297
▁options	-10.2299
▁served	-10.2299
▁pipe	-10.2302
▁helper	-10.2302
▁soft	-10.2303
▁prices	-10.2312
▁fly	-10.2315
▁Class	-10.2315
▁saving	-10.2315
God	-10.2321
▁abode	-10.2324
▁motion	-10.2329
path	-10.233
▁emphasis	-10.2333
▁Training	-10.2333
▁layer	-10.234
aging	-10.234
▁courage	-10.2343
▁ruin	-10.2347
13	-10.2347
▁student	-10.235
pad	-10.2351
▁breed	-10.2353
▁edit	-10.2359
▁Lu	-10.236
▁London	-10.2361
▁situated	-10.2361
▁sweet	-10.2361
▁minutes	-10.2364
▁throw	-10.2368
ि	-10.2371
▁thanks	-10.2374
pect	-10.2381
▁marked	-10.2386
das	-10.2388
▁democratic	-10.239
▁sex	-10.2393
▁Members	-10.2394
▁Ji	-10.2398
▁icon	-10.2398
▁universities	-10.2399
▁Justice	-10.24
▁president	-10.2401
▁hind	-10.2408
▁attribute	-10.2408
▁happiness	-10.2408
▁fault	-10.2409
▁Jan	-10.241
EC	-10.2415
▁grieve	-10.2418
▁constituted	-10.2423
▁Pri	-10.2425
▁whereas	-10.2427
▁transform	-10.2428
▁wave	-10.2431
▁Israeli	-10.2436
▁commanded	-10.2438
▁visited	-10.2439
mor	-10.2442
▁newspaper	-10.2446
▁race	-10.2447
▁brain	-10.2453
rup	-10.2454
▁prostrate	-10.2456
hra	-10.2456
lish	-10.2457
▁formal	-10.2457
pra	-10.2463
▁writer	-10.2465
▁jurisdiction	-10.2465
▁node	-10.247
ila	-10.247
▁Once	-10.2473
▁Hi	-10.2475
▁scr	-10.2475
▁Karnataka	-10.2484
▁users	-10.2493
▁elephant	-10.2494
▁gate	-10.2496
▁tribe	-10.2496
▁ability	-10.2496
▁turns	-10.2497
▁edge	-10.2497
▁assist	-10.2499
iff	-10.25
र	-10.2503
▁merciful	-10.2503
▁privilege	-10.2503
25	-10.2505
▁Human	-10.2507
▁lock	-10.2509
▁electronic	-10.2513
▁signed	-10.2514
▁alter	-10.2515
▁centres	-10.2519
▁actor	-10.2523
▁requires	-10.2525
▁Com	-10.2535
table	-10.2535
rc	-10.2548
▁successfully	-10.2557
how	-10.2565
ula	-10.2574
▁su	-10.2575
ood	-10.2578
▁Line	-10.2579
atory	-10.2579
▁Year	-10.2586
▁interesting	-10.2588
क	-10.2589
ami	-10.2591
▁begin	-10.2593
▁Arabic	-10.2597
▁congratulate	-10.2599
▁sources	-10.2603
▁Musa	-10.2603
▁healthy	-10.2606
▁Security	-10.2608
▁Before	-10.2608
▁DVD	-10.2608
▁Iraq	-10.2608
▁Jews	-10.2609
▁preserve	-10.261
ature	-10.2614
▁covering	-10.2615
▁teach	-10.2617
▁burning	-10.2618
▁principal	-10.2618
▁supreme	-10.2618
▁falsehood	-10.2619
▁hot	-10.2625
oy	-10.2626
▁Sen	-10.2627
cial	-10.2627
▁Next	-10.2628
▁factor	-10.2628
▁proceedings	-10.2628
▁grown	-10.263
▁offence	-10.2631
▁terrorist	-10.2634
▁negative	-10.2637
vy	-10.2643
hor	-10.267
wal	-10.2672
▁letters	-10.2675
▁announced	-10.2679
▁qua	-10.2685
ugh	-10.269
▁Comment	-10.2693
▁tend	-10.2694
▁sentence	-10.2699
▁couple	-10.2705
▁Swami	-10.2706
▁ear	-10.2709
▁respond	-10.271
▁Jammu	-10.2715
▁tonnes	-10.2718
▁tool	-10.2721
▁200	-10.2722
▁tele	-10.2724
▁offering	-10.2733
▁friendship	-10.2737
▁Vishnu	-10.2744
ou	-10.2748
▁Find	-10.275
▁accident	-10.2754
▁banking	-10.2754
▁Gen	-10.2756
version	-10.2758
IP	-10.2761
▁union	-10.2763
▁figures	-10.2764
▁Assess	-10.2774
mber	-10.2774
▁decades	-10.2775
▁ji	-10.2782
▁Roy	-10.2785
▁becoming	-10.2788
vol	-10.279
▁Noah	-10.279
▁efficient	-10.2793
▁proposed	-10.2794
▁reserve	-10.28
▁mechanism	-10.2803
▁applied	-10.2803
▁dwelling	-10.2803
DA	-10.2805
▁transferred	-10.2807
▁offline	-10.2811
▁followers	-10.2812
▁scientists	-10.282
▁smaller	-10.282
▁showing	-10.2821
▁heritage	-10.2822
oon	-10.2826
▁recognised	-10.2831
▁Call	-10.2835
▁Q	-10.2836
▁govern	-10.2841
▁2017	-10.2844
▁hasten	-10.2846
graph	-10.2858
▁Note	-10.2861
▁ocean	-10.2862
▁scholars	-10.2864
Re	-10.2868
▁prose	-10.2869
ically	-10.2881
CH	-10.2881
▁00	-10.2884
▁Bose	-10.2886
▁Rec	-10.2887
▁75	-10.2888
▁lawful	-10.289
▁fuel	-10.2891
▁Process	-10.2891
▁engineering	-10.2891
▁acquired	-10.2892
▁contribute	-10.2893
▁finger	-10.2894
▁whatsoever	-10.2894
empt	-10.2898
▁Legislative	-10.2901
▁characteristic	-10.2903
▁initiative	-10.2904
▁menu	-10.2905
▁Unknown	-10.2911
▁married	-10.2911
▁enhance	-10.2913
▁fun	-10.2914
▁unable	-10.2915
▁z	-10.2916
▁Women	-10.2921
▁elected	-10.2922
nder	-10.2923
▁Pal	-10.293
htm	-10.2931
▁meant	-10.2932
cho	-10.2935
▁Jam	-10.2937
▁specify	-10.2937
uous	-10.2942
▁seeing	-10.2943
▁Nar	-10.2944
▁obtained	-10.2948
▁Close	-10.2951
▁signal	-10.2952
▁prop	-10.2953
▁currency	-10.2961
▁vehicle	-10.2961
▁toward	-10.2963
▁corner	-10.2965
▁ur	-10.2967
▁reports	-10.297
▁destruction	-10.2971
scribe	-10.2972
▁factors	-10.2974
▁pollution	-10.2981
▁patience	-10.2981
▁Business	-10.2981
▁implemented	-10.2985
▁download	-10.2986
▁politics	-10.2991
▁Ben	-10.2995
▁subjects	-10.2995
ched	-10.3002
▁rice	-10.3005
▁billion	-10.3014
▁recall	-10.3014
▁FOR	-10.3019
illa	-10.3021
▁tribal	-10.3021
▁officials	-10.3024
▁plays	-10.3025
▁currently	-10.3037
▁lit	-10.3054
▁appears	-10.3055
▁judgment	-10.3061
▁Task	-10.3062
▁wants	-10.3062
▁classes	-10.307
▁administrative	-10.3071
▁32	-10.3071
▁arm	-10.3073
▁Joseph	-10.3074
▁mistake	-10.3082
▁folders	-10.3087
▁Would	-10.3095
▁dy	-10.3097
▁Chapter	-10.3101
▁Disable	-10.3105
▁op	-10.3105
▁Mother	-10.3107
ley	-10.3108
▁scene	-10.3112
▁Sign	-10.3118
▁guides	-10.3123
▁expand	-10.3126
▁Master	-10.3127
▁Resource	-10.3132
▁grave	-10.3138
▁dealing	-10.3141
▁obvious	-10.3142
▁behold	-10.3142
▁bringing	-10.3143
▁route	-10.3145
▁constant	-10.3148
22	-10.3151
▁technologies	-10.3152
▁showed	-10.3157
rg	-10.3158
▁comfort	-10.3162
like	-10.3165
▁01	-10.3169
▁Standard	-10.3172
▁temperature	-10.3172
▁weeks	-10.3173
▁Form	-10.3176
gan	-10.3181
न	-10.3182
▁maintenance	-10.3182
vation	-10.3185
▁solution	-10.3188
ending	-10.3189
▁Affairs	-10.3193
▁ordinary	-10.3193
▁compared	-10.3193
Z	-10.3197
▁permanent	-10.3199
▁bounty	-10.3203
▁shrine	-10.3203
▁Nadu	-10.3208
▁gathered	-10.3213
▁operating	-10.3213
▁discharge	-10.3214
reg	-10.3219
▁sending	-10.3221
▁succeed	-10.3223
▁90	-10.3227
▁organism	-10.3228
▁attachment	-10.3232
▁discipline	-10.3234
▁prime	-10.3234
▁bird	-10.3235
ane	-10.3236
▁transaction	-10.3236
▁appeared	-10.3236
had	-10.3244
▁endeavour	-10.3244
▁university	-10.3244
▁examine	-10.3244
▁weather	-10.3244
▁hurt	-10.3245
▁corruption	-10.3247
▁Social	-10.3248
▁camel	-10.3249
▁doesn	-10.325
detail	-10.3258
▁whi	-10.3259
▁organized	-10.3262
▁hall	-10.3265
▁Em	-10.3267
▁senior	-10.3275
endra	-10.3276
▁zone	-10.3276
▁stress	-10.328
▁gather	-10.3286
▁2009	-10.3288
▁determine	-10.3288
▁organised	-10.3289
07	-10.329
▁feature	-10.329
▁describe	-10.3294
▁counsel	-10.3295
▁western	-10.3295
▁Dar	-10.3295
▁daughters	-10.3308
ffi	-10.3311
▁crime	-10.3316
▁actions	-10.3321
▁Ob	-10.3327
▁playing	-10.3329
▁contacts	-10.333
▁rent	-10.3336
hr	-10.3337
▁Economic	-10.3347
▁grateful	-10.3347
▁Remember	-10.335
▁Cho	-10.3354
▁unknown	-10.3357
▁agency	-10.3357
▁ears	-10.3358
release	-10.3361
▁John	-10.3368
▁Log	-10.3371
▁belonging	-10.3373
presidentofindia	-10.3378
▁afraid	-10.3378
▁settled	-10.3379
▁records	-10.3381
ivity	-10.3384
gal	-10.3384
▁enemies	-10.3388
▁pot	-10.3398
23	-10.3404
▁territory	-10.3409
▁Orissa	-10.3409
▁expert	-10.3418
▁thirty	-10.342
PI	-10.3421
▁conducted	-10.3424
▁maintained	-10.3424
www	-10.3424
▁Christian	-10.3427
▁centuries	-10.343
,—	-10.3437
▁suddenly	-10.3437
▁quick	-10.3439
▁atmosphere	-10.344
▁identified	-10.344
▁2003	-10.3444
▁emb	-10.3446
▁RE	-10.3449
▁detect	-10.3449
lies	-10.3451
▁identify	-10.3451
▁mar	-10.3453
▁drugs	-10.3455
▁objects	-10.3456
▁demon	-10.3465
load	-10.3467
▁dedicated	-10.3469
lip	-10.3473
fu	-10.3482
▁blessed	-10.3483
▁blue	-10.3483
▁Industrial	-10.3489
ky	-10.3492
▁Mag	-10.3497
mate	-10.35
▁solar	-10.35
▁laugh	-10.3506
▁skills	-10.3508
▁noble	-10.3509
▁Fo	-10.3512
▁Mughal	-10.3514
ban	-10.3519
▁Veda	-10.3522
▁practical	-10.3524
▁artist	-10.3531
▁Bro	-10.3533
anj	-10.3546
▁decline	-10.3549
▁mill	-10.3549
IA	-10.3552
▁Yes	-10.3556
▁terrible	-10.3556
▁mid	-10.356
▁objectives	-10.3565
▁eligible	-10.3567
▁Flag	-10.3568
▁appreciate	-10.3577
▁2004	-10.3581
▁conscious	-10.3583
▁revenue	-10.3588
last	-10.3589
▁Choose	-10.3589
▁addressed	-10.3595
▁branches	-10.3602
▁roll	-10.3607
▁Islamist	-10.3613
▁indicate	-10.3615
▁threat	-10.3619
▁substantial	-10.362
▁distress	-10.3621
gam	-10.3626
yo	-10.3627
▁Whoever	-10.3627
▁Member	-10.3629
body	-10.363
▁Good	-10.3631
▁Although	-10.3641
▁Adam	-10.3642
▁assess	-10.3645
▁didn	-10.3647
▁environmental	-10.3647
▁leg	-10.3652
▁Institution	-10.3652
▁Middle	-10.3652
▁electricity	-10.3654
▁counter	-10.366
▁configuration	-10.3662
▁oppress	-10.3663
▁Regional	-10.3664
▁Count	-10.3664
ora	-10.3664
▁instruments	-10.367
▁obligation	-10.3673
▁designed	-10.3683
▁finally	-10.369
▁settlement	-10.369
▁valley	-10.3695
aga	-10.3697
40	-10.37
▁inherit	-10.3703
▁minor	-10.3707
ache	-10.3708
UT	-10.3709
most	-10.3711
asa	-10.3711
▁prevail	-10.3716
▁(4)	-10.3718
▁arms	-10.3719
▁Server	-10.3719
US	-10.3722
yl	-10.3724
tom	-10.3726
06	-10.3728
▁marketing	-10.373
pping	-10.373
▁respective	-10.3733
▁ritual	-10.3738
▁Sikh	-10.374
▁squared	-10.3746
▁closed	-10.3747
▁Buddhist	-10.3748
▁render	-10.375
▁formation	-10.375
▁panel	-10.3752
▁print	-10.3754
lum	-10.3759
▁spin	-10.3759
▁creative	-10.3761
▁Island	-10.3762
▁Swa	-10.3779
qua	-10.3783
▁prison	-10.3786
▁require	-10.3788
▁Speaker	-10.3792
▁identity	-10.3792
▁$	-10.3793
room	-10.3799
▁brief	-10.3803
▁marry	-10.3807
▁Sat	-10.3807
▁Author	-10.3808
▁employer	-10.3812
▁|	-10.3814
▁decisions	-10.3816
▁hrs	-10.3818
▁liquid	-10.3824
▁operate	-10.3825
▁permit	-10.3826
77	-10.3828
▁mad	-10.3844
▁Ge	-10.3846
▁hit	-10.3848
▁entrepreneur	-10.3853
oid	-10.3853
▁Association	-10.3857
▁End	-10.3858
▁band	-10.3864
SA	-10.3867
▁Agriculture	-10.3868
▁zero	-10.3868
▁recite	-10.3868
▁sexual	-10.3869
▁reported	-10.387
script	-10.3876
pho	-10.3878
terior	-10.3878
▁thereafter	-10.3879
▁palace	-10.3879
▁Forest	-10.388
▁parent	-10.3887
▁mere	-10.3887
▁decree	-10.3896
▁fourth	-10.3903
▁Best	-10.391
AY	-10.3911
▁pu	-10.3917
▁retain	-10.3923
▁Direct	-10.393
▁prince	-10.3933
▁imagine	-10.3933
▁humble	-10.3934
▁digital	-10.3934
▁occurred	-10.3936
▁looks	-10.3937
▁Rural	-10.3938
▁mock	-10.3941
▁width	-10.3944
▁Small	-10.3945
▁wild	-10.3945
▁coast	-10.3946
▁strange	-10.3946
▁rates	-10.3947
▁Second	-10.3952
▁whenever	-10.3959
▁stars	-10.3961
▁Nature	-10.3964
▁adopt	-10.3965
▁Chinese	-10.3966
▁pride	-10.3967
▁aims	-10.3977
03	-10.3987
▁ornament	-10.399
▁judgement	-10.3995
▁pack	-10.3997
▁career	-10.3999
▁temporary	-10.3999
▁broken	-10.4
▁involve	-10.4001
▁exception	-10.4007
box	-10.401
▁Disc	-10.4013
▁flowers	-10.4018
▁Vice	-10.402
lah	-10.402
pre	-10.4021
▁Believers	-10.4022
▁commission	-10.4022
▁grand	-10.4023
▁roof	-10.4026
▁invoke	-10.4033
▁stands	-10.4035
▁flat	-10.4039
CE	-10.404
ero	-10.4045
▁advanced	-10.4046
▁farm	-10.4047
▁topic	-10.4048
ware	-10.4048
▁earn	-10.4051
▁500	-10.4052
▁Australia	-10.4055
▁Independence	-10.4055
▁penalty	-10.4055
▁courts	-10.4063
▁Card	-10.4066
▁Video	-10.4073
▁draft	-10.4077
til	-10.4083
▁employee	-10.4084
т	-10.4088
▁pension	-10.409
▁properly	-10.4093
▁processes	-10.4098
▁analysis	-10.4099
▁effects	-10.41
▁lend	-10.4101
▁capable	-10.411
▁absence	-10.4111
▁intention	-10.4113
cient	-10.4118
▁chapter	-10.4122
▁virtue	-10.4122
▁Eastern	-10.4122
▁apostle	-10.4129
col	-10.4134
▁arrived	-10.4143
▁undertaken	-10.4143
▁disbelief	-10.4144
▁quarter	-10.4155
▁dog	-10.4158
▁song	-10.4162
▁properties	-10.4168
▁narrow	-10.4178
▁Support	-10.4178
▁tube	-10.4181
▁seemed	-10.4182
por	-10.4186
▁Judgment	-10.4189
▁Lal	-10.4191
▁holds	-10.4192
▁accused	-10.4197
▁contents	-10.4199
OS	-10.4201
▁seal	-10.4202
▁critic	-10.4202
▁turning	-10.4206
▁consult	-10.4212
▁persist	-10.4215
▁thousands	-10.4218
▁Principal	-10.4234
▁immense	-10.4234
▁Divine	-10.4236
▁install	-10.4241
▁pages	-10.4242
▁Pl	-10.4246
▁Mor	-10.4251
▁devote	-10.4253
iva	-10.4255
▁Babu	-10.4256
▁tomorrow	-10.4257
▁bridge	-10.4257
▁sorrow	-10.4257
▁Shu	-10.4257
▁publish	-10.4263
ential	-10.4263
otic	-10.4265
▁orphan	-10.4269
▁ga	-10.4271
▁informed	-10.4274
▁functioning	-10.4275
▁Aware	-10.4279
▁applicable	-10.428
▁Options	-10.428
▁2011	-10.4283
▁flower	-10.4286
▁compensation	-10.4291
▁fifty	-10.4291
04	-10.4297
▁Schedule	-10.4299
▁befall	-10.4301
▁guarantee	-10.4303
dhan	-10.4308
▁amend	-10.431
▁cho	-10.4311
▁Limited	-10.4314
can	-10.4314
cap	-10.432
▁gui	-10.4324
▁bottom	-10.4325
▁client	-10.4328
▁borrow	-10.433
▁conv	-10.433
78	-10.4333
▁Settings	-10.4337
▁elections	-10.4346
▁Narendra	-10.4349
▁afflict	-10.4351
late	-10.4352
▁Bangladesh	-10.436
▁Hyderabad	-10.436
▁database	-10.436
▁await	-10.436
▁45	-10.4361
▁displayed	-10.4362
88	-10.4368
ी	-10.4371
▁talent	-10.4371
▁losers	-10.4375
▁Key	-10.4376
CO	-10.4379
▁recover	-10.4383
▁depict	-10.4383
▁expenses	-10.4383
ifies	-10.4384
▁scar	-10.4385
▁Take	-10.4385
▁Local	-10.4387
RT	-10.4387
▁Provid	-10.4403
▁sends	-10.4407
▁ego	-10.4407
▁outstanding	-10.441
zar	-10.4419
▁sister	-10.4422
▁span	-10.4422
▁sustenance	-10.4429
▁split	-10.4429
▁Just	-10.443
list	-10.4431
▁deity	-10.4438
run	-10.4439
▁category	-10.444
▁Signs	-10.4442
dle	-10.445
▁cricket	-10.4452
▁amendment	-10.4456
▁Give	-10.4456
▁customer	-10.4462
▁French	-10.4463
▁1956	-10.4465
▁humanity	-10.4468
ipp	-10.447
pan	-10.4472
▁Cur	-10.4473
▁fulfilled	-10.4475
▁115	-10.4475
▁Trade	-10.4482
▁Apostle	-10.4487
▁architecture	-10.4487
len	-10.449
▁Award	-10.4494
▁tur	-10.4498
▁simply	-10.4498
▁civilization	-10.4501
▁districts	-10.4502
▁Mac	-10.4503
▁Ban	-10.4505
▁acid	-10.4516
face	-10.4517
Be	-10.452
▁opposition	-10.4522
▁steel	-10.4522
▁automatically	-10.4522
▁Light	-10.4522
▁Sardar	-10.4522
21	-10.4524
▁mine	-10.4527
▁prayers	-10.4528
▁journal	-10.4533
▁enjoin	-10.4533
▁Persian	-10.4533
▁tasks	-10.4538
▁extremely	-10.4541
well	-10.4541
▁Garden	-10.4541
raja	-10.4543
▁Museum	-10.4545
▁urge	-10.4547
▁handle	-10.4548
▁wo	-10.455
▁Food	-10.455
abha	-10.4552
▁Madhya	-10.4554
▁fla	-10.4557
▁Full	-10.4558
▁mandapa	-10.4568
PC	-10.4569
▁Prof	-10.4573
▁City	-10.4579
▁candidate	-10.458
▁wrongdoers	-10.458
hak	-10.458
▁deleted	-10.4585
▁links	-10.4589
ksha	-10.459
▁bone	-10.459
IF	-10.4596
▁deeply	-10.46
▁surrender	-10.4603
▁treasure	-10.4603
▁mostly	-10.4609
▁ni	-10.4611
▁slow	-10.4614
▁poly	-10.4622
▁Mand	-10.4623
book	-10.4626
▁Link	-10.4629
▁entirely	-10.4629
▁bull	-10.4633
▁cool	-10.4633
▁Game	-10.4638
▁Micro	-10.4641
66	-10.4643
▁ease	-10.4647
▁2019	-10.4651
▁chargeable	-10.4654
▁impart	-10.4654
▁Iran	-10.4656
▁pull	-10.4657
▁suggestion	-10.4658
▁muscle	-10.4662
▁infection	-10.4662
ogen	-10.4664
India	-10.4664
him	-10.4666
▁distinguished	-10.4667
▁refused	-10.4667
tory	-10.4671
▁Password	-10.4674
▁pledge	-10.4675
tle	-10.4681
▁Awards	-10.4682
ene	-10.4683
ural	-10.4687
▁represents	-10.4687
▁descend	-10.4697
▁argue	-10.4698
▁debate	-10.4699
icide	-10.4699
▁Vo	-10.47
▁creatures	-10.4701
▁council	-10.471
▁eternal	-10.471
▁Related	-10.471
▁radio	-10.4711
▁aside	-10.4712
▁composed	-10.4713
▁arch	-10.4713
▁Scheduled	-10.4713
▁equally	-10.4717
▁danger	-10.4719
▁Kolkata	-10.4721
58	-10.4725
▁initiated	-10.4734
▁aspect	-10.4735
▁notes	-10.4739
▁Mode	-10.4742
▁respite	-10.4745
▁Pacific	-10.4745
▁wicked	-10.4745
▁apostles	-10.475
▁Nations	-10.4753
▁Bra	-10.4755
▁Mohammed	-10.4771
▁girls	-10.4777
▁organizations	-10.4777
▁Further	-10.4781
▁equity	-10.4781
mitted	-10.4781
▁tender	-10.4783
mission	-10.4784
kara	-10.479
)]	-10.4792
win	-10.4793
н	-10.4793
▁violent	-10.4793
▁wherever	-10.4793
Who	-10.4793
▁tourism	-10.4794
▁quickly	-10.4797
▁Joint	-10.4817
▁differences	-10.4817
▁Jesus	-10.4821
▁directed	-10.4831
▁bomb	-10.4833
▁header	-10.4836
pic	-10.4838
▁desktop	-10.4841
▁twelve	-10.4841
▁Deputy	-10.4841
▁Except	-10.4843
▁constitution	-10.4843
▁affair	-10.4845
pal	-10.4846
that	-10.4849
▁Je	-10.4854
▁trend	-10.4857
▁promoting	-10.4865
▁Industry	-10.4865
▁comprehensive	-10.4865
▁starting	-10.487
old	-10.487
▁clay	-10.4876
▁fought	-10.4877
▁beneath	-10.4877
▁Ste	-10.4898
▁sustainable	-10.4906
▁Keep	-10.4911
▁recognize	-10.4912
▁hypocrites	-10.4913
▁Urdu	-10.4914
▁admitted	-10.4917
AP	-10.4918
▁Sea	-10.4918
▁collective	-10.4919
▁Hand	-10.4925
▁scope	-10.4936
स	-10.4938
▁discuss	-10.4942
▁sincere	-10.4942
▁Bad	-10.4942
▁Access	-10.495
▁reaction	-10.495
▁rising	-10.4954
▁salt	-10.4955
ope	-10.4955
▁refer	-10.4956
▁Var	-10.4957
▁calling	-10.4958
▁loans	-10.496
▁prepare	-10.4961
▁Through	-10.4962
▁leaving	-10.4962
▁san	-10.4972
▁Temple	-10.4974
▁speaking	-10.4975
▁sugar	-10.4975
ttle	-10.4976
▁Files	-10.4978
▁explained	-10.4979
▁recited	-10.498
▁Something	-10.4987
gle	-10.4988
▁glory	-10.4988
▁Tab	-10.4992
▁Later	-10.4992
▁neighbour	-10.4998
▁disobey	-10.4999
о	-10.4999
68	-10.5002
vati	-10.5002
than	-10.5009
и	-10.5011
head	-10.5011
▁cu	-10.5013
▁soldiers	-10.5013
▁recognition	-10.5023
▁floor	-10.5023
45	-10.5023
▁ut	-10.5029
▁Hol	-10.5032
▁invited	-10.5035
▁acquisition	-10.5035
▁Filter	-10.5035
▁Source	-10.5035
etic	-10.5036
▁pane	-10.504
▁transactions	-10.5045
▁core	-10.5045
▁verse	-10.5052
▁Kal	-10.5056
▁Insurance	-10.506
▁immediate	-10.506
▁poets	-10.5063
▁drug	-10.5068
▁insect	-10.5071
▁broke	-10.5071
▁signature	-10.5074
▁kin	-10.5081
▁remaining	-10.5081
▁Bel	-10.5088
ku	-10.5092
▁Editor	-10.5092
net	-10.5095
▁revelation	-10.5096
▁respectively	-10.51
69	-10.5101
▁walls	-10.5105
▁dwell	-10.5106
▁venture	-10.5109
▁interface	-10.511
▁instructions	-10.5117
rap	-10.5118
NG	-10.5118
▁liberal	-10.5122
▁bat	-10.5122
▁bid	-10.5129
▁Look	-10.5131
▁satisfied	-10.5134
▁Status	-10.5134
▁Siva	-10.514
▁pal	-10.5143
▁Table	-10.5145
े	-10.5146
▁substitute	-10.5146
▁Test	-10.5148
▁ratio	-10.5148
▁respondent	-10.5152
▁bag	-10.5154
▁02	-10.5156
▁furnish	-10.5157
ida	-10.5157
▁depth	-10.5159
▁telephone	-10.5159
▁invalid	-10.5159
lation	-10.5161
▁Indo	-10.5163
encies	-10.5164
▁leads	-10.5164
▁holy	-10.5169
▁evolution	-10.5171
▁harvest	-10.5171
▁murder	-10.5171
▁Head	-10.5173
▁Judge	-10.5178
▁twice	-10.5184
▁stick	-10.5191
▁neglect	-10.5196
▁preparation	-10.5196
▁crisis	-10.5196
▁mount	-10.5196
▁overcome	-10.5197
▁fix	-10.5197
▁thread	-10.5198
▁Noble	-10.5198
▁overall	-10.5205
UL	-10.5205
▁domain	-10.5209
▁framework	-10.5209
▁sheet	-10.5216
▁divide	-10.5219
▁plans	-10.522
▁contemporary	-10.5221
SH	-10.5222
▁detail	-10.523
▁behaviour	-10.5233
▁finding	-10.524
é	-10.5246
▁inspiration	-10.5246
▁Foundation	-10.5246
▁enjoyment	-10.5249
▁2010	-10.5263
▁curse	-10.5265
▁Prem	-10.5271
▁drawing	-10.528
▁coin	-10.5283
▁Pandit	-10.5284
▁bones	-10.529
▁Cap	-10.5293
▁lamp	-10.5295
▁j	-10.5295
▁saint	-10.5296
2014	-10.53
▁prompt	-10.5302
▁Area	-10.5304
▁lying	-10.5304
▁Lot	-10.5304
▁prefer	-10.531
wn	-10.5311
24	-10.5315
active	-10.5315
67	-10.5319
▁Japan	-10.5322
▁availability	-10.5323
▁employed	-10.5323
▁drinking	-10.5327
▁personality	-10.5331
▁detailed	-10.5335
▁08	-10.5337
▁Christians	-10.5339
▁Jain	-10.5342
Indeed	-10.5343
tem	-10.5345
▁understood	-10.5347
▁devil	-10.5349
▁intelligence	-10.5359
▁KDE	-10.5364
▁servant	-10.5366
▁royal	-10.5372
▁communal	-10.5373
▁offers	-10.5376
▁fer	-10.5376
round	-10.5377
▁jail	-10.5385
take	-10.5386
▁happens	-10.5388
▁Run	-10.5397
▁Credit	-10.5397
▁trading	-10.5397
IG	-10.5401
▁Action	-10.5404
19	-10.5415
▁appearance	-10.5417
▁towns	-10.5417
▁intended	-10.5417
Moses	-10.5419
▁tools	-10.542
▁thick	-10.5425
▁flood	-10.5436
▁tribute	-10.5436
▁deed	-10.5439
▁invite	-10.5441
▁subscribe	-10.5447
▁circle	-10.5448
▁judicial	-10.5448
▁stretch	-10.5448
▁perceive	-10.5448
▁Tell	-10.5449
▁equality	-10.5449
fect	-10.5449
▁arising	-10.5451
▁answered	-10.5454
▁alive	-10.546
▁dress	-10.5461
▁stayed	-10.5464
▁charity	-10.5465
▁2020	-10.5469
▁firmly	-10.5471
bra	-10.5471
▁preview	-10.5475
ologist	-10.5476
▁diverse	-10.5477
▁interpretation	-10.5481
▁Global	-10.5487
▁evident	-10.5487
▁Gupta	-10.5487
▁Green	-10.5487
▁derived	-10.5491
▁celebrated	-10.5492
shed	-10.5499
▁drag	-10.5499
▁repeated	-10.5502
▁asking	-10.5508
▁Window	-10.5511
▁competition	-10.5512
▁computing	-10.5513
▁alarm	-10.5513
ATE	-10.5515
▁writers	-10.5517
ENT	-10.552
▁Legislature	-10.5525
▁forbid	-10.5526
▁shaped	-10.5535
self	-10.5536
cut	-10.5539
▁Himself	-10.5542
▁hardly	-10.5547
igh	-10.555
▁Calendar	-10.5551
▁desired	-10.5555
▁profile	-10.5564
claim	-10.5566
▁merit	-10.5578
Why	-10.5578
ua	-10.5586
▁Ask	-10.5586
▁preach	-10.5589
▁apparent	-10.559
▁capture	-10.5591
▁hardship	-10.5596
▁Sita	-10.5596
▁driven	-10.5596
rag	-10.5601
▁index	-10.5606
▁guidelines	-10.5616
▁Center	-10.5617
▁CH	-10.5617
▁threaten	-10.5617
▁ties	-10.5621
▁regarded	-10.5621
▁defend	-10.5627
▁accomplish	-10.5629
▁accurate	-10.5629
▁1947	-10.5631
▁CON	-10.5631
▁difficulty	-10.5633
▁worshipped	-10.5634
▁constitute	-10.5636
▁executive	-10.5642
▁Army	-10.5642
-19	-10.5649
▁efficiency	-10.5655
▁definite	-10.5655
▁legs	-10.5665
39	-10.5666
▁Record	-10.5668
▁Market	-10.5674
▁blow	-10.5676
▁Vir	-10.5679
jo	-10.568
▁Due	-10.5681
▁declare	-10.5681
▁loose	-10.5685
▁pieces	-10.5689
▁Plugin	-10.5694
▁improving	-10.5694
▁switch	-10.5694
▁naught	-10.5695
▁arrive	-10.5696
▁Order	-10.5701
▁excess	-10.5704
hand	-10.5704
▁suggested	-10.5706
▁prominent	-10.5707
▁strategy	-10.5707
ieve	-10.5708
place	-10.5711
▁budget	-10.572
▁elder	-10.5721
▁preferred	-10.5722
test	-10.5725
▁Rai	-10.5731
▁Friends	-10.5732
▁greet	-10.5733
▁del	-10.5736
▁estimated	-10.5739
▁communications	-10.5744
▁Land	-10.575
▁cycle	-10.5754
▁Size	-10.5756
▁numerous	-10.576
▁victim	-10.576
▁Manager	-10.576
TION	-10.5763
▁repentance	-10.5764
▁Afghanistan	-10.5773
part	-10.5777
▁UT	-10.5777
▁collaboration	-10.5786
▁honor	-10.5786
▁Mala	-10.5787
▁mortal	-10.5787
▁clouds	-10.579
▁appoint	-10.5791
▁eggs	-10.5793
wo	-10.5793
▁fulfill	-10.5794
▁sisters	-10.5795
▁expansion	-10.58
▁busy	-10.5801
▁collected	-10.5801
▁discussed	-10.5802
▁trace	-10.5804
zo	-10.5805
▁spite	-10.5805
▁70	-10.5805
FC	-10.5807
▁rat	-10.5811
▁solutions	-10.5811
▁contributions	-10.5819
On	-10.5825
▁facing	-10.5826
▁grew	-10.5829
leg	-10.583
▁fan	-10.5832
▁boat	-10.5834
▁advised	-10.5834
▁Real	-10.5837
key	-10.5838
▁impossible	-10.5839
▁comprise	-10.5841
▁Regulation	-10.5843
▁poetic	-10.585
▁consumption	-10.5853
80	-10.5857
▁Bri	-10.586
▁theatre	-10.5861
▁socio	-10.5865
▁Himalaya	-10.5866
▁legislation	-10.5866
▁traffic	-10.5866
▁arrogant	-10.5866
▁terminal	-10.5866
▁proclaim	-10.5868
▁Pass	-10.5875
CA	-10.5877
▁repair	-10.5879
▁Annual	-10.5879
▁David	-10.5881
▁reasonable	-10.5882
▁representation	-10.5893
▁abandon	-10.5893
titude	-10.5901
▁cloud	-10.5903
▁ran	-10.5904
▁farmer	-10.5907
▁recognized	-10.5907
anga	-10.5908
▁interested	-10.5911
▁integrated	-10.5913
▁Earth	-10.592
▁~	-10.592
▁36	-10.592
▁tar	-10.5922
▁Amendment	-10.5927
▁permitted	-10.5927
▁adapt	-10.5933
yam	-10.5933
▁composition	-10.5934
▁highlight	-10.5939
▁considerable	-10.594
&	-10.5943
To	-10.5944
▁restrain	-10.5947
▁depends	-10.5947
▁flight	-10.5952
▁dialog	-10.5959
▁corporate	-10.596
▁disgrace	-10.596
▁wound	-10.5964
MA	-10.5969
▁masses	-10.5969
▁excellence	-10.5973
▁felicitations	-10.5973
▁housing	-10.5973
down	-10.5979
▁Gora	-10.598
▁raw	-10.5981
▁printer	-10.5984
▁consist	-10.5986
▁Main	-10.5986
▁completion	-10.5987
house	-10.5992
▁represent	-10.5995
▁ring	-10.5998
▁sharp	-10.6001
▁protector	-10.6009
▁pious	-10.601
TS	-10.6012
NA	-10.6018
oli	-10.6023
▁improved	-10.6025
▁conclude	-10.6027
▁Germany	-10.6028
▁fold	-10.6034
▁customers	-10.6035
▁empower	-10.6035
▁push	-10.6038
▁Being	-10.6045
▁Program	-10.6048
▁passage	-10.6052
▁diet	-10.6053
minate	-10.6054
▁Screen	-10.6054
DE	-10.6061
▁vessel	-10.6068
▁yellow	-10.6068
▁Organization	-10.6069
▁shade	-10.6074
▁craft	-10.6074
▁linked	-10.6076
▁Energy	-10.6081
▁province	-10.6081
28	-10.6083
Co	-10.6084
▁Asian	-10.6085
▁Left	-10.6085
▁Email	-10.6085
▁mineral	-10.6087
▁via	-10.6088
▁spoken	-10.6089
▁Kir	-10.6089
▁distinction	-10.6095
▁thank	-10.6098
▁rapid	-10.61
▁realize	-10.6104
garh	-10.6105
▁seeds	-10.6108
▁Similarly	-10.6115
▁prohibit	-10.6122
▁steadfast	-10.6122
▁surprise	-10.6122
▁Tourism	-10.6122
▁coll	-10.6125
▁Fort	-10.6127
▁Road	-10.6133
poli	-10.6135
▁harmony	-10.6136
▁Police	-10.6136
▁incurred	-10.6137
▁Gi	-10.6138
▁despair	-10.615
▁silver	-10.615
▁transmission	-10.615
▁fluid	-10.6155
▁33	-10.6162
▁Get	-10.6162
▁encompass	-10.6163
▁Kingdom	-10.6163
▁Election	-10.6164
▁Imp	-10.6172
▁outer	-10.6177
▁alternative	-10.6177
▁conservation	-10.6177
▁crowd	-10.6177
\\	-10.6177
even	-10.618
▁Font	-10.618
▁opt	-10.6182
upon	-10.6182
▁begins	-10.6188
▁bath	-10.6189
▁relate	-10.6191
▁irrigation	-10.6191
▁remembrance	-10.6191
▁Windows	-10.6192
ude	-10.6193
▁External	-10.6202
▁Whatever	-10.6203
▁superior	-10.6205
▁Prasad	-10.6207
▁bestow	-10.6208
▁continuous	-10.6208
▁Egypt	-10.6217
▁Capital	-10.6219
▁Value	-10.6219
▁Lanka	-10.622
▁armed	-10.622
LA	-10.6223
▁regulations	-10.6231
▁combination	-10.6232
▁recipient	-10.6232
▁quantity	-10.6232
TER	-10.6234
liness	-10.6238
TA	-10.6256
त	-10.626
▁Follow	-10.626
▁partition	-10.6261
▁remark	-10.6263
▁corrupt	-10.6269
▁talking	-10.627
▁pet	-10.6271
their	-10.6272
▁stamp	-10.6273
▁satisfaction	-10.6274
▁mailing	-10.6274
where	-10.6284
▁constructed	-10.6287
▁Jawaharlal	-10.6288
▁cheque	-10.6289
lves	-10.629
▁terror	-10.6291
▁baby	-10.6291
▁CA	-10.6296
▁pour	-10.6299
▁Nagar	-10.6299
▁distributed	-10.63
▁mixed	-10.6301
▁injustice	-10.6302
▁holder	-10.6308
▁Super	-10.6316
▁passion	-10.6317
▁meat	-10.6322
▁Sim	-10.6328
▁Ambedkar	-10.633
▁conclusion	-10.633
▁grievance	-10.633
AYS	-10.633
▁stray	-10.633
▁Rang	-10.6339
▁warned	-10.634
▁disorder	-10.6343
▁Himachal	-10.6344
▁prospect	-10.6344
▁filed	-10.6347
▁SC	-10.6351
▁mor	-10.6351
connect	-10.6356
band	-10.6356
▁faithless	-10.6357
MP	-10.6358
▁pond	-10.6362
▁remarkable	-10.6364
PA	-10.6364
IVE	-10.6364
▁White	-10.6372
▁onto	-10.6372
ender	-10.638
▁jo	-10.6381
▁stored	-10.6381
▁bug	-10.6388
▁grass	-10.6394
▁Cabinet	-10.64
▁encrypt	-10.64
▁eastern	-10.64
▁snake	-10.64
▁solid	-10.6401
▁doom	-10.6406
▁decade	-10.6409
▁determination	-10.6414
▁Photo	-10.6416
35	-10.6419
▁affection	-10.6425
▁merge	-10.6426
▁idols	-10.6427
▁tag	-10.6427
▁Knowledge	-10.6428
hari	-10.6431
vin	-10.6437
▁Point	-10.6438
comm	-10.644
▁productivity	-10.6443
▁Oft	-10.6452
▁universe	-10.6456
resident	-10.6458
▁None	-10.6461
▁usage	-10.6466
▁personnel	-10.647
▁ensuring	-10.647
▁lord	-10.6474
2015	-10.6475
▁acting	-10.6475
▁march	-10.6481
▁1992	-10.6484
▁extensive	-10.6484
▁securities	-10.6484
▁Way	-10.6485
▁Four	-10.6486
▁dawn	-10.6487
▁difficulties	-10.6494
▁disabled	-10.6496
▁lecture	-10.6498
▁struck	-10.6498
▁happening	-10.6499
▁Brahma	-10.6504
▁interaction	-10.6508
▁Subject	-10.6513
▁cluster	-10.6513
▁Companies	-10.6513
▁Online	-10.6513
▁rot	-10.6515
▁touched	-10.6521
▁Bhag	-10.6523
chandra	-10.6524
▁Ibrahim	-10.6527
ection	-10.6537
▁Agricultural	-10.6541
▁pound	-10.6542
lessness	-10.6544
hri	-10.6554
▁brave	-10.6555
▁categories	-10.6555
▁sudden	-10.656
NAME	-10.6568
▁rulers	-10.6569
▁aspiration	-10.657
▁duration	-10.6572
bhu	-10.658
▁sanction	-10.6591
agon	-10.6591
direct	-10.6592
▁Qa	-10.6593
rew	-10.6597
oma	-10.6597
▁rear	-10.6597
▁transformation	-10.6598
▁Panchayat	-10.6598
26	-10.66
▁semi	-10.6603
▁advise	-10.6604
▁silk	-10.6604
▁intend	-10.6604
stone	-10.6606
▁Dec	-10.6612
▁cried	-10.6613
pid	-10.6614
▁1998	-10.6617
SP	-10.6624
▁bowl	-10.6627
▁Sector	-10.6629
▁herself	-10.6634
organ	-10.6639
▁competitive	-10.6641
▁guest	-10.6641
▁worse	-10.6642
▁aught	-10.6643
▁Level	-10.6644
▁planned	-10.6644
ease	-10.6649
bling	-10.6651
▁Ber	-10.6651
▁invent	-10.6654
▁notified	-10.6655
▁presentation	-10.6655
▁worldly	-10.6656
▁diversity	-10.6656
▁barrier	-10.6656
▁Ramayana	-10.6656
▁eliminat	-10.6659
▁voluntary	-10.667
▁removal	-10.667
▁shadow	-10.667
▁Vedic	-10.6672
▁regime	-10.6693
▁thin	-10.6696
new	-10.6698
▁dynamic	-10.6699
▁Spirit	-10.6699
▁acknowledge	-10.6699
▁haply	-10.6699
tract	-10.6711
▁Software	-10.6714
▁formula	-10.6716
▁requested	-10.6723
▁strategic	-10.6728
▁label	-10.6728
▁dollar	-10.6728
▁usual	-10.673
▁44	-10.6732
▁extreme	-10.6733
▁spec	-10.6737
▁realise	-10.6743
▁exit	-10.6761
char	-10.6763
▁pointed	-10.6765
▁Peace	-10.6771
▁Brahmin	-10.6772
▁HTML	-10.6772
▁Subscriber	-10.6772
▁trained	-10.6774
▁strengthening	-10.6777
▁righteousness	-10.6778
▁planet	-10.678
▁earning	-10.6781
▁anger	-10.6786
▁submission	-10.6791
▁gradually	-10.6794
▁assign	-10.6798
▁protocol	-10.6801
▁Madras	-10.6801
lly	-10.6808
▁Apart	-10.6811
▁celebration	-10.6816
▁dimension	-10.6816
▁Thank	-10.6817
”;	-10.6818
▁liability	-10.6819
▁Cell	-10.6819
▁significance	-10.6821
▁Lib	-10.6823
▁cru	-10.6825
▁License	-10.683
▁throne	-10.683
▁Audio	-10.683
lon	-10.6832
▁Comm	-10.6832
LL	-10.6832
SC	-10.6833
▁meal	-10.6834
▁addresses	-10.6836
▁Person	-10.6837
▁vain	-10.6841
▁upto	-10.6841
▁older	-10.6842
ographic	-10.6843
▁egg	-10.6843
▁fulfil	-10.6846
▁Location	-10.6849
▁vegetables	-10.6852
▁browser	-10.686
65	-10.6866
▁condemn	-10.6874
▁segment	-10.6875
▁rose	-10.6875
▁Parliamentary	-10.6877
▁devoted	-10.6879
They	-10.6884
▁Rule	-10.6885
▁multiply	-10.6889
▁suffered	-10.6893
▁spell	-10.6893
▁axis	-10.6899
▁lake	-10.6902
▁manage	-10.6903
▁anniversary	-10.6904
fold	-10.6905
▁beside	-10.6909
य	-10.6919
▁quiet	-10.6919
▁Place	-10.6921
person	-10.6925
far	-10.6928
▁park	-10.6929
▁Exalted	-10.6934
▁shelter	-10.6934
▁stopped	-10.6936
ifying	-10.6941
▁Template	-10.6948
▁encounter	-10.6948
▁acceptance	-10.695
▁URI	-10.6956
▁afford	-10.6957
▁Final	-10.6957
▁conversation	-10.6978
▁eminent	-10.6978
▁killing	-10.699
▁Additional	-10.6993
▁southern	-10.6993
▁widely	-10.6995
▁Ven	-10.6997
▁insist	-10.6999
▁implement	-10.7004
▁ignorant	-10.7008
▁module	-10.7008
▁York	-10.7008
▁flesh	-10.7008
▁sake	-10.7009
▁effectively	-10.7017
NS	-10.702
▁wholly	-10.7022
▁assembly	-10.7023
▁extract	-10.7024
▁leaf	-10.7024
▁petition	-10.7025
▁dam	-10.7026
▁Grant	-10.7027
▁claimed	-10.7031
term	-10.7032
udi	-10.7036
▁Sara	-10.7047
serve	-10.7049
▁Chat	-10.7051
complete	-10.7052
akh	-10.7052
▁disappear	-10.7053
▁outcome	-10.7053
▁glass	-10.7053
istan	-10.7054
▁writ	-10.7054
TE	-10.7055
▁sym	-10.7057
▁breasts	-10.7064
▁contributed	-10.7065
PS	-10.7066
▁dish	-10.7067
▁48	-10.707
uda	-10.7073
pot	-10.7076
gradation	-10.7081
▁emerge	-10.7081
▁valuable	-10.7083
▁nerve	-10.7083
▁NPS	-10.7088
▁printed	-10.7094
▁attended	-10.7096
▁Details	-10.7098
▁faculty	-10.7098
▁Mercy	-10.7098
▁revive	-10.7099
▁Audit	-10.7099
▁needy	-10.7101
▁Off	-10.7103
▁ascribe	-10.7107
▁viz	-10.7111
▁Region	-10.7112
▁Perhaps	-10.7113
▁admonition	-10.7113
▁visual	-10.7113
▁complain	-10.7115
▁awarded	-10.7117
▁Mount	-10.7117
▁controlled	-10.7124
▁Executive	-10.7128
▁Russia	-10.713
▁Base	-10.7133
▁deserve	-10.7133
▁Zone	-10.7134
▁150	-10.7134
▁driver	-10.7138
▁ignorance	-10.7143
▁infinite	-10.7143
▁receiving	-10.7143
▁Pension	-10.7143
▁investors	-10.7146
▁backward	-10.7149
▁liars	-10.7155
▁passenger	-10.7158
▁eve	-10.7163
▁300	-10.7165
So	-10.7168
▁Innovation	-10.7174
▁mosque	-10.7174
▁breast	-10.7178
▁motor	-10.7179
▁resort	-10.7189
95	-10.7189
▁Ham	-10.7189
▁Sho	-10.719
vision	-10.7194
▁recovery	-10.7196
rum	-10.7201
▁attach	-10.7203
▁Chaitanya	-10.7204
▁accompanied	-10.7204
▁proxy	-10.7204
▁wander	-10.7205
▁accord	-10.7212
▁Mohan	-10.7216
▁deaf	-10.7217
▁Universities	-10.7219
▁recommendations	-10.722
▁indigenous	-10.7235
▁Major	-10.7235
▁pardon	-10.7235
▁vol	-10.724
▁undertake	-10.7247
▁cotton	-10.725
▁Session	-10.725
▁Issue	-10.7251
▁specially	-10.7254
▁Koran	-10.7256
▁forwarded	-10.7258
EF	-10.726
▁fur	-10.7263
▁ceremony	-10.7265
▁unseen	-10.7265
▁pillars	-10.7275
▁minute	-10.7276
▁educated	-10.7277
▁je	-10.7278
▁producing	-10.7281
▁MSME	-10.7281
▁Child	-10.7282
▁preference	-10.7284
▁Binoy	-10.7296
▁weapons	-10.73
▁Connect	-10.7303
jj	-10.7311
▁League	-10.7311
▁fifteen	-10.7311
▁shame	-10.7311
▁monitoring	-10.7315
▁greatly	-10.7316
▁mag	-10.7317
▁assert	-10.7321
▁partial	-10.7323
▁Burn	-10.7332
▁deities	-10.7335
phe	-10.734
▁familiar	-10.7342
▁Short	-10.7343
CP	-10.7346
▁www	-10.7351
▁technological	-10.7358
▁legend	-10.7359
31	-10.7368
▁absorb	-10.7373
▁algorithm	-10.7373
▁progressive	-10.738
▁celebrate	-10.7382
night	-10.7385
aught	-10.7385
▁corporation	-10.7389
▁occupation	-10.7389
para	-10.7389
▁Tool	-10.739
▁Sad	-10.7396
▁Gita	-10.74
▁Download	-10.7404
▁consultation	-10.7404
▁Selection	-10.7407
lib	-10.7409
▁subjected	-10.7412
▁Certainly	-10.7412
▁classical	-10.7413
▁reckoning	-10.7418
▁innovative	-10.742
▁offspring	-10.742
▁drum	-10.7424
▁Forward	-10.7424
▁musical	-10.7432
▁Meeting	-10.7435
▁Maharaja	-10.7436
▁estimate	-10.7444
▁refuse	-10.7444
▁monitor	-10.7447
▁pit	-10.7448
▁German	-10.745
▁testimony	-10.7451
▁triumph	-10.7451
▁wrath	-10.7451
▁worst	-10.7451
lap	-10.7467
▁lift	-10.7471
flow	-10.7477
▁Object	-10.7482
▁internet	-10.7484
▁subsequent	-10.7489
pass	-10.7493
▁Install	-10.7498
▁excuse	-10.7501
rush	-10.7501
▁cup	-10.7502
TO	-10.7503
▁radi	-10.7509
▁encouraged	-10.7511
▁sequence	-10.7513
▁tremendous	-10.7513
▁sharing	-10.7519
▁epic	-10.7527
▁constitutional	-10.7527
▁northern	-10.7529
▁Medical	-10.7529
▁photograph	-10.753
▁34	-10.7539
There	-10.7542
▁fro	-10.7545
gate	-10.7548
▁arranged	-10.7549
▁criticism	-10.7549
▁Hence	-10.7559
38	-10.7559
▁VI	-10.7559
▁empire	-10.7561
▁sensitive	-10.7561
Laughter	-10.7561
▁Fir	-10.7562
▁min	-10.7562
ं	-10.7577
▁despite	-10.7577
▁ungrateful	-10.7577
▁biggest	-10.7577
▁mono	-10.7581
▁authorised	-10.7582
▁opposite	-10.7592
▁Ten	-10.7594
▁Hide	-10.7595
▁Single	-10.7599
Pro	-10.7608
When	-10.7608
▁equivalent	-10.7608
▁competent	-10.7609
▁operative	-10.7623
▁Gazette	-10.7624
▁miracle	-10.7624
32	-10.7624
vant	-10.7632
▁normally	-10.7632
▁vary	-10.7637
inter	-10.7639
▁emerging	-10.764
▁scan	-10.7653
▁undergo	-10.7662
▁France	-10.7667
▁disciple	-10.7672
gram	-10.7683
▁Hill	-10.7688
▁Update	-10.7689
▁historic	-10.7694
▁constantly	-10.7694
IB	-10.7699
▁requirement	-10.77
▁entrusted	-10.7704
79	-10.7705
▁tank	-10.7711
▁carefully	-10.7713
▁catch	-10.7718
98	-10.7719
▁qualities	-10.772
▁exactly	-10.7724
▁mat	-10.7727
EE	-10.7728
▁MA	-10.7729
▁Said	-10.7731
▁knoweth	-10.7732
▁cultivation	-10.7736
▁@	-10.7741
▁tail	-10.7741
EP	-10.7744
itch	-10.7749
▁surrounding	-10.7752
▁Manipur	-10.7752
▁Multi	-10.7753
▁dividend	-10.7754
▁instruction	-10.7758
▁dependent	-10.7759
64	-10.7762
▁discover	-10.7768
▁uncle	-10.7769
▁strict	-10.777
▁missing	-10.7774
▁repeat	-10.7782
▁definition	-10.7784
▁unaware	-10.7784
▁patron	-10.7784
▁Again	-10.7784
▁Ltd	-10.7786
mir	-10.779
▁audience	-10.78
▁carbon	-10.78
▁injury	-10.78
▁testing	-10.7801
who	-10.7809
▁woe	-10.7821
▁weakness	-10.7829
▁Bio	-10.7832
▁inclusive	-10.7833
▁snow	-10.7834
▁sustain	-10.784
▁exceeding	-10.7845
▁peaceful	-10.7849
▁goddess	-10.7849
▁smooth	-10.7849
▁interval	-10.7854
29	-10.7858
▁Bhu	-10.7862
▁Taj	-10.7863
▁bearing	-10.7863
▁falling	-10.7864
▁bitter	-10.7864
▁shell	-10.7864
▁disaster	-10.7865
▁sinners	-10.7865
▁Japanese	-10.7866
NT	-10.7868
▁engagement	-10.7875
▁fashion	-10.7882
▁grief	-10.7882
▁sentiment	-10.7882
▁faced	-10.7883
▁authentication	-10.7886
▁raising	-10.7886
▁diamond	-10.7898
▁Natural	-10.7898
ode	-10.7899
link	-10.7899
▁irre	-10.79
gress	-10.79
▁resulting	-10.79
count	-10.7903
▁Media	-10.791
▁IIT	-10.7911
▁slay	-10.7912
▁execution	-10.7914
▁wheel	-10.7914
▁keen	-10.7914
▁closely	-10.7917
▁represented	-10.7927
▁1948	-10.7934
▁hence	-10.7936
▁Format	-10.7938
off	-10.7941
meric	-10.7943
▁appellant	-10.7947
▁investigation	-10.7947
▁ordained	-10.7947
▁virtual	-10.7947
▁George	-10.7947
▁illegal	-10.7947
▁Branch	-10.7948
▁#	-10.795
CR	-10.7959
▁plead	-10.7963
▁Narayan	-10.7964
▁aircraft	-10.7964
▁survive	-10.798
▁modification	-10.798
▁09	-10.7984
tress	-10.7996
▁livelihood	-10.7996
▁studied	-10.7996
▁Britain	-10.7997
▁protest	-10.7999
▁fate	-10.7999
▁Fu	-10.8002
▁CRA	-10.8003
▁Interest	-10.8004
▁Hall	-10.8004
▁gap	-10.8008
▁emotional	-10.801
VI	-10.8011
nate	-10.8013
▁ruling	-10.8016
▁dealt	-10.8024
-20	-10.8024
▁Personal	-10.8026
▁divorce	-10.8029
▁reaching	-10.8029
▁vertical	-10.8031
▁pertain	-10.8032
▁regularly	-10.8035
▁peak	-10.8037
▁Brahman	-10.8039
▁forced	-10.8043
▁defect	-10.8043
▁Empire	-10.8046
▁Industries	-10.8046
▁Labour	-10.8046
▁kg	-10.8056
▁inserted	-10.806
▁declaration	-10.8062
▁disclose	-10.8064
▁teeth	-10.8067
▁Does	-10.8069
atur	-10.8073
▁Arch	-10.8076
▁Kali	-10.8079
▁NABARD	-10.8079
▁introduction	-10.8079
▁poison	-10.808
▁radical	-10.808
▁2018	-10.8082
34	-10.8087
▁cancer	-10.8091
▁generate	-10.8091
▁hang	-10.8092
▁Devi	-10.8095
व	-10.8096
▁wheat	-10.8096
▁uniform	-10.8096
▁generated	-10.81
▁Vidya	-10.8101
▁midst	-10.8102
▁imposed	-10.8102
▁corresponding	-10.8103
▁chose	-10.8107
nne	-10.8107
▁Bharati	-10.8108
▁conferred	-10.8112
▁consent	-10.8114
ION	-10.812
▁Tar	-10.8122
RD	-10.8123
▁elect	-10.8124
▁PRO	-10.8127
▁arrest	-10.8128
▁yesterday	-10.8129
▁entity	-10.8129
▁Prince	-10.813
▁chat	-10.8133
▁commencement	-10.8133
▁cal	-10.8139
▁tro	-10.8139
▁Investment	-10.8146
▁contrary	-10.8146
▁restore	-10.8147
▁worthy	-10.8147
▁Working	-10.815
▁manual	-10.815
OP	-10.8152
▁remind	-10.8153
▁alike	-10.8158
▁Christ	-10.8161
▁Configure	-10.8163
▁Majesty	-10.8163
▁typical	-10.8163
▁closer	-10.8166
AND	-10.8171
▁quit	-10.8175
▁Chrome	-10.8179
ette	-10.818
▁noise	-10.818
▁err	-10.8181
▁Nir	-10.8183
▁careful	-10.8187
▁movie	-10.8196
▁oriented	-10.8197
▁finished	-10.8197
▁eating	-10.8198
▁Normal	-10.8198
His	-10.82
▁consisting	-10.8208
▁flowing	-10.8212
▁PRAN	-10.8213
▁Sometimes	-10.8213
▁gentle	-10.8214
cade	-10.8223
▁hire	-10.8228
▁Allow	-10.8228
▁Turkey	-10.823
▁precede	-10.8231
▁Hearing	-10.8233
PR	-10.8238
▁plane	-10.8239
▁scholar	-10.8242
PRODUCT	-10.8247
responsibilities	-10.8247
▁largely	-10.825
▁summer	-10.8251
▁percentage	-10.8255
mba	-10.8261
▁learnt	-10.8264
vara	-10.8273
▁hum	-10.8276
▁Properties	-10.8281
▁Leave	-10.8281
▁Agra	-10.8281
▁drowned	-10.8282
▁Tele	-10.8283
▁lady	-10.8287
▁limitation	-10.8288
▁managed	-10.829
▁Mahabharata	-10.8298
▁Greek	-10.8298
▁Faith	-10.8298
▁enrich	-10.8298
36	-10.8303
OUR	-10.8304
▁farming	-10.8311
▁Welfare	-10.8315
▁Never	-10.8317
▁successor	-10.8332
▁rescue	-10.8332
▁(5)	-10.8333
▁emerged	-10.834
Go	-10.834
▁sect	-10.8343
▁installation	-10.8348
▁grievous	-10.8349
▁mischief	-10.8349
ERS	-10.8349
▁silent	-10.8349
▁Five	-10.8355
▁liable	-10.8361
▁protein	-10.8366
▁Arabia	-10.8366
▁Money	-10.8368
▁sail	-10.8369
▁1996	-10.837
MENT	-10.8376
▁Madh	-10.8381
▁feeding	-10.8381
▁abundant	-10.8383
▁blank	-10.8383
▁succeeded	-10.8383
▁Organisation	-10.8383
▁realised	-10.8384
▁Jai	-10.8385
uce	-10.8386
▁char	-10.839
▁Sil	-10.8396
89	-10.8397
▁Marathi	-10.84
▁patriot	-10.84
▁salary	-10.8401
▁lac	-10.8403
▁Goa	-10.8408
▁hotel	-10.8408
▁Vietnam	-10.8417
▁Kam	-10.8424
▁Holy	-10.8426
▁participants	-10.8432
म	-10.8434
▁observation	-10.8434
▁rebel	-10.8435
▁DAY	-10.8438
▁carved	-10.8438
▁Protection	-10.8438
▁gross	-10.8442
▁essentially	-10.8442
PE	-10.8447
▁chest	-10.8448
▁aimed	-10.8449
▁abnormal	-10.8452
▁Professor	-10.8452
▁dignity	-10.8452
▁entrance	-10.8452
▁modified	-10.8452
▁supposed	-10.8453
▁”“	-10.8455
your	-10.8467
▁earliest	-10.8469
▁fertilizer	-10.8469
▁Throne	-10.8469
▁Engineering	-10.8469
tention	-10.847
▁1990	-10.8472
hir	-10.8474
2013	-10.848
▁Chennai	-10.8486
▁Governance	-10.8486
▁healthcare	-10.8486
▁monument	-10.8486
▁plate	-10.8491
▁Gar	-10.8499
▁Nothing	-10.8505
▁Airport	-10.8506
▁Durga	-10.8507
▁Visit	-10.8507
▁wire	-10.8509
▁ray	-10.8511
▁Thy	-10.8512
wara	-10.8514
▁calculated	-10.8516
▁Thamud	-10.8521
▁Defence	-10.8521
▁causing	-10.8521
▁Space	-10.8522
▁knee	-10.8523
▁sheep	-10.8523
▁fever	-10.8524
▁Loan	-10.8526
▁wished	-10.8535
▁Sind	-10.8538
▁mix	-10.8538
▁deceive	-10.8538
mini	-10.8548
▁assume	-10.8553
▁aforesaid	-10.8556
▁license	-10.8556
▁symptoms	-10.8556
▁hole	-10.8565
▁Event	-10.8565
▁opposed	-10.8565
▁interact	-10.8568
▁guess	-10.8573
▁Computer	-10.8573
▁intense	-10.8574
including	-10.8574
▁Saudi	-10.8575
▁NAME	-10.8576
▁emotion	-10.8576
▁Hinduism	-10.8576
▁Punjabi	-10.8577
▁strengthened	-10.8585
▁ruler	-10.859
▁aggregate	-10.8591
▁widow	-10.8591
▁Bhi	-10.8591
▁ISO	-10.8592
▁conversion	-10.8595
▁Deposit	-10.8595
▁MO	-10.8598
▁bread	-10.8602
▁Minimum	-10.8608
▁{1}	-10.8608
▁Black	-10.8608
▁atomic	-10.8609
▁nurse	-10.861
▁pace	-10.8614
▁converted	-10.8621
▁07	-10.8621
▁regulate	-10.8626
▁operational	-10.8633
GP	-10.8633
▁Header	-10.8634
▁Gram	-10.8635
▁tenant	-10.8641
▁rough	-10.8646
▁clothes	-10.8647
yana	-10.865
▁Mahal	-10.8653
▁commonly	-10.8656
▁awake	-10.8657
▁Bhutan	-10.8662
▁secondary	-10.8671
▁Anti	-10.8673
▁Yusuf	-10.8679
▁Indira	-10.8679
▁reduction	-10.8685
▁exalted	-10.8694
▁deceased	-10.8696
▁caught	-10.8699
27	-10.8702
▁1950	-10.8706
▁exploit	-10.8707
▁printing	-10.8708
▁integrity	-10.8714
▁EVE	-10.8717
▁dramatic	-10.8722
▁recommended	-10.8724
media	-10.8724
▁epi	-10.8725
▁united	-10.8729
▁envisage	-10.8732
▁embrace	-10.8732
▁Monitor	-10.8732
▁genetic	-10.8733
▁belied	-10.8733
▁coordinate	-10.8733
▁gland	-10.8737
▁rush	-10.8741
▁rapidly	-10.8745
70	-10.8747
▁grade	-10.8749
▁inhabitants	-10.875
▁smoke	-10.875
AK	-10.875
▁Paper	-10.8758
▁Mun	-10.8762
gon	-10.8763
▁settle	-10.8763
р	-10.8767
▁involving	-10.8767
▁Question	-10.8767
▁fabricate	-10.8768
▁Mur	-10.8771
▁acquire	-10.8783
▁Agreement	-10.8785
▁Phone	-10.8788
▁continent	-10.8803
▁serving	-10.8803
▁Insert	-10.8804
▁secular	-10.8805
▁discovered	-10.8806
▁stuff	-10.8808
▁—	-10.8814
▁modify	-10.8821
33	-10.8823
▁withdraw	-10.8827
▁performing	-10.8836
operative	-10.8836
▁Electronic	-10.8839
▁Survey	-10.8839
▁Behold	-10.8843
▁Solar	-10.8847
▁decreed	-10.8847
▁bur	-10.8847
▁ultimate	-10.8851
ल	-10.8857
▁circular	-10.8857
▁colleague	-10.8857
▁Previous	-10.8857
▁variable	-10.8857
▁Three	-10.8857
▁summon	-10.8861
▁possessed	-10.8862
▁illness	-10.8864
view	-10.8872
▁consume	-10.8873
▁concession	-10.8875
▁derivative	-10.8875
▁fragment	-10.8875
▁recruit	-10.8875
▁Star	-10.888
▁engage	-10.888
udh	-10.8883
ground	-10.8888
▁compassion	-10.889
▁bliss	-10.8893
▁parliamentary	-10.8896
▁winter	-10.8902
▁slip	-10.8903
▁putting	-10.8905
▁insert	-10.8907
▁gathering	-10.8909
▁residence	-10.8911
▁varieties	-10.8911
▁producer	-10.8911
▁flee	-10.8914
▁maintaining	-10.8915
▁carries	-10.8916
▁implementing	-10.8917
▁Bookmark	-10.892
▁protected	-10.892
▁possibility	-10.8929
▁interpret	-10.8937
▁Private	-10.8947
▁circuit	-10.8947
▁bacteria	-10.8947
▁Tiru	-10.8949
▁Recent	-10.8957
▁inspire	-10.8964
▁physi	-10.8965
▁Quality	-10.8965
▁estate	-10.8965
them	-10.8967
▁Transfer	-10.8969
▁swor	-10.897
▁Far	-10.8972
▁Jaya	-10.8982
▁applicant	-10.8983
▁impression	-10.8983
▁Common	-10.8991
clos	-10.8993
▁perish	-10.8996
▁equation	-10.9001
▁Creator	-10.9002
▁Allahabad	-10.9004
▁Device	-10.9011
▁deduct	-10.9012
Then	-10.9016
2019	-10.9016
▁GNOME	-10.902
▁Yojana	-10.902
▁pilgrimage	-10.9022
▁polytheists	-10.9028
▁influenced	-10.9031
37	-10.904
▁chair	-10.9046
▁provider	-10.9047
▁rendered	-10.9052
▁innocent	-10.9056
▁dialogue	-10.9057
▁childhood	-10.9061
SL	-10.9063
▁65	-10.9066
▁Soon	-10.9067
▁defendant	-10.907
▁separated	-10.907
TP	-10.9074
▁Monotheism	-10.9075
▁achieving	-10.9075
▁parallel	-10.9075
▁boost	-10.9075
96	-10.9083
firm	-10.909
▁angel	-10.9091
▁Switch	-10.9093
▁Field	-10.9093
▁predict	-10.9095
eshwar	-10.91
space	-10.9101
PL	-10.9102
▁rename	-10.9104
saying	-10.9107
▁score	-10.911
▁Valley	-10.9111
▁dismiss	-10.9113
▁rail	-10.9118
▁totally	-10.9119
▁naturally	-10.912
▁administrator	-10.913
▁vimana	-10.913
▁resign	-10.9131
97	-10.9133
▁Woe	-10.9137
▁Baba	-10.9141
▁schedule	-10.9148
▁Procedure	-10.9148
▁genuine	-10.9148
▁retribution	-10.9148
▁wilt	-10.9149
▁Stop	-10.9156
▁Convention	-10.9167
▁William	-10.9167
▁honest	-10.9167
▁COM	-10.9172
pura	-10.9178
▁enhanced	-10.9182
▁attained	-10.9183
word	-10.9184
▁Benefit	-10.9185
▁proviso	-10.9185
▁Initial	-10.9186
▁Basava	-10.9186
scope	-10.9189
type	-10.919
▁permanently	-10.9192
▁seated	-10.9193
▁thrown	-10.9193
ept	-10.9194
fall	-10.9198
▁somebody	-10.9198
▁gro	-10.9205
▁transgressors	-10.9207
▁1991	-10.9207
▁smile	-10.9207
▁mouse	-10.9209
▁Culture	-10.9223
rao	-10.923
UD	-10.9241
▁advocate	-10.9241
▁Truly	-10.9241
text	-10.9242
▁incline	-10.9243
▁Top	-10.9246
▁monthly	-10.926
▁primarily	-10.926
▁Remote	-10.926
▁graduate	-10.9265
chari	-10.9277
▁inaugurated	-10.9278
л	-10.9279
▁configure	-10.9279
▁Should	-10.9279
▁shareholder	-10.9279
▁arrested	-10.928
▁gained	-10.9283
▁UP	-10.9288
▁Saha	-10.9288
IST	-10.9291
▁(*	-10.9297
▁Municipal	-10.9297
▁fifth	-10.9298
▁Phil	-10.9298
▁larva	-10.9302
▁corn	-10.9303
metric	-10.9305
▁tract	-10.9308
bble	-10.9313
▁Arm	-10.9313
▁BY	-10.9316
▁Plant	-10.9316
▁contrast	-10.9316
▁compound	-10.932
gree	-10.9323
▁37	-10.9326
▁hatred	-10.9335
▁nose	-10.934
▁$1	-10.9342
87	-10.9345
▁pig	-10.9347
emia	-10.9349
▁regret	-10.9354
▁stronger	-10.9356
Peace	-10.9356
▁assuredly	-10.9358
lusion	-10.9361
escent	-10.9361
▁reaches	-10.9369
▁digit	-10.9371
▁artificial	-10.9373
▁layout	-10.9376
▁selling	-10.9381
oz	-10.9386
▁enjoyed	-10.9388
bhai	-10.9389
▁plaintiff	-10.9392
▁swift	-10.9392
▁Govt	-10.9392
▁accordingly	-10.9398
then	-10.9405
▁Dur	-10.941
▁acre	-10.941
▁administer	-10.9411
▁societies	-10.9411
▁stakeholders	-10.9411
▁mould	-10.9411
▁slowly	-10.9412
▁idol	-10.9412
▁walking	-10.9415
▁lease	-10.9416
▁Having	-10.9421
icle	-10.9424
▁confront	-10.9432
▁`	-10.9434
lateral	-10.9441
▁bore	-10.9442
▁variation	-10.9449
▁worry	-10.945
mni	-10.945
appa	-10.9452
▁translated	-10.9453
▁combined	-10.9454
ility	-10.9458
▁stability	-10.946
due	-10.9467
▁Automatic	-10.9468
▁Almighty	-10.9468
▁Summit	-10.9468
▁practise	-10.9468
▁proceeding	-10.9475
▁lotus	-10.9484
▁Tan	-10.9484
▁Bahadur	-10.9487
▁Lucknow	-10.9487
▁summary	-10.9487
▁confined	-10.9487
▁islands	-10.9488
▁Paris	-10.9495
▁charm	-10.9496
▁Rate	-10.9502
mail	-10.9506
▁Notwithstanding	-10.9506
▁hunger	-10.9506
▁Always	-10.9507
▁sinful	-10.9508
▁camera	-10.9513
▁Gir	-10.952
76	-10.9524
▁Telugu	-10.9525
▁easier	-10.9525
▁tape	-10.9532
▁attractive	-10.9536
▁Russian	-10.9542
\	-10.9544
▁Ayurveda	-10.9545
▁deliberate	-10.9545
▁imagination	-10.9545
▁virus	-10.9545
▁ice	-10.955
NC	-10.9554
▁mut	-10.9555
▁fallen	-10.9556
▁rhythm	-10.9564
▁intervention	-10.9564
▁supplement	-10.9564
▁surrounded	-10.9564
▁tall	-10.9566
▁colon	-10.9567
▁1997	-10.9568
▁mud	-10.9571
▁revolutionary	-10.9571
▁fabric	-10.9582
▁binding	-10.9583
▁intimate	-10.9583
▁connectivity	-10.9584
▁trip	-10.9589
▁Saving	-10.9595
▁overtake	-10.9598
▁Know	-10.9601
▁Administration	-10.9603
▁Festival	-10.9603
▁beneficial	-10.9603
▁vaccine	-10.9603
▁chart	-10.9607
▁Jag	-10.9611
▁shut	-10.9616
▁representing	-10.9617
titute	-10.9619
▁avert	-10.962
▁bamboo	-10.9622
▁legislative	-10.9622
▁shoot	-10.9622
▁stem	-10.9622
▁factory	-10.9629
lio	-10.9637
nished	-10.9638
▁Electric	-10.9641
▁arrival	-10.9641
▁consolidat	-10.9641
▁Toggle	-10.9641
▁Learn	-10.9642
upp	-10.9643
▁dangerous	-10.9645
▁bigger	-10.9647
▁everywhere	-10.9647
evil	-10.9658
▁Bangalore	-10.9661
▁satisfy	-10.9661
▁exposed	-10.9661
▁arrow	-10.9662
▁scholarship	-10.9662
▁blessing	-10.9669
▁Total	-10.9675
▁Maximum	-10.968
▁expiry	-10.968
UM	-10.9686
charge	-10.9691
▁TV	-10.9693
▁massive	-10.9693
▁elaborate	-10.97
▁geographical	-10.97
▁rejoice	-10.97
▁Background	-10.97
▁shock	-10.9701
86	-10.9703
▁seize	-10.9706
▁Long	-10.9707
▁perfection	-10.9713
▁exact	-10.9713
▁sixty	-10.9717
▁Several	-10.972
▁Title	-10.972
▁van	-10.9723
▁functional	-10.9728
▁gram	-10.973
▁assured	-10.9735
▁distant	-10.9739
▁cheap	-10.9745
▁organic	-10.9748
▁Nam	-10.9748
▁textile	-10.975
▁calm	-10.9754
▁commodities	-10.9759
▁climb	-10.9759
▁threw	-10.976
board	-10.9768
wood	-10.9773
▁Sikkim	-10.9778
▁museum	-10.9778
▁Mosque	-10.9778
▁anywhere	-10.9779
▁Nanak	-10.9779
▁crucial	-10.9779
▁Haryana	-10.9779
▁keyboard	-10.978
RC	-10.9788
▁institutional	-10.9791
▁peasant	-10.9798
▁spouse	-10.9798
▁warrant	-10.9799
▁Roman	-10.9804
logy	-10.9817
▁thorough	-10.9818
▁overseas	-10.9818
▁Present	-10.9819
▁lawyer	-10.982
▁hydro	-10.9821
▁pool	-10.9834
с	-10.9838
▁Secretariat	-10.9838
▁decrease	-10.9838
▁delegation	-10.9838
▁precise	-10.9838
▁fortune	-10.9838
▁spare	-10.9839
▁pursue	-10.984
▁cooperative	-10.9841
▁maybe	-10.9844
gger	-10.9847
▁Registration	-10.9857
▁integration	-10.9857
▁explanation	-10.9857
▁III	-10.9861
▁nearer	-10.9864
▁ascend	-10.9881
▁Notification	-10.9882
▁1980	-10.9884
▁borrower	-10.989
▁licence	-10.9897
▁silence	-10.9897
▁Promotion	-10.99
▁executed	-10.9909
▁parliament	-10.9914
▁transportation	-10.9917
▁swallow	-10.9917
▁Himalayan	-10.9917
▁chamber	-10.9918
▁Obama	-10.9919
▁Patel	-10.992
▁Gur	-10.9921
▁Love	-10.9924
▁Content	-10.9927
▁depart	-10.9928
▁sanctioned	-10.9929
riya	-10.9936
▁priest	-10.9937
▁Padma	-10.9942
▁05	-10.995
▁47	-10.9956
▁twain	-10.9957
▁applies	-10.9959
▁03	-10.9959
▁adjust	-10.9963
▁Nation	-10.9965
▁Shan	-10.9965
▁accessible	-10.9968
▁invented	-10.9969
ison	-10.9971
▁Korea	-10.9975
▁Speech	-10.9977
▁pronounce	-10.9977
▁Family	-10.9977
▁Pune	-10.9978
▁55	-10.9979
▁boot	-10.9983
title	-10.9989
ā	-10.9997
▁maturity	-10.9997
▁recognise	-11
▁mini	-11.0001
water	-11.0002
charya	-11.0004
▁dar	-11.0015
▁Indra	-11.0017
▁evolved	-11.0018
▁Aaron	-11.0018
▁Employment	-11.0019
▁weigh	-11.0021
प	-11.0038
▁float	-11.0039
▁Operation	-11.004
▁resistance	-11.0041
▁cum	-11.0041
▁Young	-11.0051
▁sphere	-11.0054
▁pop	-11.0055
▁1"	-11.0055
▁purify	-11.0057
krishna	-11.0058
▁replaced	-11.006
▁resist	-11.006
▁sustained	-11.0061
▁Forum	-11.0062
[	-11.0062
▁Grand	-11.0063
▁flame	-11.0067
▁pump	-11.0068
▁duly	-11.0071
▁Wikipedia	-11.0078
▁virtuous	-11.0078
▁Function	-11.0078
print	-11.0079
▁Kabir	-11.008
▁gall	-11.0082
▁Station	-11.0084
▁excessive	-11.0085
▁countrymen	-11.0086
▁Vol	-11.0089
▁native	-11.0089
▁cache	-11.0091
▁golden	-11.0093
▁subscriber	-11.0094
▁bearer	-11.0094
▁bare	-11.0098
▁Ministries	-11.0099
▁Reminder	-11.0099
▁suffice	-11.0099
▁Design	-11.0099
▁consistent	-11.0105
▁calf	-11.0106
▁USA	-11.0109
ो	-11.0119
▁concentrate	-11.0119
▁essay	-11.0119
▁Turk	-11.012
▁rope	-11.012
▁Toolbar	-11.012
▁kar	-11.012
▁colonial	-11.0121
▁urgent	-11.0122
PM	-11.0125
▁Whenever	-11.0125
roid	-11.0125
amba	-11.0127
▁reducing	-11.0139
▁SHRI	-11.0139
▁queen	-11.014
▁upgrade	-11.0148
▁lust	-11.0157
more	-11.0158
▁Protocol	-11.016
▁immortal	-11.016
▁ticket	-11.016
▁Load	-11.0175
▁exclusive	-11.0177
▁intellect	-11.018
▁Abdul	-11.018
▁varied	-11.0181
▁Cancel	-11.0184
▁brand	-11.0185
lash	-11.0201
▁Jewish	-11.0201
▁manuscript	-11.0201
▁unfortunate	-11.0201
▁glorify	-11.0201
▁Soviet	-11.0201
▁nearest	-11.0202
lore	-11.0203
▁angle	-11.0204
▁exclusively	-11.0204
▁African	-11.0206
▁thankful	-11.0209
▁Write	-11.0213
film	-11.0216
▁margin	-11.0219
ique	-11.0221
▁realized	-11.0226
▁revision	-11.0232
▁tip	-11.0233
mount	-11.0241
▁sponsor	-11.0242
▁Moreover	-11.0243
which	-11.0246
▁Gujarati	-11.0249
▁convinced	-11.0255
▁nest	-11.0257
▁veil	-11.0257
▁pursuit	-11.0263
▁Iranian	-11.0266
▁magician	-11.0267
▁faster	-11.028
▁Bush	-11.0283
▁Academy	-11.0283
▁perception	-11.0284
▁Term	-11.0286
tell	-11.03
▁arbitra	-11.0302
▁enormous	-11.0304
▁safeguard	-11.0304
▁digest	-11.0304
▁Transport	-11.0306
▁Oh	-11.0307
▁crash	-11.0309
▁miles	-11.0309
▁strip	-11.0312
▁pun	-11.0312
▁indicated	-11.0316
▁Pay	-11.0323
▁decimal	-11.0325
fact	-11.0327
All	-11.0331
▁pillar	-11.0332
▁Ur	-11.0342
▁frequently	-11.0344
▁400	-11.0345
▁eleven	-11.0346
▁membership	-11.0354
▁Memo	-11.0359
▁Communication	-11.0367
▁accumulate	-11.0367
▁earthquake	-11.0367
▁emergency	-11.0367
▁conceive	-11.0367
▁debug	-11.0368
people	-11.0371
law	-11.0371
▁damaged	-11.0377
bir	-11.0379
▁Draw	-11.038
▁obstruct	-11.039
▁womb	-11.039
▁assumed	-11.0391
▁twin	-11.0395
▁Put	-11.0406
Did	-11.0407
▁scheduled	-11.0409
▁adverse	-11.041
▁hate	-11.0411
▁Rao	-11.0413
cribed	-11.0419
▁villagers	-11.0424
▁LDAP	-11.043
▁True	-11.043
▁1993	-11.043
▁Position	-11.043
▁wrap	-11.0433
▁shout	-11.0433
▁Bhai	-11.0437
▁define	-11.0443
▁cult	-11.0451
▁Mobile	-11.0451
▁Browse	-11.0451
▁patent	-11.0453
genera	-11.0459
▁incorporated	-11.0461
▁admonish	-11.0472
▁troops	-11.0472
▁Smt	-11.0473
▁expanded	-11.0473
▁acceptable	-11.0474
▁Return	-11.0476
How	-11.0476
▁ignore	-11.0476
▁Whom	-11.0476
▁somewhat	-11.0477
▁commun	-11.0477
sphere	-11.0477
▁lib	-11.0481
▁1000	-11.0489
▁Sucharita	-11.0493
▁magazine	-11.0493
▁forgotten	-11.0494
▁storm	-11.0494
▁1995	-11.0499
bound	-11.05
▁pose	-11.0503
▁startup	-11.051
▁Directory	-11.0512
utonomous	-11.0514
▁utilised	-11.0514
▁entries	-11.0514
cover	-11.0516
▁precious	-11.0519
▁Mill	-11.0522
▁wooden	-11.0527
▁formulation	-11.0528
▁disturb	-11.0532
▁Desktop	-11.0535
▁satellite	-11.0535
▁Solomon	-11.0535
▁Syria	-11.0536
▁loyal	-11.0536
▁gun	-11.0537
▁Paul	-11.0538
▁foster	-11.054
▁MP	-11.0546
▁cutting	-11.0548
▁Develop	-11.0551
▁Washington	-11.0557
▁RBI	-11.0557
▁batsman	-11.0557
▁delegate	-11.0557
▁mixture	-11.0558
▁singing	-11.0559
▁everybody	-11.0565
▁Loading	-11.0566
adha	-11.0575
duction	-11.0578
▁NATIONAL	-11.0578
▁fraction	-11.0578
▁pulse	-11.0578
▁pitch	-11.0582
▁inaugurate	-11.0585
▁routine	-11.0599
▁Sheikh	-11.0599
▁Consider	-11.06
▁Provision	-11.0601
▁fairly	-11.0602
▁furnished	-11.0602
▁nearby	-11.0607
▁retrieve	-11.0621
▁CALL	-11.0621
▁Movement	-11.0625
▁Planning	-11.0626
▁vow	-11.063
mukh	-11.0632
▁scattered	-11.0633
▁radiation	-11.0633
▁Lake	-11.0635
▁hereafter	-11.0642
▁Bho	-11.0643
▁rub	-11.0647
▁distinguish	-11.0655
▁38	-11.066
▁appreciation	-11.0664
▁encouraging	-11.0664
▁mislead	-11.0664
▁vitamin	-11.0664
▁copies	-11.0664
▁Review	-11.0669
▁residential	-11.0669
▁Kala	-11.068
▁Beneficent	-11.0685
▁Literature	-11.0685
▁occupied	-11.0685
▁dispose	-11.0693
But	-11.0698
▁endure	-11.0701
▁financing	-11.0707
▁Zoom	-11.0707
▁Ocean	-11.0707
▁slope	-11.0707
▁Basic	-11.0708
▁bud	-11.0712
▁disable	-11.0714
END	-11.0719
field	-11.0719
▁Payment	-11.0721
▁prosper	-11.0721
▁therewith	-11.0724
▁Conf	-11.0727
▁horizontal	-11.073
▁jack	-11.0736
▁Rani	-11.0739
▁maid	-11.0745
▁curve	-11.075
▁Consumer	-11.075
▁Digital	-11.075
▁assemble	-11.075
▁allocation	-11.075
▁Purana	-11.0756
▁lion	-11.0758
▁43	-11.0763
▁wherewith	-11.0766
▁disagree	-11.0772
▁Frame	-11.0772
▁insight	-11.0773
▁descendants	-11.0773
▁mood	-11.0782
▁42	-11.0783
post	-11.0783
▁injured	-11.0794
▁Tibet	-11.0794
▁taxes	-11.0795
▁interview	-11.0795
▁Come	-11.0797
▁Ever	-11.0798
▁maha	-11.0804
▁Product	-11.081
bai	-11.0814
▁profound	-11.0816
▁eventually	-11.0816
▁objection	-11.082
▁inspection	-11.0823
▁pending	-11.0826
▁acquaint	-11.0837
▁preceding	-11.0837
▁bought	-11.0837
▁closing	-11.0838
▁Vijay	-11.0838
ference	-11.0841
▁Until	-11.0841
▁norms	-11.0842
▁Ganges	-11.0847
grade	-11.0849
▁exhibition	-11.0851
▁Block	-11.0852
ह	-11.0859
▁sample	-11.086
▁rational	-11.0861
▁1986	-11.0864
▁bondmen	-11.0865
▁Without	-11.0867
▁lung	-11.0868
scence	-11.0874
▁Bala	-11.0874
▁accommodation	-11.0881
▁conviction	-11.0881
▁occurrence	-11.0881
▁Accept	-11.0883
▁reign	-11.0884
▁infant	-11.0886
▁1987	-11.0886
▁cursed	-11.0888
▁urged	-11.0889
▁hy	-11.0896
▁altogether	-11.0903
в	-11.0903
▁television	-11.0904
▁inscription	-11.0904
▁piety	-11.0906
▁immu	-11.0913
▁Cave	-11.0922
▁nutrition	-11.0925
▁approaches	-11.0927
75	-11.0928
▁POP	-11.093
▁wonderful	-11.0931
▁realisation	-11.0932
tech	-11.0933
▁1988	-11.0934
▁dwellers	-11.0936
▁coat	-11.0936
▁Journal	-11.0948
▁clipboard	-11.0948
▁suppress	-11.0948
▁drain	-11.0948
▁contend	-11.0948
▁suck	-11.0961
▁reserved	-11.0966
▁chromosome	-11.097
▁invitation	-11.097
90	-11.0972
▁51	-11.0972
▁shot	-11.0983
▁Satya	-11.0986
▁dynasty	-11.0992
▁extraordinary	-11.0992
▁dominion	-11.0992
▁boiling	-11.0992
▁Cham	-11.0994
▁Turkish	-11.0994
ananda	-11.0995
▁drew	-11.0998
▁kindness	-11.0998
▁mining	-11.1004
▁Yu	-11.1005
▁Cost	-11.101
▁Van	-11.1011
▁enhancing	-11.1014
▁thrust	-11.1014
power	-11.1021
▁lowest	-11.103
▁Technical	-11.1037
▁brown	-11.1037
tude	-11.1039
▁Sindhi	-11.1039
▁Max	-11.1044
▁exploitation	-11.1045
▁Connection	-11.1049
▁Kama	-11.1049
▁Tag	-11.1052
▁liar	-11.1056
▁crush	-11.1057
71	-11.1062
▁luck	-11.1069
▁belie	-11.1069
▁enforce	-11.1076
▁Sale	-11.1078
▁Directorate	-11.1081
▁widget	-11.1081
▁upright	-11.109
▁withdrawal	-11.1102
▁necessity	-11.1104
▁cultivate	-11.1104
▁Topics	-11.1104
▁purity	-11.1124
▁capabilities	-11.1126
▁statutory	-11.1126
▁pretty	-11.1126
▁explore	-11.1127
▁discourse	-11.1128
▁mask	-11.1129
turn	-11.1133
▁handling	-11.1133
▁conventional	-11.1134
▁Vivekananda	-11.1149
▁shake	-11.1151
▁marginal	-11.1152
▁04	-11.1153
▁Patna	-11.1161
AGE	-11.1167
ball	-11.1169
▁migrate	-11.1172
▁Ganesh	-11.1173
▁54	-11.1173
▁winning	-11.1175
▁Shall	-11.1181
▁tech	-11.1182
▁perspective	-11.1194
▁outlook	-11.1194
▁reminded	-11.1196
▁login	-11.1199
▁Job	-11.12
awn	-11.1208
▁Establish	-11.1217
▁admire	-11.1218
▁reverse	-11.1219
▁parable	-11.1219
▁abuse	-11.1223
▁exhaust	-11.124
д	-11.124
▁Infrastructure	-11.124
▁commerce	-11.124
▁generous	-11.124
▁statue	-11.124
▁Sultan	-11.124
▁metres	-11.1242
▁compassionate	-11.1244
▁adhere	-11.1245
▁Archive	-11.1246
▁stable	-11.1253
▁Netaji	-11.1263
▁Modern	-11.1264
▁alms	-11.1264
▁hardware	-11.1265
▁Complete	-11.1266
▁ownership	-11.1266
ograph	-11.1271
▁revere	-11.1281
▁treaty	-11.1283
▁premises	-11.1285
▁scroll	-11.1285
▁begun	-11.1287
▁Warning	-11.1291
▁adoption	-11.1296
▁quarrel	-11.1308
▁Bureau	-11.1308
▁Arjun	-11.1309
▁forgot	-11.131
Lord	-11.1316
43	-11.1329
▁Jacob	-11.1331
Where	-11.1338
▁wine	-11.1341
▁Rename	-11.1345
▁pursued	-11.1352
▁commencing	-11.1354
▁overwhelm	-11.1354
▁supplied	-11.1354
▁unexpected	-11.1354
HAN	-11.1356
▁alien	-11.1359
▁ultimately	-11.1362
▁Configuration	-11.1377
▁abundance	-11.1377
▁Commerce	-11.1377
▁06	-11.1377
▁refund	-11.1377
▁Urban	-11.1378
▁broadcast	-11.1379
▁Organ	-11.138
▁travelled	-11.1383
▁Scale	-11.1386
▁increasingly	-11.1389
▁Quit	-11.1398
▁Akademi	-11.1401
▁Extension	-11.1401
▁Clean	-11.1401
▁backend	-11.1401
while	-11.1407
▁genus	-11.1414
57	-11.1418
▁holiday	-11.1424
▁stomach	-11.1424
▁evildoers	-11.1424
▁Preferences	-11.1424
▁plastic	-11.1424
▁Lahore	-11.1424
▁Period	-11.1424
▁flourish	-11.1425
aksha	-11.1433
ECT	-11.1436
▁harmful	-11.144
▁mm	-11.1444
▁literacy	-11.1447
▁suspend	-11.1447
▁eager	-11.1447
road	-11.1448
▁Preview	-11.1448
▁vice	-11.146
▁organize	-11.1462
▁testify	-11.1463
▁ignored	-11.1465
▁Building	-11.147
▁Integrated	-11.147
▁subsidy	-11.147
▁bulk	-11.1471
▁Debug	-11.1472
▁programming	-11.1473
▁39	-11.1474
▁behave	-11.1476
▁Track	-11.1476
▁Six	-11.1477
94	-11.148
▁wake	-11.1488
48	-11.1489
▁Cultural	-11.1494
▁regulator	-11.1494
▁slaughter	-11.1494
▁Village	-11.1494
▁compliment	-11.1494
idge	-11.1499
▁unlike	-11.1508
▁logic	-11.151
▁geo	-11.1512
olar	-11.1516
▁Anjuta	-11.1517
▁disposal	-11.1517
▁workshop	-11.1517
▁communicate	-11.1517
▁Radio	-11.152
Have	-11.1524
▁genius	-11.1541
▁enlarge	-11.1541
▁commend	-11.1541
▁pioneer	-11.1541
▁Ayat	-11.1543
▁agenda	-11.1546
▁cm	-11.1552
▁Citizen	-11.1564
▁glorious	-11.1564
▁decorated	-11.1564
▁Queen	-11.1564
▁gracious	-11.1566
▁restored	-11.1571
break	-11.1572
▁subtract	-11.1573
▁Instead	-11.1574
▁Gate	-11.1583
▁BAR	-11.1583
▁dedication	-11.1588
▁conquer	-11.1588
▁pearl	-11.1589
▁Shankar	-11.1591
▁horn	-11.1593
▁hyper	-11.1593
▁1989	-11.1594
you	-11.1605
EST	-11.1611
▁Effect	-11.1611
▁Guidelines	-11.1611
▁Width	-11.1612
▁Contract	-11.1614
▁Turn	-11.1615
ither	-11.1617
▁64	-11.1621
▁emission	-11.1622
▁therefrom	-11.1623
▁transparency	-11.1635
▁whisper	-11.1635
▁angry	-11.1636
▁blown	-11.1636
▁rival	-11.1638
pala	-11.1638
▁instant	-11.1639
▁tight	-11.1652
▁Protect	-11.1655
к	-11.1659
▁idolaters	-11.1659
▁legislature	-11.1659
▁politician	-11.1659
▁Sahib	-11.1659
▁Seminar	-11.1659
▁Sort	-11.1666
▁Dhar	-11.167
▁slightly	-11.1683
▁lyric	-11.1683
▁execute	-11.1693
▁trap	-11.1694
▁oldest	-11.1696
▁tries	-11.1698
present	-11.1706
▁Budget	-11.1707
▁retreat	-11.1707
friend	-11.1714
worth	-11.1714
▁trick	-11.1716
▁employ	-11.1721
▁convention	-11.1722
▁ku	-11.1729
▁puppet	-11.173
Applause	-11.173
▁daniel	-11.173
▁Index	-11.1731
▁entertain	-11.1732
▁toolbar	-11.1733
▁Large	-11.1734
▁wider	-11.1734
▁Poet	-11.1736
▁Express	-11.1737
still	-11.1745
▁Try	-11.1753
▁Assistance	-11.1754
▁Malayalam	-11.1754
▁concentration	-11.1754
▁Column	-11.1754
▁allotted	-11.1754
▁computed	-11.1755
▁Goddess	-11.1755
▁1970	-11.176
▁grasp	-11.1761
ometer	-11.1774
▁compete	-11.1777
▁destiny	-11.1778
▁pregnancy	-11.1778
▁afterwards	-11.178
▁85	-11.1781
▁Swaraj	-11.1781
▁Reference	-11.1783
▁tiger	-11.1784
Prophet	-11.1786
▁repost	-11.1789
▁subsequently	-11.1791
▁bold	-11.1792
▁Ul	-11.1793
▁neighbor	-11.1803
▁Street	-11.1803
▁outward	-11.1812
▁continuously	-11.1821
▁temper	-11.1826
▁identification	-11.1827
▁exclude	-11.1827
▁Request	-11.1827
▁essence	-11.1827
▁admission	-11.1828
▁smart	-11.1829
▁Governorate	-11.183
▁Bhagat	-11.1838
▁commence	-11.1845
▁eco	-11.185
▁PRESENT	-11.1851
▁nervous	-11.1851
▁procure	-11.1851
▁fetch	-11.1851
▁sovereignty	-11.1852
▁Canada	-11.1855
▁approximately	-11.1859
85	-11.1864
▁Royal	-11.1868
▁affliction	-11.1869
▁inaugura	-11.1869
▁56	-11.1875
▁MESSAGE	-11.1875
▁behavior	-11.1875
▁unlawful	-11.1875
▁Muk	-11.1875
▁symbolic	-11.1879
55	-11.1893
stream	-11.1894
▁automatic	-11.1899
▁forefathers	-11.19
▁Agency	-11.19
▁Replace	-11.1907
▁Studies	-11.1924
▁spades	-11.1924
▁Oneness	-11.1926
▁Original	-11.1927
▁edition	-11.1931
▁Verma	-11.1937
▁systematic	-11.1942
▁slot	-11.1943
▁narrative	-11.1948
▁Thereafter	-11.1948
▁phrase	-11.1948
▁Tribes	-11.1949
▁moderate	-11.1956
▁succession	-11.1957
▁maxim	-11.1969
▁enquiry	-11.1973
▁negotiation	-11.1973
▁Torah	-11.1973
▁Neither	-11.1974
IES	-11.1975
▁Step	-11.1978
▁Praise	-11.1987
▁retirement	-11.1997
▁powder	-11.1997
▁Azad	-11.1998
▁legacy	-11.1999
▁Ashok	-11.2
▁exhibit	-11.2007
▁oppose	-11.2009
▁Advanced	-11.2021
▁continuing	-11.2022
▁1974	-11.2022
▁Housing	-11.2022
▁nationalist	-11.2023
▁Indus	-11.2027
▁Till	-11.2033
▁HTTP	-11.2047
▁Religion	-11.2047
▁Launch	-11.2047
▁Northern	-11.2047
▁Rather	-11.2047
▁mystic	-11.2053
▁adjustment	-11.2065
і	-11.2072
▁enabling	-11.2072
▁landlord	-11.2072
▁ICT	-11.2072
yog	-11.2073
▁Dharma	-11.2073
▁acute	-11.2075
▁Old	-11.2078
▁endorse	-11.2089
code	-11.2089
▁attraction	-11.2089
▁emphasize	-11.2096
▁imprisonment	-11.2096
▁oxygen	-11.2096
▁territories	-11.2096
▁pocket	-11.2096
▁comprising	-11.2096
▁operator	-11.2096
▁Reply	-11.2097
▁Vertical	-11.2098
▁expertise	-11.21
▁jump	-11.2101
against	-11.2105
▁Badruddin	-11.2121
▁Buddhism	-11.2121
▁Corporate	-11.2121
▁Property	-11.2121
▁relieve	-11.2121
▁devour	-11.2121
▁ransom	-11.2121
▁apple	-11.2122
▁requite	-11.2123
▁electric	-11.2132
▁assistant	-11.2139
will	-11.2142
á	-11.2146
▁intelligent	-11.2146
▁premium	-11.2146
▁Sacred	-11.2146
▁Isaac	-11.2146
▁Evil	-11.2146
▁demerge	-11.2148
▁verify	-11.2149
▁membrane	-11.2171
▁necessarily	-11.2171
▁trunk	-11.2171
▁tolerance	-11.2171
91	-11.2181
▁Manual	-11.2182
▁sperm	-11.2183
▁Gold	-11.2185
nthrop	-11.2189
▁Microsoft	-11.2196
▁enacted	-11.2196
▁cursor	-11.2199
▁Highway	-11.2205
▁loud	-11.2208
These	-11.2213
▁habitation	-11.2221
▁commodity	-11.2221
▁comparison	-11.2221
▁surgery	-11.2221
▁NGO	-11.2221
▁utmost	-11.2222
▁Band	-11.2223
▁1976	-11.2227
giri	-11.2229
▁46	-11.2233
dependent	-11.224
▁creature	-11.224
▁Implementation	-11.2247
▁striving	-11.2247
▁Machine	-11.2247
▁boast	-11.2247
▁hub	-11.2254
ITY	-11.2258
▁visitors	-11.226
▁erect	-11.2271
▁finish	-11.2271
▁complicated	-11.2272
▁MIME	-11.2272
▁productive	-11.2291
▁Unicode	-11.2297
▁pregnant	-11.2297
▁obedient	-11.2297
▁GNU	-11.2297
▁denial	-11.2297
▁elsewhere	-11.2298
▁crown	-11.2299
▁plenty	-11.2323
▁utility	-11.2323
▁leaflet	-11.2324
▁heedless	-11.2337
▁tension	-11.2337
▁merchant	-11.2348
▁Andaman	-11.2349
ESS	-11.2354
taking	-11.2354
▁flock	-11.2354
▁manifestation	-11.2363
▁Rabindranath	-11.2373
▁Uttarakhand	-11.2373
▁prejudice	-11.2373
▁Build	-11.2375
▁Prize	-11.2376
▁transition	-11.2376
▁Letter	-11.2379
▁sync	-11.2381
▁Emperor	-11.2399
▁throat	-11.2399
▁Cause	-11.2406
▁electrical	-11.2408
That	-11.2409
▁worm	-11.2409
▁nice	-11.2413
TRA	-11.2414
▁tune	-11.2422
▁Viceroy	-11.2425
▁mechanical	-11.2425
▁fibre	-11.2425
▁Charge	-11.2426
▁marvel	-11.2427
▁Night	-11.2428
▁Div	-11.243
▁measurement	-11.243
▁49	-11.245
▁Hospital	-11.245
▁Third	-11.245
▁IPv	-11.2451
▁Progress	-11.2452
▁nigh	-11.2452
▁parse	-11.2455
▁specifically	-11.2459
tivate	-11.2459
▁Chha	-11.2461
culture	-11.2463
▁Film	-11.2476
based	-11.2478
▁betray	-11.2478
▁Cooperative	-11.2478
▁Allowance	-11.2481
▁99	-11.25
▁Jagannath	-11.2502
▁transcend	-11.2502
▁complement	-11.2502
▁Draft	-11.2502
▁nobody	-11.2503
▁Guardian	-11.2504
▁trash	-11.2508
▁speeches	-11.2509
▁Java	-11.2519
▁riches	-11.2527
▁MUKHERJEE	-11.2528
▁prosecution	-11.2528
▁qualification	-11.2528
▁hazard	-11.2528
▁construct	-11.253
▁Ambassador	-11.2554
▁alcohol	-11.2554
▁drought	-11.2554
▁Teacher	-11.2554
▁Odisha	-11.2554
iety	-11.2562
economic	-11.2563
56	-11.2565
▁empowerment	-11.2565
▁inevitable	-11.258
▁honey	-11.258
▁regulation	-11.2582
▁ov	-11.2584
▁tap	-11.2586
▁600	-11.2586
▁Lock	-11.2587
▁resurrect	-11.2601
▁enthusiasm	-11.2606
▁possibly	-11.2606
▁IMAP	-11.2606
▁discovery	-11.2608
41	-11.2613
▁Pipe	-11.2613
system	-11.2616
▁append	-11.2618
▁pilgrim	-11.2629
▁compromise	-11.2632
▁pleasant	-11.2632
▁transparent	-11.2632
▁preparing	-11.2632
▁copper	-11.2632
▁indulge	-11.2632
babu	-11.2635
lution	-11.2636
▁expend	-11.2642
▁allied	-11.2643
▁SSL	-11.2647
▁Cooperation	-11.2658
▁economies	-11.2658
▁compliance	-11.2658
▁breach	-11.2659
▁Acharya	-11.266
▁confusion	-11.2661
▁1971	-11.2664
▁Bhar	-11.2668
rophy	-11.2678
▁Writing	-11.2685
▁anxious	-11.2685
▁Samaj	-11.2687
▁transmitted	-11.2688
▁Rajput	-11.2689
▁fond	-11.2695
▁worshipping	-11.2698
▁Music	-11.2706
▁judiciary	-11.2711
▁serpent	-11.2711
▁Unseen	-11.2711
▁afternoon	-11.2711
▁Appellat	-11.2713
▁Guard	-11.2715
▁professor	-11.2718
▁72	-11.2729
▁specimen	-11.2738
▁linkages	-11.2738
▁1957	-11.2742
▁Corona	-11.2743
November	-11.2748
í	-11.2764
▁Community	-11.2764
▁peculiar	-11.2764
▁narrate	-11.2764
▁sep	-11.2765
▁crystal	-11.2765
▁slain	-11.2765
▁Junk	-11.2766
▁odd	-11.2766
▁discount	-11.2768
HAR	-11.2773
current	-11.2786
▁artistic	-11.2791
▁Radhakrishnan	-11.2791
▁patch	-11.2791
▁birthday	-11.2796
khan	-11.2797
▁depreciation	-11.2817
▁discrimination	-11.2817
▁infidels	-11.2817
▁monsoon	-11.2817
▁mandatory	-11.2817
▁affirm	-11.2817
▁levied	-11.2818
▁Estate	-11.2818
▁auction	-11.2818
▁Seven	-11.2819
▁reckon	-11.2821
front	-11.2825
Shall	-11.2828
▁introduce	-11.2833
▁Kannada	-11.2844
▁Nicobar	-11.2844
▁Register	-11.2844
▁mirror	-11.2844
▁pandemic	-11.2844
▁vouchsafe	-11.2844
▁${	-11.2844
▁Brasero	-11.2844
▁thirst	-11.2844
▁Father	-11.2845
▁Death	-11.2856
859	-11.2857
▁managing	-11.2857
▁translator	-11.2871
▁rebellion	-11.2871
▁paddy	-11.2871
▁shortage	-11.2873
▁Version	-11.2874
2012	-11.2895
▁condolence	-11.2898
▁encoding	-11.2898
▁pixels	-11.2898
▁suspect	-11.2898
▁Jaipur	-11.29
▁authentic	-11.2903
▁enforcement	-11.2905
▁dumb	-11.291
error	-11.2922
▁Arunachal	-11.2925
▁deploy	-11.2925
▁coconut	-11.2925
▁leather	-11.2925
▁absent	-11.2925
▁barren	-11.2925
▁architectural	-11.2925
▁smell	-11.2925
▁(6)	-11.2926
▁frequent	-11.2928
▁prosperous	-11.2928
▁subordinate	-11.2928
berg	-11.2931
▁favourite	-11.2937
▁Judgement	-11.2938
▁designated	-11.2938
▁Engine	-11.2952
▁Chhattisgarh	-11.2952
▁concrete	-11.2952
▁Amount	-11.2952
ancing	-11.2957
▁Sharma	-11.2973
▁Upanishad	-11.2979
▁reception	-11.2979
▁Label	-11.2979
▁Entry	-11.2981
▁burst	-11.2994
▁mature	-11.2997
▁mandate	-11.2998
▁impose	-11.3002
▁demonstration	-11.3006
▁imperialism	-11.3006
▁Revolution	-11.3006
▁separation	-11.3006
▁intensity	-11.3006
▁Client	-11.3006
▁crack	-11.301
▁municipal	-11.3033
▁ADDRESS	-11.3033
▁Administrative	-11.3033
▁Horizontal	-11.3033
▁opponent	-11.3033
▁abstract	-11.3033
▁zoom	-11.3033
▁blend	-11.3034
▁weaken	-11.3047
▁1930	-11.3047
▁prisoners	-11.3048
▁determining	-11.3061
▁mortgage	-11.3061
▁Convert	-11.3061
▁desist	-11.3065
▁shore	-11.3067
▁Wait	-11.3074
▁crude	-11.308
fusion	-11.3087
▁cautious	-11.3088
▁sympathy	-11.3088
▁Course	-11.3088
▁Ahmedabad	-11.3088
▁Abdullah	-11.3088
▁revert	-11.309
▁verified	-11.3093
▁Whosoever	-11.3094
▁involvement	-11.3102
▁Sufi	-11.3103
▁Nodal	-11.3105
equal	-11.3107
▁Authentication	-11.3116
▁Compassionate	-11.3116
▁Securities	-11.3116
▁diminish	-11.3116
▁Front	-11.3116
▁Gracious	-11.3117
▁dislike	-11.3122
▁exalt	-11.3123
▁Kanpur	-11.3124
▁gaze	-11.3126
▁logical	-11.3139
▁1949	-11.3143
▁Varanasi	-11.3143
▁brilliant	-11.3143
▁compulsory	-11.3143
▁disobedience	-11.3143
▁libraries	-11.3143
▁monetary	-11.3143
▁liberty	-11.3143
▁Straight	-11.3143
▁referring	-11.3147
▁weapon	-11.3163
▁Dhan	-11.3165
▁Down	-11.3168
▁auspicious	-11.3171
▁generating	-11.3171
▁Double	-11.3171
▁endowed	-11.3171
▁utilize	-11.3171
▁Golden	-11.3177
▁Reset	-11.3184
▁1960	-11.3184
▁hint	-11.3188
standing	-11.3193
opathy	-11.3195
▁Aurobindo	-11.3198
▁circum	-11.3198
▁philosophical	-11.3198
▁ridicule	-11.3198
葉	-11.3198
▁Primary	-11.3198
▁Federation	-11.3198
▁Saint	-11.3199
▁query	-11.3202
▁tiny	-11.3205
▁Farm	-11.3205
▁Host	-11.3208
▁subtle	-11.3211
99	-11.3212
▁batch	-11.3214
spiring	-11.3225
▁Grievance	-11.3226
▁Answer	-11.3227
ttam	-11.3236
72	-11.3242
▁footsteps	-11.3254
▁misfortune	-11.3254
▁Lakshmi	-11.3254
▁magnetic	-11.3254
▁solemn	-11.3254
▁Senior	-11.3254
▁marble	-11.3257
▁discard	-11.3263
▁Ananda	-11.3269
▁Examination	-11.3282
▁Sahitya	-11.3282
▁ceiling	-11.3282
▁activate	-11.3283
▁rainfall	-11.3283
▁entertainment	-11.3291
▁fame	-11.3295
▁41	-11.3299
▁flash	-11.3309
▁Channel	-11.331
▁reservation	-11.331
▁romantic	-11.331
▁Shakti	-11.331
▁Moosa	-11.331
Prevention	-11.3311
▁clinic	-11.3318
▁idle	-11.3318
▁inheritance	-11.3318
▁travelling	-11.3319
▁Grace	-11.3321
▁penis	-11.3324
▁250	-11.3324
▁derive	-11.3329
▁seventy	-11.3332
▁Secret	-11.3335
▁upload	-11.3335
▁inferior	-11.3338
▁linguistic	-11.3338
▁ascertain	-11.3338
▁Character	-11.3338
▁pupil	-11.3338
▁Nokia	-11.3338
▁Tripura	-11.334
▁paragraph	-11.334
▁successive	-11.334
▁prevention	-11.3343
cycle	-11.3351
▁owe	-11.3357
▁Price	-11.3363
phone	-11.3364
▁Available	-11.3366
▁Jordan	-11.3366
▁aesthetic	-11.3366
▁evaluation	-11.3366
▁scenario	-11.3366
▁wicket	-11.3366
▁hectare	-11.3366
▁assurance	-11.3366
▁frighten	-11.3366
▁shirt	-11.3366
▁indication	-11.3369
▁Profile	-11.337
▁decay	-11.3373
▁Aryan	-11.3376
▁announcement	-11.3378
▁minority	-11.3381
▁Mysore	-11.3395
akka	-11.3399
▁restart	-11.3401
▁periodical	-11.3417
▁Dwarkanath	-11.3423
▁immovable	-11.3423
▁delicate	-11.3423
▁Owner	-11.3423
▁humility	-11.3423
▁robot	-11.3424
▁Gopal	-11.3424
▁void	-11.3426
▁Egyptian	-11.3426
▁Stock	-11.3428
▁manpower	-11.3429
▁Paste	-11.3429
▁blast	-11.3434
kumar	-11.3437
▁withdrawn	-11.3444
▁Despite	-11.3451
▁Mizoram	-11.3451
▁episode	-11.3451
▁Nobel	-11.3451
▁revolt	-11.3451
▁prize	-11.3453
▁plural	-11.3453
Taste	-11.3454
▁capability	-11.3455
▁conception	-11.3463
▁wax	-11.3466
izz	-11.3473
▁Appointment	-11.348
▁adorned	-11.348
▁calculation	-11.348
▁disregard	-11.348
▁rebellious	-11.348
▁Govind	-11.348
▁simultaneously	-11.3487
▁riot	-11.3488
▁creator	-11.3502
▁Surya	-11.3506
▁obedience	-11.3508
▁junk	-11.3511
▁inspect	-11.3511
▁Radi	-11.3512
▁1994	-11.3514
▁phenomenon	-11.3537
▁seizure	-11.3537
▁template	-11.3537
▁chronic	-11.3537
▁Leader	-11.3537
▁carrier	-11.3537
▁Legal	-11.354
▁Highlight	-11.3544
▁Jerusalem	-11.3566
▁bounties	-11.3566
▁kidney	-11.3566
▁buffer	-11.3566
▁bottle	-11.3568
▁Memory	-11.3569
▁cruel	-11.3576
▁fled	-11.359
▁wretched	-11.3594
▁prevalent	-11.3594
▁yard	-11.3601
▁Petroleum	-11.3623
▁possibilities	-11.3623
▁revised	-11.3623
▁Cross	-11.3624
▁indirectly	-11.3624
▁liberation	-11.3624
▁Alif	-11.3624
▁trait	-11.3626
▁traveller	-11.3628
▁Collection	-11.363
▁Sankara	-11.3631
esvara	-11.3647
▁criteria	-11.3652
▁Empty	-11.3652
▁contempt	-11.3652
▁seminar	-11.3653
▁brick	-11.3658
▁Case	-11.3661
▁clock	-11.3665
▁conform	-11.3667
▁coverage	-11.3671
▁Revenue	-11.3681
▁underneath	-11.3681
▁reputation	-11.3681
▁inflict	-11.3681
▁Glory	-11.3681
▁guru	-11.3683
▁transmit	-11.3684
▁dense	-11.3688
▁announce	-11.369
▁Oriya	-11.3696
▁highway	-11.3701
▁diploma	-11.3708
▁XML	-11.3711
▁Package	-11.3711
▁abiding	-11.3711
▁indicator	-11.3712
▁scientist	-11.3718
remember	-11.3723
akshi	-11.3726
▁exposure	-11.374
▁random	-11.374
▁lofty	-11.374
▁Judicia	-11.3741
▁sanitation	-11.3741
▁Body	-11.3748
▁exemption	-11.375
▁lightning	-11.3762
▁disobedient	-11.3769
▁Student	-11.3769
▁ought	-11.3769
▁mailbox	-11.3772
ordinate	-11.3772
▁1972	-11.3774
▁Attach	-11.3786
▁Menon	-11.3791
▁Hanuman	-11.3799
▁Palestine	-11.3799
▁intensive	-11.3799
▁warrior	-11.3799
▁guy	-11.3799
▁jihad	-11.38
▁compact	-11.3806
▁combine	-11.382
▁slide	-11.382
▁liabilities	-11.3828
▁renewable	-11.3828
▁striking	-11.3828
▁collapse	-11.3828
▁Output	-11.3831
▁Production	-11.3837
▁classified	-11.3838
▁filing	-11.384
▁Tender	-11.3842
у	-11.3858
▁uncertain	-11.3858
▁interrupt	-11.3858
▁allocate	-11.3863
▁lump	-11.3866
▁Secondary	-11.3866
▁grid	-11.3882
▁Radha	-11.3882
▁Katha	-11.3883
▁comprehend	-11.3887
▁calamity	-11.3887
▁Shaitan	-11.3887
▁Medium	-11.3888
▁Require	-11.3888
▁Hind	-11.3889
▁greed	-11.389
▁motive	-11.3892
▁Kalam	-11.3896
▁Mauritius	-11.3917
▁brethren	-11.3917
▁convenient	-11.3917
▁vegetation	-11.3917
▁1951	-11.3917
▁charitable	-11.3917
▁fourteen	-11.3917
▁Condition	-11.3917
▁dominant	-11.3917
▁voting	-11.3917
▁adventure	-11.392
▁civilisation	-11.3922
▁1985	-11.3922
▁Notice	-11.3924
▁factories	-11.3925
▁compose	-11.3929
▁Ahmed	-11.3947
▁Partnership	-11.3947
▁Territory	-11.3947
▁constituent	-11.3947
▁occupy	-11.3947
▁supramental	-11.3947
▁volunteer	-11.3947
▁1946	-11.3947
▁computation	-11.3947
▁Receive	-11.3947
▁Blue	-11.3947
▁ascetic	-11.3948
▁goodwill	-11.3954
▁Terrorism	-11.3977
▁Church	-11.3977
▁Tilak	-11.3977
▁gush	-11.3977
▁Automatically	-11.3979
▁Shiv	-11.398
▁Farmers	-11.3983
▁Attachment	-11.399
▁rupee	-11.3993
▁disability	-11.3995
▁Nagaland	-11.4007
▁alphabet	-11.4007
▁buffalo	-11.4007
▁coffee	-11.4007
▁gesture	-11.4007
▁Valid	-11.4007
▁intercourse	-11.4008
▁repayment	-11.4013
▁township	-11.4013
▁armies	-11.4015
▁stern	-11.4017
born	-11.4022
▁Trash	-11.4022
▁Dutt	-11.4027
▁Continue	-11.4037
▁Publish	-11.4037
▁Recovery	-11.4037
▁Deccan	-11.4038
▁Extract	-11.4039
▁arrange	-11.4041
Will	-11.4068
▁meaningful	-11.4069
▁purified	-11.4072
Amendment	-11.4081
▁245	-11.4086
▁Constituent	-11.4098
▁Resolution	-11.4098
▁confused	-11.4098
▁nominated	-11.4098
▁retail	-11.4098
▁invention	-11.4098
▁Copyright	-11.41
▁shortcut	-11.4101
▁kids	-11.4104
ARY	-11.4105
ndranath	-11.4116
▁horizon	-11.4126
▁Jharkhand	-11.4128
▁doctrine	-11.4128
▁frequency	-11.4128
▁intercession	-11.4128
▁intercessor	-11.4128
▁undoubtedly	-11.4128
▁eighteen	-11.4128
▁wrongdoing	-11.4128
▁Mountain	-11.4128
▁singer	-11.4149
▁redress	-11.4158
▁Standing	-11.4159
▁spoil	-11.4159
▁inflation	-11.4159
▁alleged	-11.4159
▁gratitude	-11.416
▁loving	-11.4171
▁inmates	-11.4172
▁repository	-11.4189
▁similitude	-11.4189
▁vibrant	-11.4189
▁Hamachi	-11.4189
▁accompany	-11.4189
▁consequent	-11.4189
▁Skill	-11.4189
▁Staff	-11.4189
▁casual	-11.4189
▁formulated	-11.4194
▁approve	-11.4213
ु	-11.422
▁Penalty	-11.422
▁debenture	-11.422
▁medicinal	-11.422
▁orthodox	-11.422
▁worldwide	-11.422
▁Website	-11.422
▁trigger	-11.422
▁distort	-11.4222
proofs	-11.4222
October	-11.4234
reliant	-11.4247
▁INAUGURAT	-11.425
▁Vaishnava	-11.425
▁assumption	-11.425
▁Indonesia	-11.425
▁beloved	-11.4251
▁concert	-11.4251
▁grammar	-11.4252
▁Permission	-11.4252
▁tendency	-11.4252
▁Script	-11.4255
▁tired	-11.4261
द	-11.4281
▁equitable	-11.4281
▁humiliating	-11.4281
▁1952	-11.4281
▁persuade	-11.4281
▁unusual	-11.4281
▁imperative	-11.4281
▁inquiry	-11.4282
▁departure	-11.4284
▁guiding	-11.4285
HOST	-11.4287
▁Guide	-11.4288
▁Chalukya	-11.4312
▁Magistrate	-11.4312
▁psychological	-11.4312
▁Adjust	-11.4312
▁wherefore	-11.4312
▁sensation	-11.4313
▁considerably	-11.4318
▁Bond	-11.4326
▁exempt	-11.4337
▁inhabit	-11.4343
▁accelerate	-11.4343
▁surgical	-11.4343
▁1973	-11.4343
▁Universe	-11.4343
▁Manilal	-11.4344
▁ranging	-11.4346
▁Tree	-11.4347
▁biological	-11.4347
▁originated	-11.4355
▁musician	-11.4355
°	-11.4374
▁Portuguese	-11.4374
▁evaluate	-11.4374
▁fountain	-11.4374
▁kitchen	-11.4374
▁Circular	-11.4374
▁ministry	-11.4374
▁enmity	-11.4375
▁Creating	-11.4375
▁spark	-11.4375
▁forehead	-11.4375
▁inherent	-11.4375
▁characterized	-11.4385
▁DNA	-11.4388
▁incur	-11.4405
▁Chancellor	-11.4406
▁Democratic	-11.4406
▁Traditional	-11.4406
▁preservation	-11.4406
▁surplus	-11.4406
▁emperor	-11.4406
▁reactor	-11.4406
▁Style	-11.4406
▁Latin	-11.4407
▁Hearer	-11.4408
▁beetle	-11.441
▁diff	-11.4426
▁jute	-11.4426
▁Specify	-11.4437
▁beneficiaries	-11.4437
▁1984	-11.4437
▁driving	-11.4437
▁inclusion	-11.4437
▁frontier	-11.4443
▁Factor	-11.4444
▁quest	-11.4445
▁wool	-11.4445
▁marine	-11.4446
Pharaoh	-11.4452
▁Sync	-11.4453
▁Earlier	-11.4469
▁cabinet	-11.4469
▁diabetes	-11.4469
▁Climate	-11.4469
▁martyr	-11.4469
urban	-11.4471
▁recommendation	-11.4474
▁fulfilment	-11.4481
▁affordable	-11.4482
▁inject	-11.4495
▁translate	-11.4495
ट	-11.45
▁Asutosh	-11.45
▁Chandigarh	-11.45
▁Political	-11.45
▁participating	-11.45
▁revival	-11.45
▁amidst	-11.45
▁parasite	-11.4501
▁resume	-11.4504
▁alert	-11.4507
▁basically	-11.4509
▁authenticate	-11.4518
▁Believe	-11.453
▁Singapore	-11.4532
▁deficiency	-11.4532
▁impressive	-11.4532
▁quantities	-11.4532
▁discretion	-11.4532
▁exhort	-11.4532
▁Signature	-11.4533
▁Various	-11.4535
▁harsh	-11.4557
▁COVID	-11.4563
▁Conservation	-11.4563
▁VISIT	-11.4563
▁nurture	-11.4563
▁GDP	-11.4564
▁portray	-11.4564
▁orientation	-11.4564
▁Weather	-11.4564
patri	-11.4576
▁forsake	-11.4591
▁jewellery	-11.4595
▁Animal	-11.4596
▁reliable	-11.4596
▁Internal	-11.4599
▁Graph	-11.46
▁gender	-11.4608
▁qualified	-11.4627
▁dissolve	-11.4627
▁steady	-11.4627
▁Castes	-11.4627
▁CVS	-11.4627
▁priv	-11.4628
▁abort	-11.4629
▁FDI	-11.4629
▁boundaries	-11.4633
▁earnest	-11.4635
▁Socialist	-11.4638
▁Hamas	-11.4639
December	-11.4643
▁Chemical	-11.4659
▁philosopher	-11.4659
▁statistics	-11.4659
▁steal	-11.4662
▁hostile	-11.467
▁Success	-11.4691
▁Territories	-11.4691
▁handicraft	-11.4691
▁spectrum	-11.4691
▁globe	-11.4691
▁Freedom	-11.4692
▁Lolita	-11.4692
▁Volume	-11.4692
▁advert	-11.4692
▁intestine	-11.4692
▁strait	-11.4692
▁manipulat	-11.4695
▁steep	-11.4704
▁neuro	-11.4706
▁Commercial	-11.4724
▁Cricket	-11.4724
▁Scientific	-11.4724
▁Summary	-11.4724
▁Wildlife	-11.4724
▁custody	-11.4724
▁1963	-11.4724
▁WITH	-11.4724
▁removing	-11.4724
▁homage	-11.4724
▁'{0}'	-11.4724
▁relax	-11.4724
▁Watch	-11.4724
▁tackle	-11.4724
▁worn	-11.4725
▁recommend	-11.4729
▁wipe	-11.4733
▁leap	-11.4737
uddin	-11.4741
▁YouTube	-11.4756
▁dignitaries	-11.4756
▁foolish	-11.4756
▁frustrate	-11.4756
▁sixteen	-11.4756
▁cavity	-11.4756
▁Almast	-11.4756
▁zeal	-11.4756
▁owing	-11.4757
▁captive	-11.4759
▁Kisan	-11.4759
▁describing	-11.476
▁thunder	-11.476
agan	-11.4763
▁Charter	-11.4767
national	-11.4772
▁Room	-11.4773
▁Gehenna	-11.4789
▁Physical	-11.4789
▁pilot	-11.4789
▁agitation	-11.4789
▁cinema	-11.4789
▁journalist	-11.4789
▁steam	-11.4789
▁monkey	-11.4789
▁Sunday	-11.4793
▁chairman	-11.4794
▁niche	-11.4794
supported	-11.4805
▁limb	-11.4816
▁Model	-11.4817
▁germ	-11.4817
▁Contribution	-11.4821
▁Inspector	-11.4821
▁Kittur	-11.4821
▁1962	-11.4821
▁hatch	-11.4822
▁psycho	-11.4822
▁Commonwealth	-11.4854
▁denominator	-11.4854
▁magnificent	-11.4854
▁"{0}"	-11.4854
▁twist	-11.4854
▁cherish	-11.4854
▁disperse	-11.4854
▁arbitration	-11.4857
believers	-11.486
what	-11.4863
▁fancy	-11.4864
▁Relations	-11.4886
▁embryo	-11.4887
▁Distribution	-11.4887
▁hollow	-11.4887
▁supplies	-11.4887
▁FROM	-11.4887
▁Heritage	-11.4887
▁confess	-11.489
▁underlying	-11.4897
▁Database	-11.4919
▁medieval	-11.4919
▁nutrient	-11.4919
▁Memorial	-11.492
▁HIV	-11.492
▁annum	-11.4921
▁Coast	-11.4921
▁combat	-11.4922
▁organise	-11.493
▁tranquil	-11.4952
▁Empathy	-11.4952
▁disadvantage	-11.4952
▁literally	-11.4952
▁Witness	-11.4953
▁particles	-11.4953
▁spray	-11.4953
▁MAPI	-11.4953
▁Prayer	-11.4953
▁Italy	-11.4964
▁scatter	-11.4967
▁Franc	-11.4968
Abraham	-11.4969
▁inflammation	-11.4986
▁obstacle	-11.4986
▁worried	-11.4986
▁foremost	-11.4986
▁alternate	-11.4986
▁classification	-11.4996
▁chastise	-11.5013
▁Introduction	-11.5019
▁adornment	-11.5019
▁dictionary	-11.5019
▁expensive	-11.5019
▁instinct	-11.5019
▁tobacco	-11.5019
▁ideology	-11.5019
▁Rajendra	-11.5021
▁macro	-11.5026
▁terminate	-11.5026
▁Country	-11.5027
▁advent	-11.5049
▁strategies	-11.5052
▁succour	-11.5052
▁envelop	-11.5052
47	-11.5069
Verily	-11.5069
▁nursing	-11.5086
▁stroke	-11.5086
▁Translation	-11.5087
▁contest	-11.5093
▁Collect	-11.5112
prehension	-11.5119
▁Registrar	-11.5119
▁Yamuna	-11.5119
▁advertisement	-11.5119
▁assault	-11.5119
▁glacier	-11.5119
▁legitimate	-11.5119
▁rehabilitation	-11.5119
▁subsidiary	-11.5119
▁federal	-11.5119
▁Thomas	-11.5119
▁Chakra	-11.5119
▁Unbelievers	-11.5121
▁resurrection	-11.5125
▁Geo	-11.5129
▁conjecture	-11.5153
▁controversy	-11.5153
▁militant	-11.5153
▁wildlife	-11.5153
▁Module	-11.5153
▁violation	-11.5153
▁nourish	-11.5153
Appeals	-11.5154
▁vagina	-11.5155
▁diplomatic	-11.5156
▁1975	-11.5159
duced	-11.5186
▁phenomena	-11.5187
▁undivided	-11.5187
м	-11.5187
▁motivate	-11.5188
▁coordination	-11.5189
▁Martin	-11.519
▁replica	-11.5191
▁impulse	-11.5221
▁yoga	-11.5221
▁Little	-11.5223
▁dancing	-11.5225
▁Afghan	-11.5254
▁Increase	-11.5255
▁Myanmar	-11.5255
▁decisive	-11.5255
▁popup	-11.5258
▁Encryption	-11.5259
▁Everyone	-11.5263
▁expelled	-11.5289
▁Phase	-11.5291
▁ongoing	-11.5293
▁Michael	-11.5323
▁laboratories	-11.5323
▁precaution	-11.5323
▁NIOS	-11.5323
▁ordinance	-11.5323
▁dairy	-11.5323
▁Ghosh	-11.5323
▁heavily	-11.5323
▁Sports	-11.5325
▁1857	-11.5326
▁invade	-11.5354
▁Refresh	-11.5357
▁utilization	-11.5357
▁Bhopal	-11.5358
▁animation	-11.5358
▁gateway	-11.5361
ü	-11.5392
▁capacities	-11.5392
▁equipped	-11.5392
▁humiliate	-11.5392
▁structural	-11.5392
▁vulnerable	-11.5392
▁excavation	-11.5392
▁RTI	-11.5392
▁bunch	-11.5392
▁meditation	-11.5392
▁isolated	-11.5392
▁Gaza	-11.5401
▁correspond	-11.5409
▁Atlantic	-11.5426
▁laboratory	-11.5426
▁portrait	-11.5426
▁propose	-11.5426
▁uplift	-11.5426
▁Restore	-11.5426
therapy	-11.5427
▁constructive	-11.5432
▁stiff	-11.5434
$	-11.5445
▁sanctum	-11.5461
▁Result	-11.5461
▁potato	-11.5461
▁deceit	-11.5461
▁Telephone	-11.5461
▁bellies	-11.5462
▁sweat	-11.5464
▁Convocation	-11.5496
з	-11.5496
▁Belarus	-11.5496
▁bureau	-11.5496
▁synchroni	-11.5496
▁Nuh	-11.5496
▁gallery	-11.5497
▁grey	-11.5499
▁Premchand	-11.5515
▁suppose	-11.5528
▁Everlasting	-11.5531
▁Saraswati	-11.5531
▁robust	-11.5531
▁jungle	-11.5531
▁livestock	-11.5531
▁everlasting	-11.5531
▁Southern	-11.5531
▁landscape	-11.5534
▁username	-11.5535
▁floral	-11.5537
class	-11.554
elecommunication	-11.555
ग	-11.5566
▁desirable	-11.5566
▁tragedy	-11.5566
▁Ahmad	-11.5566
▁church	-11.5566
▁Assamese	-11.5568
▁1955	-11.5572
ordination	-11.5594
▁Dictionary	-11.5601
▁notwithstanding	-11.5601
▁widespread	-11.5601
▁compelled	-11.5601
▁density	-11.5601
▁array	-11.5601
▁Equal	-11.5602
▁Wealth	-11.5605
▁architect	-11.5634
▁furniture	-11.5637
▁historian	-11.5637
Tax	-11.5656
▁jewel	-11.5661
▁vanish	-11.5672
▁Vajpayee	-11.5672
▁predecessor	-11.5672
▁reconstruction	-11.5672
▁Club	-11.5672
▁emergence	-11.5674
▁correspondence	-11.5674
▁compare	-11.5707
▁Settlement	-11.5708
▁Unfortunately	-11.5708
▁dioxide	-11.5708
▁1942	-11.5708
▁Terminal	-11.5708
▁Italian	-11.5708
▁hostility	-11.5709
▁issuing	-11.5711
gupta	-11.5712
▁Mangal	-11.5721
▁Between	-11.5743
▁Sarojini	-11.5743
▁aggression	-11.5743
▁Virtual	-11.5743
▁naked	-11.5744
▁Creation	-11.5744
▁disturbance	-11.5749
stead	-11.5761
▁initiate	-11.5777
▁Pollution	-11.5779
▁advisor	-11.5779
▁Robert	-11.5779
▁binary	-11.5779
▁Guinea	-11.5779
▁annoy	-11.578
▁suicide	-11.578
▁Jinnah	-11.5815
▁Withdrawal	-11.5815
▁circulation	-11.5815
▁irrespective	-11.5815
▁kilogram	-11.5815
▁unbelief	-11.5815
▁dreadful	-11.5815
▁supervision	-11.5816
▁communist	-11.5828
National	-11.5835
craft	-11.5838
▁identical	-11.5851
▁survival	-11.5851
▁vocal	-11.5851
▁Poresh	-11.5851
▁ethnic	-11.5851
▁Disease	-11.5853
▁verbal	-11.5855
swami	-11.5866
▁toilet	-11.5871
polytheists	-11.5871
▁grip	-11.5882
▁electro	-11.5886
▁hungry	-11.5887
п	-11.5887
▁1981	-11.5887
▁expired	-11.5888
▁Think	-11.5888
ANCE	-11.5888
▁Symbol	-11.5888
▁giant	-11.5888
▁optimis	-11.5889
chrom	-11.5899
▁Amritsar	-11.5924
▁Brahmo	-11.5924
▁basket	-11.5924
▁unfair	-11.5924
▁postpone	-11.5924
uzz	-11.5944
▁consecutive	-11.596
▁relevance	-11.596
▁Claim	-11.596
▁ambition	-11.5961
▁alliance	-11.5962
▁schema	-11.5965
▁hypo	-11.5965
conduct	-11.5981
▁Welcome	-11.5997
▁tribunal	-11.5997
▁Method	-11.5997
▁roast	-11.5998
▁Mongol	-11.5998
burg	-11.6019
▁Absolute	-11.6034
▁disbelieving	-11.6034
▁sanctuary	-11.6034
▁surprising	-11.6034
▁Prompt	-11.6034
▁unwilling	-11.6034
▁cosmic	-11.6034
▁corona	-11.6044
sufficient	-11.6054
free	-11.6058
▁Promot	-11.6068
▁SPEECH	-11.607
▁facilitating	-11.6071
▁misdeeds	-11.6071
▁renounce	-11.6071
▁measuring	-11.6071
▁bargain	-11.6071
▁Target	-11.6071
▁electoral	-11.6071
▁PDF	-11.6071
▁slander	-11.6072
▁Qatar	-11.6075
burn	-11.6086
▁TOMORROW	-11.6108
▁conspiracy	-11.6108
▁Communist	-11.6108
▁Imperial	-11.6108
▁accrue	-11.6108
▁premier	-11.6108
▁remedy	-11.6108
▁Meghalaya	-11.6145
▁Python	-11.6145
▁babies	-11.6145
▁Plain	-11.6145
▁Keyboard	-11.6145
September	-11.6166
Surely	-11.6166
▁evolve	-11.6182
ज	-11.6182
▁Antarctic	-11.6182
▁adversity	-11.6182
▁grassroots	-11.6182
▁pursuance	-11.6182
▁unprecedented	-11.6182
▁victorious	-11.6182
▁crooked	-11.6182
▁Bhakti	-11.6182
COUNT	-11.6182
▁Ravana	-11.6182
▁ecosystem	-11.6182
▁Resident	-11.6182
▁Spain	-11.6182
▁indicating	-11.6183
▁amalgamation	-11.622
▁disabilities	-11.622
▁duplicate	-11.622
▁satisfactory	-11.622
▁Transaction	-11.622
▁Excise	-11.622
▁Nanalal	-11.622
▁fierce	-11.622
▁generic	-11.622
▁Demand	-11.622
▁analyse	-11.622
▁rites	-11.6221
▁Simple	-11.6222
▁humour	-11.6223
▁molecule	-11.6257
▁resemble	-11.6257
▁elevate	-11.6257
▁amazing	-11.6257
▁ethical	-11.6258
▁slew	-11.6258
‘	-11.6278
▁repay	-11.6287
ö	-11.6295
▁Century	-11.6295
▁Democracy	-11.6295
▁Meanwhile	-11.6295
▁acquiring	-11.6295
▁refresh	-11.6295
▁battery	-11.6295
▁neighbourhood	-11.6296
▁Chamber	-11.63
▁plunge	-11.63
▁Gandharva	-11.6333
▁Sufficient	-11.6333
▁convenience	-11.6333
▁flexible	-11.6333
▁prestige	-11.6333
▁deniers	-11.6333
▁pagans	-11.6333
▁Vallabh	-11.6333
▁swelling	-11.6333
▁exponent	-11.6334
▁storing	-11.6335
▁Shastri	-11.6337
ville	-11.6345
▁vegetable	-11.6352
Alone	-11.6356
brahma	-11.6365
▁Encrypt	-11.6366
▁dissolution	-11.6371
▁predominant	-11.6371
▁couches	-11.6371
▁Picture	-11.6371
▁fiscal	-11.6371
▁carpet	-11.6371
▁dictate	-11.6371
▁altitude	-11.6373
▁Kalyan	-11.6373
ectomy	-11.6373
▁interference	-11.6373
▁Angel	-11.6382
before	-11.6393
Satan	-11.6393
scape	-11.6408
▁irregular	-11.6409
▁repaid	-11.6409
▁Scientist	-11.6409
▁reiterate	-11.6409
▁Palace	-11.6411
▁destined	-11.6447
▁hybrid	-11.6447
▁pharmaceutical	-11.6447
▁maternal	-11.6447
▁reproduce	-11.6447
▁illusion	-11.6447
▁shining	-11.6448
▁disrupt	-11.6449
ENCE	-11.6455
▁Jubilee	-11.6486
▁MINISTER	-11.6486
▁aggressive	-11.6486
▁godfearing	-11.6486
▁BIHAR	-11.6486
▁snatch	-11.6486
▁hymn	-11.6486
▁Study	-11.6486
▁Multiple	-11.6487
▁Verses	-11.6488
▁convocation	-11.6524
▁exploration	-11.6524
▁vigorous	-11.6524
▁Different	-11.6524
▁Prakrit	-11.6524
▁freight	-11.6524
▁Nizam	-11.6525
▁Brazil	-11.6563
▁lymph	-11.6563
▁Pallava	-11.6563
▁smoking	-11.6563
▁abolish	-11.6563
▁asleep	-11.6563
▁Advance	-11.6564
PATI	-11.6568
▁Anniversary	-11.6602
▁bracket	-11.6602
▁petroleum	-11.6602
▁Richard	-11.6602
▁Friday	-11.6602
▁carriage	-11.6602
▁depression	-11.6602
▁dialect	-11.6602
▁Finland	-11.6602
▁Hydro	-11.6602
▁allotment	-11.6602
▁pretend	-11.6604
▁infected	-11.6604
▁repel	-11.6611
▁Ayodhya	-11.6641
▁credentials	-11.6641
▁curriculum	-11.6641
▁nematode	-11.6641
▁pleasing	-11.6641
▁sorcery	-11.6641
▁conquest	-11.6641
▁Federal	-11.6641
▁Iblis	-11.6641
▁Dominion	-11.6641
▁paradise	-11.6641
▁rubber	-11.6642
▁illustrious	-11.668
▁incorrect	-11.668
▁magnitude	-11.668
▁reinforce	-11.668
▁remuneration	-11.668
▁termination	-11.6681
▁spices	-11.6681
▁innovators	-11.672
▁alignment	-11.672
▁caravan	-11.672
▁tarried	-11.672
▁Raghu	-11.672
▁drunk	-11.672
▁Reforms	-11.6721
▁liberate	-11.6721
▁apex	-11.6722
▁selves	-11.6722
▁GREETINGS	-11.6759
▁Intelligence	-11.6759
▁multiplication	-11.6759
▁unconscious	-11.6759
▁valuation	-11.6759
▁Priority	-11.6759
▁imperfect	-11.6759
▁rabbit	-11.6759
▁Employees	-11.6759
▁disdain	-11.6759
ELECTED	-11.6799
▁luminous	-11.6799
▁mathematics	-11.6799
ब	-11.6799
▁Permanent	-11.6799
▁devout	-11.6799
▁Daniel	-11.6799
▁investigate	-11.6799
▁Siddha	-11.68
process	-11.6822
Enter	-11.6823
श	-11.6839
▁Consolidat	-11.6839
▁embedded	-11.6839
▁intuitive	-11.6839
▁utilisation	-11.6839
▁Taurat	-11.6839
▁overtook	-11.6839
▁multitude	-11.684
▁multilateral	-11.684
▁exult	-11.684
▁flank	-11.6841
▁orange	-11.6846
course	-11.6865
▁Expenditure	-11.6879
▁Wisdom	-11.6879
▁contributing	-11.6879
▁humiliation	-11.6879
ы	-11.6879
▁impetus	-11.6879
▁Wherefore	-11.6879
▁extinct	-11.6879
▁cadre	-11.6879
▁exclusion	-11.688
▁Ratna	-11.6882
▁anchor	-11.6883
▁sovereign	-11.6916
▁divinity	-11.6919
▁remittance	-11.6919
▁immunity	-11.6919
▁sorcerer	-11.6919
▁Salih	-11.6919
▁compiled	-11.6919
▁arose	-11.6924
▁culminat	-11.6924
folk	-11.6951
▁renowned	-11.6959
▁lifestyle	-11.6959
▁maritime	-11.6959
▁rehears	-11.6959
▁devoid	-11.6959
▁artisans	-11.6959
▁compiler	-11.6959
▁Smart	-11.696
▁chaste	-11.6965
▁Sovereign	-11.7
▁indecency	-11.7
▁ingredient	-11.7
▁pursuing	-11.7
▁(7)	-11.7001
▁arouse	-11.7018
▁analog	-11.7036
▁Criminal	-11.704
▁aforetime	-11.704
▁spontaneous	-11.704
▁supplier	-11.704
▁transplant	-11.704
▁warfare	-11.704
▁buried	-11.7041
▁augment	-11.7041
▁inviting	-11.7042
▁discern	-11.7042
ogram	-11.7055
अ	-11.7081
▁Elephant	-11.7081
▁Receipt	-11.7081
▁Cisco	-11.7081
▁Purusha	-11.7081
▁dinner	-11.7081
▁Maratha	-11.7081
▁Minutes	-11.7081
▁Sinha	-11.7083
▁Universal	-11.7122
▁challenging	-11.7122
▁creativity	-11.7122
▁ordinarily	-11.7122
▁trumpet	-11.7122
▁Fellow	-11.7122
▁album	-11.7122
▁qualify	-11.7122
–	-11.7147
▁magistrate	-11.7163
▁sketch	-11.7163
▁BJP	-11.7163
▁Nawab	-11.7163
▁solving	-11.7164
▁Split	-11.7164
▁solicit	-11.7164
OVER	-11.7167
▁lodge	-11.717
▁Provincial	-11.7205
▁Satyagraha	-11.7205
▁embarrass	-11.7205
▁suspicion	-11.7205
▁threshold	-11.7205
▁Prakash	-11.7205
▁forbear	-11.7206
▁fauna	-11.7207
worm	-11.723
▁Initiative	-11.7246
▁fodder	-11.7246
▁AIDS	-11.7246
▁miserable	-11.7246
▁Speed	-11.7248
whether	-11.7271
condition	-11.7271
▁Messiah	-11.7288
▁Zalimun	-11.7288
▁ambitious	-11.7288
▁poultry	-11.7288
▁Release	-11.7288
▁Scroll	-11.7288
▁knock	-11.7288
▁Example	-11.7288
▁Layout	-11.7288
▁Ignore	-11.7288
▁prolonged	-11.7288
General	-11.7313
▁Olympic	-11.733
▁Nagpur	-11.733
▁Mathura	-11.733
▁Expert	-11.733
▁Desai	-11.7331
हँस	-11.7372
▁incumbent	-11.7372
▁refrain	-11.7372
▁overlook	-11.7372
▁dividing	-11.7372
▁sunrise	-11.7372
▁Bhagavat	-11.7372
▁distribute	-11.7376
▁seduce	-11.7401
▁flora	-11.7406
▁Guwahati	-11.7414
▁Presidency	-11.7414
▁Sanctuary	-11.7414
▁VAJPAYEE	-11.7414
▁merchandise	-11.7414
▁elevation	-11.7414
▁Diwali	-11.7414
▁banquet	-11.7414
▁tragic	-11.7414
▁Rotate	-11.7416
ocyte	-11.7456
▁arrogance	-11.7456
▁dissemination	-11.7456
▁tyrant	-11.7456
▁Improve	-11.7456
▁instalment	-11.7456
▁miniature	-11.7457
▁Neuro	-11.7464
▁Anglo	-11.7465
August	-11.7482
▁AWARDS	-11.7499
▁Championship	-11.7499
▁Practice	-11.7499
▁Safety	-11.7499
▁congratulations	-11.7499
▁glimpse	-11.7499
▁horticulture	-11.7499
▁Regular	-11.7499
▁assimilat	-11.7499
▁Blood	-11.7499
▁Supply	-11.7499
▁Hotel	-11.7499
▁Ramalinga	-11.7499
▁saith	-11.7499
▁SPEECHES	-11.75
▁Merge	-11.7512
▁conservative	-11.7541
▁physician	-11.7541
▁propaganda	-11.7541
▁psychic	-11.7541
▁tunnel	-11.7541
▁revenge	-11.7542
▁holistic	-11.7542
▁Hebrew	-11.7542
▁insolent	-11.7542
▁CPU	-11.7542
▁dominated	-11.7542
▁Coordinat	-11.755
£	-11.7584
▁Include	-11.7584
▁Kolhatkar	-11.7584
▁prostration	-11.7584
▁stimulate	-11.7584
Gabriel	-11.7584
▁Guidance	-11.7584
▁completing	-11.7584
▁Above	-11.7585
▁counterpart	-11.7585
keeper	-11.7592
▁promis	-11.7614
▁Devanagari	-11.7627
▁Ishmael	-11.7627
▁excitement	-11.7627
▁jealous	-11.7628
▁Complex	-11.7628
▁Saheb	-11.7628
▁NHS	-11.7628
▁Heavy	-11.7628
▁Kenya	-11.7632
defined	-11.7654
ड	-11.7671
▁GroupWise	-11.7671
▁portfolio	-11.7671
▁fatigue	-11.7671
▁puzzle	-11.7671
▁progeny	-11.7671
▁uterus	-11.7671
▁Proxy	-11.7671
▁imposing	-11.7671
▁salvation	-11.7671
▁Domain	-11.7671
hearted	-11.7674
▁Origin	-11.7708
▁Societies	-11.7714
▁Vrindavan	-11.7714
▁anticipate	-11.7714
▁automobile	-11.7714
▁disclosure	-11.7714
▁perpetual	-11.7714
▁Spanish	-11.7714
▁consort	-11.7714
▁Dutch	-11.7714
▁Blessed	-11.7715
▁Maurya	-11.7718
ó	-11.7758
▁SIDBI	-11.7758
▁sugarcane	-11.7758
▁tropical	-11.7758
▁SMTP	-11.7758
▁Purchase	-11.7758
▁requiring	-11.7758
▁Layer	-11.776
▁awful	-11.7763
▁faint	-11.7782
▁Guarantee	-11.7802
▁Nevertheless	-11.7802
▁Vidyasagar	-11.7802
▁ceremonial	-11.7802
▁diagram	-11.7802
▁flavour	-11.7802
▁numerator	-11.7802
▁climatic	-11.7802
▁expedition	-11.7802
▁cartoon	-11.7802
▁entities	-11.7802
▁Pratap	-11.7803
▁Conduct	-11.7839
▁Mexico	-11.7846
▁introducing	-11.7846
▁multiplied	-11.7846
▁overwrite	-11.7846
▁sophisticated	-11.7846
▁Vikram	-11.7846
▁intercede	-11.7846
▁fraud	-11.7846
▁scoff	-11.7846
▁Everything	-11.7846
▁Individual	-11.789
▁admiration	-11.789
▁esteem	-11.789
▁harmdoers	-11.789
▁restaurant	-11.789
▁embark	-11.789
▁decoration	-11.789
FILE	-11.7906
▁Saturday	-11.7935
▁thirteen	-11.7935
▁Balarama	-11.7935
▁champion	-11.7935
▁Lecture	-11.7935
▁anguish	-11.7935
▁Aviation	-11.7935
entrepreneurship	-11.7951
{0}	-11.7963
▁RASHTRA	-11.7979
­	-11.7979
▁Bhavabhuti	-11.7979
▁Emergency	-11.7979
▁Performance	-11.7979
▁composite	-11.7979
▁primitive	-11.7979
▁territorial	-11.7979
▁Bottom	-11.7979
▁Maulana	-11.7979
▁Bounty	-11.7979
▁Bridge	-11.7979
▁Mecca	-11.7979
▁Panjab	-11.798
▁enthusiast	-11.8024
▁Advocate	-11.8024
▁Bezbaroa	-11.8024
▁Cyrillic	-11.8024
▁Mohammad	-11.8024
▁grandfather	-11.8024
▁prestigious	-11.8024
▁simplicity	-11.8024
▁velocity	-11.8024
▁Croatia	-11.8024
▁caution	-11.8024
▁rigid	-11.8024
▁Capacity	-11.8069
▁blazing	-11.8069
▁intermediate	-11.8069
▁census	-11.8069
▁Material	-11.8069
▁abstain	-11.8069
▁ecological	-11.8069
▁Specific	-11.8069
▁Strong	-11.8069
▁sweep	-11.8069
▁slogan	-11.8069
▁salute	-11.807
▁violate	-11.8071
▁certification	-11.8114
▁1982	-11.8114
▁harmonious	-11.8114
▁renewed	-11.8114
malgamating	-11.816
▁Meherally	-11.816
▁arithmetic	-11.816
▁certified	-11.816
▁Decision	-11.816
▁Tulsi	-11.816
▁Crown	-11.816
▁inception	-11.816
▁Godwary	-11.816
▁hesitate	-11.8161
▁Certain	-11.8182
▁innumerable	-11.8205
▁fortunate	-11.8205
▁excited	-11.8206
▁PAO	-11.8206
▁thorn	-11.8207
▁Chromium	-11.8251
▁Destination	-11.8251
▁Masjid	-11.8251
▁MyGov	-11.8251
▁Statistics	-11.8251
▁leprosy	-11.8251
▁reproduction	-11.8251
▁diameter	-11.8251
constellation	-11.8251
▁stupa	-11.8252
▁LINK	-11.8297
▁Outlook	-11.8297
▁allegiance	-11.8297
▁Possible	-11.8297
▁replies	-11.8297
▁corpus	-11.8298
▁missile	-11.8298
▁bonus	-11.8298
▁worshippers	-11.8298
▁Taliban	-11.8344
▁celebrating	-11.8344
▁prostrating	-11.8344
▁shield	-11.8344
▁Sweden	-11.8344
▁enclosed	-11.8344
▁VPN	-11.8344
▁Blank	-11.8344
▁regain	-11.8344
▁Alliance	-11.8344
▁Kapil	-11.8347
▁Currency	-11.839
▁admissible	-11.839
▁circulate	-11.839
▁fracture	-11.839
▁provincial	-11.839
▁steadily	-11.839
▁umbrella	-11.839
▁Relief	-11.839
▁incidence	-11.839
▁Mahadevi	-11.839
▁Mehta	-11.839
▁Naidu	-11.839
▁annuity	-11.839
▁exciting	-11.839
▁Fixed	-11.8391
▁invasion	-11.8392
▁expense	-11.8434
▁quantum	-11.8437
▁{2}	-11.8437
▁Maharshi	-11.8437
▁Personnel	-11.8437
▁milestone	-11.8437
▁coincide	-11.8437
▁Variable	-11.8437
▁unveil	-11.8437
▁bosom	-11.8437
Would	-11.8467
writing	-11.8468
▁Jadunath	-11.8484
▁Switzerland	-11.8484
▁deficit	-11.8484
▁deluded	-11.8484
▁Rupee	-11.8484
rashtra	-11.8497
xxx	-11.8507
▁Assembl	-11.8514
scribing	-11.8526
▁drown	-11.8527
▁Consequently	-11.8531
▁amalgamated	-11.8531
▁reservoir	-11.8531
▁Medicine	-11.8531
▁anxiety	-11.8531
▁impatient	-11.8531
▁invisible	-11.8531
▁Ghose	-11.8531
▁Actually	-11.8531
Muslim	-11.8562
▁sculpt	-11.8576
▁UNESCO	-11.8578
▁redemption	-11.8578
▁compulsion	-11.8578
▁vendor	-11.8579
▁propagate	-11.8579
▁alumni	-11.8579
▁handicap	-11.8579
▁straw	-11.8579
▁interfere	-11.858
▁stalk	-11.858
▁Yogi	-11.8581
▁Crop	-11.8588
chemical	-11.861
Woe	-11.861
▁Principle	-11.8626
▁Regulatory	-11.8626
▁Respond	-11.8626
▁conducive	-11.8626
▁inadequate	-11.8626
▁reconciliation	-11.8626
▁rejoicing	-11.8626
▁responsive	-11.8626
▁unhappy	-11.8626
NUMBER	-11.8626
▁ASEAN	-11.8626
▁explicit	-11.8626
▁chicken	-11.8626
▁Thakur	-11.8626
▁Storage	-11.8626
▁intuition	-11.8626
▁drove	-11.8628
piece	-11.8658
▁biotechnology	-11.8674
▁emigrate	-11.8674
▁trekking	-11.8674
▁Vigyan	-11.8674
OCATION	-11.8674
▁penitent	-11.8674
▁compilation	-11.8674
▁persevere	-11.8674
▁gently	-11.8675
▁Element	-11.8675
▁Jodhpur	-11.8722
▁Recruitment	-11.8722
▁Valmiki	-11.8722
▁vertebra	-11.8722
▁bleeding	-11.8722
▁comrade	-11.8722
▁Tatya	-11.8722
▁Trumpet	-11.877
▁hierarchy	-11.877
▁browsing	-11.877
▁lodging	-11.877
▁olive	-11.8771
▁Visual	-11.8771
Jesus	-11.8802
otomy	-11.8815
हंसी	-11.8819
▁Majestic	-11.8819
▁Nuclear	-11.8819
▁Zealand	-11.8819
▁obligatory	-11.8819
▁proclamation	-11.8819
▁Ekiga	-11.8819
▁matrix	-11.8819
▁seventeen	-11.8819
▁polity	-11.8819
▁implied	-11.8819
▁Slide	-11.8828
BEGIN	-11.8868
▁Archaeological	-11.8868
▁BHAVAN	-11.8868
▁Facility	-11.8868
▁flexibility	-11.8868
▁heartfelt	-11.8868
▁courtyard	-11.8868
▁complication	-11.8868
▁generator	-11.8868
▁abdomen	-11.8917
▁authoritative	-11.8917
▁fertile	-11.8917
▁harbour	-11.8917
▁reproach	-11.8917
▁mystery	-11.8917
▁assuming	-11.8917
▁Tourist	-11.8917
▁trail	-11.8917
▁LEA	-11.8965
▁Rammohun	-11.8966
▁SERVICE	-11.8966
▁regulating	-11.8966
▁deception	-11.8966
▁expiration	-11.8966
▁Quarter	-11.8966
▁memorial	-11.8966
▁redeem	-11.8966
▁sniff	-11.8966
▁ladies	-11.8966
▁ICAR	-11.8966
▁gradual	-11.8991
PORT	-11.9
▁Strength	-11.9015
▁Excellence	-11.9015
▁blossom	-11.9015
▁illiterate	-11.9015
▁eldest	-11.9015
▁JavaScript	-11.9015
▁Dispute	-11.9016
*	-11.9051
ä	-11.9065
▁Empowerment	-11.9065
▁Maldives	-11.9065
▁Moscow	-11.9065
▁explosion	-11.9065
▁GTK	-11.9065
▁enquire	-11.9066
▁inhibit	-11.9066
▁demise	-11.9066
excluding	-11.9066
▁archaeological	-11.9115
▁exemplary	-11.9115
▁hygiene	-11.9115
▁peacock	-11.9115
▁requisition	-11.9115
▁plague	-11.9115
▁compressed	-11.9115
▁Gautam	-11.9116
▁Maintenance	-11.9165
▁Nivedita	-11.9165
▁Structure	-11.9165
ै	-11.9267
♫	-11.9736
ı	-12.0006
च	-12.0006
इ	-12.0006
^	-12.0284
@	-12.0324
я	-12.0397
	-12.0512
	-12.0863
ж	-12.1416
फ	-12.1607
ए	-12.1671
ь	-12.1671
×	-12.1802
ू	-12.1934
आ	-12.2621
`	-12.2748
ç	-12.291
б	-12.3132
़	-12.3514
ष	-12.383
ч	-12.3992
ł	-12.424
#	-12.4392
·	-12.4409
à	-12.4494
ñ	-12.4668
й	-12.4844
ğ	-12.5023
उ	-12.5114
ध	-12.5206
ख	-12.5581
г	-12.5581
+	-12.5856
भ	-12.5873
थ	-12.5972
©	-12.6072
ण	-12.6378
è	-12.6587
ī	-12.691
ş	-12.7131
=	-12.734
ś	-12.7357
қ	-12.7825
ш	-12.7825
ई	-12.857
<	-12.8684
ठ	-12.87
₹	-12.87
⁄	-12.8832
ン	-12.8832
ř	-12.9376
ю	-12.966
し	-12.9952
ॉ	-13.0407
«	-13.0883
ū	-13.1047
ć	-13.1047
ъ	-13.1047
।	-13.1047
â	-13.1213
१	-13.1213
♪	-13.1383
»	-13.1555
ě	-13.1909
ṭ	-13.2091
ー	-13.2276
ँ	-13.2465
є	-13.2465
š	-13.2657
ञ	-13.2657
Ö	-13.3053
å	-13.3053
用	-13.3053
¬	-13.3053
ą	-13.3053
を	-13.3258
É	-13.3679
औ	-13.3896
容	-13.3896
ま	-13.4345
ë	-13.4345
い	-13.4346
す	-13.4578
	-13.4816
č	-13.4816
ę	-13.4816
ú	-13.506
μ	-13.506
て	-13.506
ō	-13.5566
に	-13.5567
ү	-13.583
Â	-13.583
ौ	-13.61
छ	-13.6378
ः	-13.6378
イ	-13.6378
ト	-13.6663
の	-13.6663
ê	-13.6957
ṛ	-13.6957
′	-13.6957
た	-13.6958
で	-13.7261
~	-13.7557
щ	-13.7573
ï	-13.7896
が	-13.7896
>	-13.8212
ṣ	-13.8229
ø	-13.8229
ô	-13.8229
ओ	-13.8229
―	-13.8574
ұ	-13.8931
	-13.9301
घ	-13.9686
ң	-13.9686
ク	-13.9686
ス	-13.9686
ラ	-13.9686
ė	-14.0086
ž	-14.0086
ф	-14.0503
ц	-14.0503
२	-14.0503
х	-14.0503
ә	-14.0503
ý	-14.0937
†	-14.0937
झ	-14.1392
る	-14.1392
¤	-14.1868
ż	-14.1868
ŏ	-14.1868
ē	-14.2368
ń	-14.2368
७	-14.2368
„	-14.2894
続	-14.2894
õ	-14.2894
接	-14.2894
|	-14.3433
ă	-14.345
な	-14.345
Ç	-14.4038
か	-14.4038
०	-14.4038
コ	-14.4038
と	-14.4038
ṃ	-14.4663
√	-14.4663
	-14.533
加	-14.533
İ	-14.6044
。	-14.6044
さ	-14.6044
ロ	-14.6044
ル	-14.6044
®	-14.6813
様	-14.6813
Å	-14.6813
リ	-14.6813
く	-14.7647
æ	-14.7647
せ	-14.7647
フ	-14.7647
れ	-14.8556
ò	-14.8556
ё	-14.8556
€	-14.8556
り	-14.8556
プ	-14.8556
ḥ	-14.8556
ウ	-14.9556
±	-14.9556
ţ	-14.9556
レ	-15.0667
ネ	-15.0667
ї	-15.0667
५	-15.0667
८	-15.0667
¿	-15.0667
動	-15.1917
	-15.1917
ऍ	-15.1917
९	-15.1917
∶	-15.1917
だ	-15.1917
作	-15.1917
パ	-15.1917
ő	-15.3345
î	-15.3345
œ	-15.3345
Δ	-15.3345
⋯	-15.3345
エ	-15.3345
力	-15.3345
有	-15.3345
ا	-15.3345
名	-15.3346
付	-15.5012
ऊ	-15.5012
ĭ	-15.5012
४	-15.5012
६	-15.5012
‐	-15.5012
き	-15.5012
つ	-15.5012
は	-15.5012
も	-15.5012
っ	-15.5013
こ	-15.7012
新	-15.7012
グ	-15.7012
切	-15.7012
	-15.7012
	-15.7012
¡	-15.7012
ň	-15.7012
ŭ	-15.7012
३	-15.7012
ḷ	-15.7012
入	-15.7012
擁	-15.7012
要	-15.7012
째	-15.7012
§	-15.7012
認	-15.7012
一	-15.7012
τ	-15.7012
前	-15.7012
、	-15.7012
使	-15.9512
ダ	-15.9512
ढ	-15.9512
Ã	-15.9512
Ê	-15.9512
û	-15.9512
ź	-15.9512
え	-15.9512
ピ	-15.9512
不	-15.9512
他	-15.9512
見	-15.9512
	-15.9512
預	-15.9512
ș	-15.9512
ي	-15.9512
ॅ	-15.9512
当	-15.9512
¥	-16.2845
ə	-16.2845
最	-16.2845
あ	-16.2845
時	-16.2845
	-16.2845
÷	-16.2845
Ō	-16.2845
Ř	-16.2845
ů	-16.2845
Ż	-16.2845
ư	-16.2845
ț	-16.2845
ʿ	-16.2845
Я	-16.2845
ة	-16.2845
॥	-16.2845
ṁ	-16.2845
ờ	-16.2845
∕	-16.2845
➣	-16.2845
み	-16.2845
デ	-16.2845
庸	-16.2845
ß	-16.2845
謡	-16.2845
ð	-16.2845
À	-16.2846
λ	-16.2846
再	-16.2846
可	-16.2846
م	-16.2846
め	-16.7845
	-16.7845
傭	-16.7845
耀	-16.7845
	-16.7845
Ω	-16.7845
η	-16.7845
ت	-16.7845
س	-16.7845
্	-16.7845
─	-16.7845
う	-16.7845
び	-16.7845
へ	-16.7845
ヘ	-16.7845
並	-16.7845
内	-16.7845
悠	-16.7845
替	-16.7845
由	-16.7845
	-16.7845
洋	-16.7845
α	-16.7846
γ	-16.7846
ε	-16.7846
全	-16.7846
手	-16.7846
順	-16.7846
後	-16.7846
集	-17.7702
覧	-17.7703
能	-17.7704
編	-17.7705
病	-17.7706
点	-17.7707
漢	-17.7708
明	-17.7709
存	-17.771
字	-17.7711
出	-17.7712
保	-17.7713
ョ	-17.7714
ポ	-17.7715
ブ	-17.7716
ジ	-17.7717
サ	-17.7718
べ	-17.7719
←	-17.772
ু	-17.7721
স	-17.7722
Ш	-17.7723
ω	-17.7724
σ	-17.7725
ν	-17.7726
Λ	-17.7727
̈	-17.7728
Ł	-17.7729
Í	-17.773
除	-17.7731
開	-17.7732
本	-17.7733
戻	-17.7734
削	-17.7735
利	-17.7736
元	-17.7737
‰	-17.7738
Ө	-17.7739
э	-17.774
θ	-17.7741
̧	-17.7742
Ø	-17.7743
録	-17.7744
登	-17.7745
状	-17.7746
消	-17.7747
敗	-17.7748
抹	-17.7749
承	-17.775
態	-17.7751
失	-17.7752
タ	-17.7753
≥	-17.7754
Ṛ	-17.7755
Ч	-17.7756
φ	-17.7757
Đ	-17.7758
関	-17.7759
連	-17.776
成	-17.7761
け	-17.7762
β	-17.7763
Ú	-17.7764
自	-17.7765
既	-17.7766
ム	-17.7767
ニ	-17.7768
≤	-17.7769
ऋ	-17.777
ل	-17.7771
̨	-17.7772
Ž	-17.7773
Ó	-17.7774
Ð	-17.7775
そ	-17.7776
ḍ	-17.7777
У	-17.7778
́	-17.7779
Ä	-17.778
離	-17.7781
通	-17.7782
設	-17.7783
脱	-17.7784
知	-17.7785
マ	-17.7786
→	-17.7787
π	-17.7788
変	-17.7789
カ	-17.779
Т	-17.7791
Г	-17.7792
Ş	-17.7793
表	-17.7794
示	-17.7795
更	-17.7796
І	-17.7797
定	-17.7798
ん	-17.7799
ऐ	-17.78
参	-17.7801
メ	-17.7802
ら	-17.7803
ṅ	-17.7804
ऑ	-17.7805
Р	-17.7806
ť	-17.7807
Ü	-17.7808
オ	-17.7809
Д	-17.781
Š	-17.7811
☺	-17.7812
Á	-17.7813
Î	-17.7814
バ	-17.7815
−	-17.7816
̊	-17.7817
ド	-17.7818
Қ	-17.7819
Б	-17.782
ृ	-17.7821
И	-17.7822
Ж	-17.7823
Ā	-17.7824
А	-17.7825
ө	-17.7826
З	-17.7827
ア	-17.7828
Θ	-17.7829
ғ	-17.783
М	-17.7831
Ś	-17.7832
ṇ	-17.7833
К	-17.7834
О	-17.7835
Č	-17.7836
Н	-17.7837
С	-17.7838
ワ	-17.7839
В	-17.784
ッ	-17.7841
•	-17.7842
ã	-17.7843
☻	-17.7844
ァ	-17.7845
求	-17.7845
П	-17.7845
モ	-17.7845
分	-17.7845
正	-17.7845
短	-17.7845
Ñ	-17.7845
‍	-17.7845
ォ	-17.7845
境	-17.7845
広	-17.7845
環	-17.7845
ऒ	-17.7845
憂	-17.7845
羊	-17.7845
	-17.7845
	-17.7845
	-17.7845
	-17.7845
Õ	-17.7845
ì	-17.7845
ģ	-17.7845
ļ	-17.7845
ľ	-17.7845
ų	-17.7845
ơ	-17.7845
ǁ	-17.7845
̆	-17.7845
Β	-17.7845
κ	-17.7845
ο	-17.7845
Л	-17.7845
Х	-17.7845
Ы	-17.7845
Ү	-17.7845
֠	-17.7845
إ	-17.7845
ح	-17.7845
د	-17.7845
و	-17.7845
॰	-17.7845
চ	-17.7845
দ	-17.7845
ন	-17.7845
ব	-17.7845
ভ	-17.7845
র	-17.7845
ষ	-17.7845
া	-17.7845
ẻ	-17.7845
ủ	-17.7845
∞	-17.7845
∣	-17.7845
∨	-17.7845
≠	-17.7845
⌈	-17.7845
⌉	-17.7845
⌊	-17.7845
⌋	-17.7845
⌘	-17.7845
ぎ	-17.7845
ち	-17.7845
よ	-17.7845
テ	-17.7845
ベ	-17.7845
上	-17.7845
下	-17.7845
両	-17.7845
了	-17.7845
信	-17.7845
優	-17.7845
先	-17.7845
共	-17.7845
化	-17.7845
匿	-17.7845
否	-17.7845
含	-17.7845
員	-17.7845
報	-17.7845
外	-17.7845
妖	-17.7845
始	-17.7845
対	-17.7845
小	-17.7845
度	-17.7845
待	-17.7845
必	-17.7845
情	-17.7845
所	-17.7845
打	-17.7845
択	-17.7845
拒	-17.7845
揺	-17.7845
数	-17.7845
断	-17.7845
方	-17.7845
未	-17.7845
毎	-17.7845
満	-17.7845
溶	-17.7845
熔	-17.7845
版	-17.7845
直	-17.7845
確	-17.7845
秒	-17.7845
細	-17.7845
終	-17.7845
者	-17.7845
致	-17.7845
般	-17.7845
色	-17.7845
行	-17.7845
複	-17.7845
規	-17.7845
詳	-17.7845
象	-17.7845
起	-17.7845
追	-17.7845
送	-17.7845
̃	-17.7846
曜	-17.7846
Е	-17.7846
同	-17.7846
大	-17.7846
Κ	-17.7846
Μ	-17.7846
ί	-17.7846
ζ	-17.7846
ι	-17.7846
ρ	-17.7846
ό	-17.7846
أ	-17.7846
ر	-17.7846
ك	-17.7846
ィ	-17.7846
置	-17.7846
{	-17.7846
従	-17.7846
越	-17.7846
