<unk>	0
<pad>	0
<s>	0
</s>	0
▁के	-3.58952
▁है	-3.76994
।	-3.91084
,	-3.94598
▁और	-3.98327
▁में	-3.99892
▁की	-4.15404
▁से	-4.36509
▁को	-4.46182
▁का	-4.55196
)	-4.63324
▁(	-4.70471
.	-4.88626
-	-4.94875
▁हैं	-4.95419
▁कि	-4.99032
▁पर	-5.00578
ों	-5.00929
▁लिए	-5.11142
▁एक	-5.11638
ी	-5.20972
▁तो	-5.24981
▁नहीं	-5.27036
▁जो	-5.31143
▁	-5.3165
▁भी	-5.38148
▁हो	-5.43654
▁ने	-5.52804
▁किया	-5.55414
▁कर	-5.56217
▁यह	-5.59749
▁ही	-5.60268
▁इस	-5.68196
▁या	-5.72764
▁न	-5.73321
▁वह	-5.74174
न	-5.75443
▁करने	-5.77682
क	-5.8653
ा	-5.87688
▁अपने	-5.95741
▁था	-5.97633
ता	-6.03236
े	-6.09037
▁वे	-6.10306
▁तुम	-6.10426
▁गया	-6.12776
▁तथा	-6.16649
▁कुछ	-6.17272
र	-6.17857
▁किसी	-6.20734
▁हम	-6.27266
▁साथ	-6.29392
▁कोई	-6.31095
à	-6.31953
ना	-6.32622
म	-6.32779
▁रूप	-6.34176
▁उनके	-6.34591
स	-6.36191
▁थे	-6.36459
ल	-6.36587
▁द्वारा	-6.37713
▁करते	-6.42274
▁लोग	-6.42942
▁जब	-6.43343
▁लोगों	-6.44239
ं	-6.44517
▁दिया	-6.45148
ने	-6.45344
▁भारत	-6.48254
▁जा	-6.49016
▁तक	-6.50201
▁फिर	-6.53402
▁ये	-6.56035
▁जाता	-6.59086
त	-6.59869
▁करें	-6.599
▁उसके	-6.60941
▁क्या	-6.616
▁कहा	-6.62945
▁"	-6.63209
/	-6.63944
▁अल्लाह	-6.64206
▁करना	-6.64468
▁उस	-6.64489
ो	-6.64611
▁ख़ुदा	-6.66316
▁अपनी	-6.66798
?	-6.6952
▁रहे	-6.69601
ित	-6.7077
▁हुए	-6.7248
▁उन	-6.7485
▁आ	-6.75576
▁उन्हें	-6.75595
▁मैं	-6.75612
▁करता	-6.76344
▁होता	-6.78328
▁आप	-6.79647
▁रहा	-6.80554
▁थी	-6.81219
कर	-6.81451
▁सकता	-6.81693
▁उसे	-6.82559
▁दो	-6.83225
;	-6.8571
▁बहुत	-6.87617
▁समय	-6.88292
व	-6.907
▁अ	-6.91944
ट	-6.92621
्	-6.96196
ः	-6.96524
ियों	-6.96842
▁बाद	-6.97685
द	-6.9829
▁तरह	-6.9832
▁अधिक	-6.98495
▁बात	-6.986
ब	-6.9886
▁वाले	-6.98982
▁उन्होंने	-7.00047
▁हुआ	-7.00237
▁पहले	-7.0169
ते	-7.01803
▁व	-7.03463
▁कार्य	-7.04282
▁पास	-7.04288
▁हमने	-7.04399
▁होगा	-7.06509
ें	-7.06549
▁दी	-7.06766
ज	-7.07081
▁उनकी	-7.07584
▁तुम्हारे	-7.07808
▁यदि	-7.07974
प	-7.0826
▁गए	-7.09109
▁दिन	-7.09296
%	-7.09735
ि	-7.09989
▁ओर	-7.10301
▁गई	-7.11462
▁काम	-7.12564
▁सभी	-7.12677
▁ऐसे	-7.13822
▁होने	-7.14158
ग	-7.14507
▁हमारे	-7.14538
▁राष्ट्रपति	-7.14831
▁अन्य	-7.15015
▁इन	-7.17394
▁प्रकार	-7.17428
▁सकते	-7.17432
▁चाहिए	-7.19051
ला	-7.19744
▁प्राप्त	-7.20057
▁इसके	-7.21259
ए	-7.22069
ओं	-7.23229
▁क्षेत्र	-7.23858
▁उसकी	-7.2415
श	-7.24273
▁किए	-7.24597
य	-7.2463
▁कम	-7.24903
▁होती	-7.2536
रा	-7.25727
▁s	-7.26531
ती	-7.2666
¤	-7.26795
▁दे	-7.26978
ह	-7.27003
▁जाने	-7.27616
▁नाम	-7.27846
ई	-7.2832
▁ले	-7.28822
▁सब	-7.30408
▁ऐसा	-7.31075
▁एवं	-7.31124
▁करो	-7.32088
▁अब	-7.32761
▁प्रति	-7.32864
▁सरकार	-7.33207
▁अगर	-7.33376
▁देश	-7.33631
▁भारतीय	-7.33853
ख	-7.36188
▁विकास	-7.36218
▁हर	-7.36579
▁मुझे	-7.36603
▁रसूल	-7.36755
री	-7.36888
:	-7.37167
िक	-7.37176
▁हुई	-7.37379
▁कारण	-7.37554
▁(_	-7.37555
▁स	-7.395
या	-7.39693
ीय	-7.40511
्य	-7.40835
ड	-7.4101
▁राज्य	-7.41497
▁वि	-7.42559
▁उसने	-7.43891
सी	-7.44307
▁लेकिन	-7.44606
▁जाती	-7.4486
!	-7.44947
▁लिया	-7.45104
▁वर्ष	-7.45389
▁दोनों	-7.4608
का	-7.46539
▁व्यक्ति	-7.46619
▁तुम्हें	-7.47136
▁जिस	-7.4724
▁क	-7.47932
▁जीवन	-7.49045
▁1	-7.49574
के	-7.49691
▁ऐसी	-7.49987
ड़	-7.50267
▁होते	-7.51773
▁प्रदान	-7.53524
ण	-7.53766
▁बारे	-7.53822
▁रही	-7.54299
▁à	-7.54336
▁बीच	-7.54584
▁प्र	-7.54954
▁वाला	-7.55954
च	-7.55958
▁जैसे	-7.58443
ज़	-7.58961
।"	-7.5937
▁उसका	-7.60365
ऐ	-7.61331
▁ईमान	-7.61418
▁अपना	-7.6248
▁मे	-7.64604
▁जाएगा	-7.65338
▁रब	-7.65944
▁म	-7.65956
▁केवल	-7.66949
▁उनका	-7.67152
ू	-7.67489
नी	-7.67607
▁हमें	-7.6812
▁मेरे	-7.68179
्स	-7.68315
ु	-7.68755
ली	-7.69003
▁जिसमें	-7.69648
▁भाग	-7.70198
वा	-7.70738
▁हूँ	-7.70747
▁बार	-7.70949
▁उपयोग	-7.71145
▁श्री	-7.72383
▁सं	-7.72839
▁ताकि	-7.73249
▁देने	-7.73361
▁पूर्व	-7.73792
मा	-7.7397
▁बना	-7.73978
'	-7.74004
▁प्रयोग	-7.74347
▁ऐ	-7.74584
▁वाली	-7.7468
▁वही	-7.74932
▁सबसे	-7.75153
▁बड़ा	-7.75854
▁सी	-7.76299
▁पैदा	-7.77267
▁इसे	-7.77366
▁जाना	-7.77471
▁हमारी	-7.77524
▁उसी	-7.77559
से	-7.77684
▁अधिनियम	-7.78357
▁जाए	-7.78585
▁धारा	-7.78636
▁आज	-7.78755
फ	-7.78783
▁बस	-7.79343
▁जाते	-7.7947
▁ए	-7.7955
▁देता	-7.79571
▁इसमें	-7.80131
▁राष्ट्रीय	-7.80262
एं	-7.81013
▁कह	-7.81897
▁तब	-7.82285
िंग	-7.82626
ले	-7.8315
▁जिसे	-7.83534
▁अथवा	-7.83747
▁'	-7.84703
▁संदेश	-7.85122
▁19	-7.85264
सा	-7.85733
▁स्थान	-7.86147
▁जी	-7.86627
▁सूचना	-7.86834
▁उससे	-7.86917
की	-7.87058
▁परवरदिगार	-7.87122
▁क्योंकि	-7.87152
▁उनसे	-7.87393
▁शिक्षा	-7.87859
▁ग	-7.88299
िया	-7.89675
▁सकती	-7.9003
▁ब	-7.90253
▁चीज़	-7.91484
▁स्थिति	-7.91921
▁प	-7.92195
▁करती	-7.92206
अ	-7.92351
▁दूसरे	-7.92676
▁जिन	-7.92862
"	-7.9368
▁इसलिए	-7.93801
ंग	-7.94236
▁सहायता	-7.94546
▁विशेष	-7.94836
जी	-7.95839
▁फ़ाइल	-7.96047
▁बड़ी	-7.9611
▁आय	-7.9672
▁2	-7.97335
▁उनमें	-7.97368
▁हूं	-7.97651
▁विभिन्न	-7.97917
▁होगी	-7.97969
▁होना	-7.97999
▁कभी	-7.98059
▁मेरी	-7.98466
▁शामिल	-7.98623
▁कई	-7.98763
कार	-7.98923
▁विचार	-7.99231
▁त	-7.99511
▁योजना	-7.99865
आ	-8.0001
▁बल्कि	-8.0015
▁दौरान	-8.00603
▁लिये	-8.00865
▁इससे	-8.00968
▁कहते	-8.01188
y	-8.01433
▁सेवा	-8.01596
▁करके	-8.0184
▁आगे	-8.01929
▁यहाँ	-8.02268
▁अधीन	-8.02475
▁अनुसार	-8.03131
▁पता	-8.0355
▁जहां	-8.03575
▁संबंध	-8.03579
m	-8.04316
▁उपलब्ध	-8.04627
s	-8.04709
▁होंगे	-8.04819
ओ	-8.05301
▁विश्व	-8.05302
एँ	-8.05406
पी	-8.0546
▁तरफ	-8.05667
▁उनको	-8.05669
▁द	-8.06311
▁पा	-8.06335
▁आधार	-8.06639
▁बन	-8.06698
▁विषय	-8.07075
▁सामने	-8.07548
▁घर	-8.07618
और	-8.08399
▁इसका	-8.08436
▁जिसके	-8.08504
e	-8.08718
▁सु	-8.09036
▁लगा	-8.09126
▁पूरा	-8.09297
▁कु	-8.09598
▁अलग	-8.09742
रे	-8.10213
▁देते	-8.10247
▁मु	-8.1041
▁करेगा	-8.1048
▁तैयार	-8.10637
▁सूची	-8.108
▁उसमें	-8.10935
▁संबंधित	-8.11278
▁संख्या	-8.11326
▁याद	-8.11519
▁बाहर	-8.11585
▁यही	-8.125
▁निर्माण	-8.12776
▁पी	-8.12793
▁करे	-8.12887
▁बे	-8.12998
▁चाहते	-8.13118
▁लगे	-8.13223
ाई	-8.13383
▁मार्ग	-8.13457
▁ला	-8.13545
ॉ	-8.13959
▁प्रत्येक	-8.1396
▁उप	-8.14356
नि	-8.14486
़	-8.14515
▁आपको	-8.14593
▁सा	-8.15071
▁अवसर	-8.15459
▁हों	-8.15715
▁उ	-8.17171
▁नई	-8.17249
▁मुख्य	-8.17408
वि	-8.17498
▁अच्छा	-8.17525
ँ	-8.17547
▁बनाने	-8.1756
▁बड़े	-8.18088
को	-8.1821
गा	-8.18315
▁ल	-8.18349
▁प्रक्रिया	-8.18807
▁जारी	-8.18861
ै	-8.19133
▁पूरी	-8.19332
दा	-8.19629
▁किताब	-8.19757
▁आदि	-8.19813
▁नि	-8.19961
थ	-8.19979
▁भाषा	-8.20075
▁तुम्हारी	-8.20128
▁जल	-8.20254
फ़	-8.20648
▁इसी	-8.2079
▁दूर	-8.20808
▁अनेक	-8.20867
▁स्वयं	-8.21119
▁आपके	-8.21175
▁ज्ञान	-8.21234
’	-8.21392
दार	-8.21455
▁‘	-8.21875
▁धर्म	-8.21961
पर	-8.21973
ये	-8.2212
▁रखा	-8.22566
▁निश्चय	-8.22917
▁इ	-8.23136
▁ऊपर	-8.23212
▁उत्तर	-8.23272
▁पानी	-8.23627
▁गये	-8.23867
▁उच्च	-8.23873
...	-8.23927
इ	-8.23951
प्र	-8.25058
टी	-8.2508
ियां	-8.25125
▁माल	-8.25184
▁हेतु	-8.25784
ौ	-8.25844
▁बैंक	-8.25862
▁खुदा	-8.25901
▁चाहता	-8.26125
▁तीन	-8.26203
▁दुनिया	-8.26292
▁रंग	-8.26657
▁सामान्य	-8.26711
▁ख	-8.26975
क्ष	-8.2702
▁स्तर	-8.27418
▁बनाया	-8.27471
▁भवन	-8.2749
▁शुरू	-8.27611
▁महत्वपूर्ण	-8.27969
ंड	-8.28025
▁रह	-8.28205
▁हाथ	-8.28253
▁लो	-8.28698
▁छोड़	-8.2876
मान	-8.28781
▁दर	-8.28941
▁अर्थ	-8.29619
▁शक्ति	-8.298
▁तुम्हारा	-8.29938
▁करेंगे	-8.30021
▁“	-8.30079
▁&	-8.30108
यों	-8.30282
▁ध्यान	-8.3051
▁अधिकार	-8.30518
▁देख	-8.31206
▁जिसने	-8.31258
▁माध्यम	-8.3129
▁लाभ	-8.31414
▁यहां	-8.31437
▁मन	-8.31479
▁प्रौद्योगिकी	-8.31537
▁मिल	-8.31825
▁बेशक	-8.32078
बी	-8.32222
▁सके	-8.32274
▁नीचे	-8.32566
▁ठीक	-8.32591
▁पूर्ण	-8.32667
िका	-8.32771
▁ई	-8.32845
▁देना	-8.32958
▁बिना	-8.33084
बा	-8.33092
▁प्रतिशत	-8.33108
▁देखा	-8.33414
▁मैंने	-8.33475
ति	-8.33848
▁प्रमुख	-8.34253
स्त	-8.34474
▁3	-8.34534
गी	-8.35292
जा	-8.35347
▁गयी	-8.35537
▁श	-8.35843
▁स्पष्ट	-8.35901
भ	-8.36023
▁क्षेत्रों	-8.36052
घ	-8.36057
▁जिसका	-8.36078
▁लेकर	-8.36248
▁पीछे	-8.36411
▁मै	-8.36529
▁किन्तु	-8.36564
डी	-8.36669
▁ज़मीन	-8.36697
▁मगर	-8.37
▁मदद	-8.37026
a	-8.37067
▁जबकि	-8.37123
ठ	-8.37165
▁जान	-8.372
▁पत्र	-8.37449
▁र	-8.37896
▁मान	-8.38192
▁धरती	-8.38425
▁ज	-8.38459
t	-8.38497
▁बा	-8.38644
▁चल	-8.3873
▁जमा	-8.38929
▁दिए	-8.39279
▁ली	-8.39352
▁प्रभाव	-8.39416
▁कंपनी	-8.39534
▁खंड	-8.39594
▁मूल	-8.39871
▁अतः	-8.40291
▁बढ़	-8.40364
▁आर्थिक	-8.40403
▁a	-8.40485
▁कृषि	-8.40532
टा	-8.40663
उ	-8.40684
सं	-8.40728
स्ट	-8.40762
▁समझ	-8.40936
▁कुल	-8.41241
▁अज़ाब	-8.41539
हा	-8.4166
▁आई	-8.4175
ऊ	-8.41795
पूर्ण	-8.4199
इस	-8.42101
▁आदेश	-8.42277
▁होकर	-8.42444
▁ऋण	-8.42542
▁इसकी	-8.42801
▁विश्वास	-8.42831
▁च	-8.43188
▁मूल्य	-8.43263
▁रखते	-8.43287
▁इनकार	-8.43538
i	-8.43755
▁अवधि	-8.4376
▁ह	-8.43933
▁जानकारी	-8.43944
▁जनता	-8.44038
▁ज्यादा	-8.44063
▁तुमसे	-8.44397
ध	-8.44484
▁कार्यक्रम	-8.44607
▁आने	-8.44683
▁परिवर्तन	-8.4481
▁लगभग	-8.44914
वे	-8.45031
▁समाज	-8.45313
स्	-8.45361
o	-8.45407
▁क्यों	-8.4551
▁अभी	-8.4556
▁सारे	-8.45612
▁फ़ोल्डर	-8.45901
▁काफी	-8.45941
▁तू	-8.46123
▁लागू	-8.4642
▁विज्ञान	-8.46523
ऋ	-8.46581
वी	-8.4671
▁चार	-8.46745
▁राष्ट्र	-8.46801
▁मामले	-8.46945
▁मेरा	-8.46988
▁जगह	-8.4709
▁समूह	-8.47143
▁जानता	-8.47229
▁वहां	-8.47327
▁अच्छे	-8.47434
▁चाहे	-8.48269
▁लोक	-8.48346
▁ना	-8.48576
▁सिवा	-8.48686
मी	-8.48799
b	-8.49042
▁अच्छी	-8.49186
▁उद्योग	-8.49466
▁नीति	-8.49664
▁बराबर	-8.49837
▁सामाजिक	-8.49909
र्	-8.49934
▁ओ	-8.50036
▁प्रणाली	-8.50319
▁जाएगी	-8.50368
▁स्थापित	-8.50481
▁आवश्यक	-8.50702
ड़ा	-8.50978
▁जैसा	-8.5125
▁जन	-8.51424
▁आवश्यकता	-8.51436
▁प्रयास	-8.51645
ष	-8.51749
▁अभि	-8.51786
▁रहने	-8.51911
▁आया	-8.52004
▁सीमा	-8.52155
¤3⁄4	-8.52393
▁अनु	-8.52694
S	-8.5296
▁दें	-8.52972
▁परि	-8.53042
▁दिल	-8.53084
▁कर्म	-8.53136
क़	-8.53136
▁कहीं	-8.53328
▁भर	-8.53607
▁सुरक्षा	-8.53699
▁खेल	-8.5396
▁जानते	-8.5413
्र	-8.54137
▁स्वीकार	-8.54205
▁उसको	-8.5425
▁साल	-8.54315
▁सि	-8.54393
▁क़ौम	-8.54424
ीकरण	-8.54527
▁परिणाम	-8.54592
▁वक्त	-8.54718
वर	-8.54941
▁पद	-8.55193
▁कोर्इ	-8.55196
▁समान	-8.55342
▁जिससे	-8.55391
▁राशि	-8.55411
ंट	-8.55791
▁चुका	-8.55797
ख़	-8.56129
कि	-8.56199
में	-8.56305
▁विभाग	-8.56634
▁#44;	-8.56658
▁अतिरिक्त	-8.56692
▁संपर्क	-8.56825
रो	-8.56944
▁आए	-8.57036
▁रहते	-8.57684
▁रखने	-8.57759
▁चुके	-8.57888
▁लेने	-8.57923
▁फ़	-8.58127
▁आग	-8.58267
▁5	-8.58405
▁अंतर्गत	-8.58431
▁आकार	-8.58447
▁कहने	-8.58808
▁18	-8.58828
▁:	-8.58833
▁सुधार	-8.58875
▁सहयोग	-8.59
▁मिला	-8.59032
▁नया	-8.5911
▁राम	-8.5934
▁अनुसंधान	-8.5935
▁उत्पादन	-8.59388
▁नए	-8.59571
¥	-8.59847
▁सभा	-8.5994
▁लाए	-8.59995
▁तुमने	-8.60023
▁सही	-8.6006
▁देशों	-8.60081
▁आकाश	-8.60245
न्द	-8.60345
मे	-8.60384
▁मानव	-8.60501
▁उद्देश्य	-8.6078
▁यातना	-8.60874
▁मध्य	-8.61
लि	-8.61043
पुर	-8.61117
▁नही	-8.61347
▁रात	-8.61492
c	-8.61624
▁व्यापार	-8.61947
▁बल	-8.62064
▁यात्रा	-8.62072
▁किस	-8.62161
▁मा	-8.62208
▁व्यवस्था	-8.62269
▁डाल	-8.62364
▁डर	-8.62411
▁क्षमता	-8.62817
▁सदस्य	-8.62984
▁सर	-8.63008
ियाँ	-8.63052
▁वालों	-8.63353
▁प्रस्तुत	-8.63413
▁एस	-8.63541
▁प्रदेश	-8.63645
▁परियोजना	-8.63746
▁शब्द	-8.63837
u	-8.63997
▁%	-8.64065
▁वस्तु	-8.64222
▁परन्तु	-8.64343
▁उपधारा	-8.64436
▁जिन्हें	-8.64463
▁सत्य	-8.64505
पा	-8.64625
छ	-8.64718
▁राज	-8.64815
▁वा	-8.65075
in	-8.65104
ड़ी	-8.65146
▁''	-8.65148
▁विधि	-8.65297
▁ता	-8.65372
▁अधिकारी	-8.65555
▁वर्तमान	-8.65558
▁मूसा	-8.65605
▁हाल	-8.65661
p	-8.65747
▁विशिष्ट	-8.65795
▁निर्णय	-8.65821
▁खोज	-8.65857
▁युद्ध	-8.66238
▁केंद्र	-8.66346
▁इतिहास	-8.66401
▁सिर्फ	-8.66449
▁कौन	-8.66693
▁बनाए	-8.67357
▁खा	-8.67382
▁हुक्म	-8.67645
▁निकल	-8.67647
▁न्यायालय	-8.67763
▁वर्षों	-8.67795
▁शरीर	-8.67829
▁विवरण	-8.68054
▁दूसरी	-8.68235
जन	-8.68293
▁थीं	-8.68303
▁दृष्टि	-8.68311
¤	-8.68427
▁तुमको	-8.68563
¤°	-8.6858
▁बेहतर	-8.68642
▁_	-8.68735
▁पहचान	-8.68743
गत	-8.68891
▁वहाँ	-8.69091
्व	-8.69168
I	-8.69391
C	-8.69609
▁हमारा	-8.69816
्‍	-8.69858
▁वास्तव	-8.69861
▁बदल	-8.69886
▁स्वास्थ्य	-8.6994
▁धन	-8.70015
▁दिल्ली	-8.70038
दी	-8.70039
िन	-8.70042
▁kg	-8.70594
▁बंद	-8.70937
▁स्थित	-8.70957
▁प्रधानमंत्री	-8.71131
▁अंत	-8.71412
▁विश्वविद्यालय	-8.71454
▁देगा	-8.71562
▁तौर	-8.71665
▁देखते	-8.71884
▁कल	-8.71948
▁यू	-8.7197
▁वास्ते	-8.72081
▁बच्चों	-8.72256
▁जिनके	-8.72381
d	-8.72456
▁निर्धारित	-8.72728
▁वर्ग	-8.72731
0	-8.72938
▁कैसे	-8.73154
▁रे	-8.7336
जो	-8.73378
▁अनुभव	-8.73596
▁परंतु	-8.73633
▁छ	-8.73721
▁अप	-8.73729
ात्मक	-8.7378
▁भ	-8.73842
ंज	-8.7398
▁अमेरिका	-8.7404
▁भूमि	-8.74167
▁मंत्रालय	-8.74187
▁मार	-8.74257
▁निवेश	-8.74328
▁चला	-8.7441
ंस	-8.74452
बे	-8.74603
▁पेश	-8.7463
▁हमेशा	-8.74846
▁विकसित	-8.75022
▁जिन्होंने	-8.75126
▁स्थानीय	-8.75499
▁संस्थान	-8.75539
तर	-8.75681
▁तहत	-8.75752
▁छवि	-8.75807
▁अन	-8.75882
▁य	-8.75885
▁संघ	-8.75905
▁एन	-8.76061
▁उदाहरण	-8.76115
▁name	-8.76136
▁काल	-8.76142
▁10	-8.76473
न्	-8.76996
ंक	-8.77397
वाद	-8.77637
▁बी	-8.77675
▁हे	-8.77729
▁मांग	-8.77823
▁बदला	-8.77841
▁निर्धारण	-8.77961
ण्ड	-8.77976
▁मि	-8.78012
▁S	-8.78095
्या	-8.78146
▁विदेशी	-8.7825
▁4	-8.78338
▁भेजा	-8.78384
▁रि	-8.78485
▁मौजूद	-8.78495
▁नियम	-8.78512
▁समाप्त	-8.78587
▁अंतिम	-8.78588
▁अव	-8.78673
1	-8.78726
टे	-8.78747
वार	-8.79661
▁छोटे	-8.79713
▁निश्चित	-8.79829
वीं	-8.79983
▁”	-8.80022
▁प्रवेश	-8.80088
▁आम	-8.80144
▁भूमिका	-8.80149
A	-8.80158
लो	-8.80219
▁लगता	-8.80292
रु	-8.80305
हर	-8.8062
ार	-8.80692
▁डी	-8.80796
एस	-8.808
▁त्रुटि	-8.80968
▁राह	-8.80972
▁जहाँ	-8.81005
ंद	-8.81103
▁मंदिर	-8.81447
¥	-8.81554
”	-8.81581
▁सक्रिय	-8.81676
ृ	-8.81679
▁पड़े	-8.81759
र्स	-8.81765
▁गा	-8.81782
▁संयुक्त	-8.82007
▁प्रेम	-8.8206
▁निस्संदेह	-8.82148
▁नियंत्रण	-8.82177
▁हक़	-8.8219
2	-8.82315
▁रहता	-8.8235
▁भाई	-8.82352
▁किये	-8.8238
▁उठा	-8.82397
▁सम	-8.82418
▁पि	-8.82459
▁पाया	-8.82504
▁कला	-8.82604
▁जिसकी	-8.82785
▁जन्म	-8.82844
▁लक्ष्य	-8.82855
▁भीतर	-8.82894
शा	-8.82902
गे	-8.83071
▁महा	-8.832
▁रख	-8.83228
▁विकल्प	-8.83254
▁आधारित	-8.83269
यां	-8.83335
T	-8.83363
▁बाजार	-8.83675
▁माना	-8.83765
▁सन्	-8.84119
▁निर्दिष्ट	-8.84163
▁आरंभ	-8.84208
▁जाओ	-8.84324
▁वित्तीय	-8.84594
▁सहायक	-8.8462
▁हिस्सा	-8.84909
▁डाक	-8.85102
▁प्रथम	-8.85196
▁संबंधी	-8.85342
▁दा	-8.85348
▁फ	-8.85391
नाज़िल	-8.85487
▁स्थापना	-8.85513
▁मनुष्य	-8.85713
▁निकाल	-8.85734
पन	-8.85949
म्ब	-8.85976
▁वो	-8.8618
▁लाख	-8.86194
▁6	-8.862
ढ़	-8.86241
त्व	-8.86424
▁सिंह	-8.86644
▁वृद्धि	-8.86704
▁परिवार	-8.86751
ंत	-8.86898
▁रु	-8.87153
▁संविधान	-8.8717
▁अंग	-8.87284
▁पहुँचा	-8.87328
▁समिति	-8.87345
4	-8.87467
▁मर	-8.87559
ाय	-8.8762
▁अध्ययन	-8.87672
▁विंडो	-8.87737
ाव	-8.87791
म्	-8.8819
3	-8.88196
▁दिशा	-8.88199
▁-	-8.88239
▁गु	-8.88246
▁सका	-8.88257
▁अनुमति	-8.88473
▁लेते	-8.88661
▁मृत्यु	-8.88792
▁बाल	-8.88875
▁रोग	-8.88916
क्स	-8.88946
▁पहुंच	-8.88964
▁प्रबंधन	-8.89077
▁अलावा	-8.896
तो	-8.89621
▁पिछले	-8.89693
▁लें	-8.8981
▁पहली	-8.8982
रू	-8.89849
▁मो	-8.89912
▁मत	-8.89947
▁प्रकाश	-8.90154
▁C	-8.90175
ड़े	-8.90189
▁आयत	-8.90251
▁सो	-8.90375
▁सहित	-8.90445
▁प्रश्न	-8.90595
ज़ा	-8.90615
▁रखता	-8.90814
5	-8.90869
▁सह	-8.90892
▁कृपया	-8.90908
▁उत्पन्न	-8.9091
रण	-8.90931
▁पहुँच	-8.91217
▁समर्थन	-8.91285
्म	-8.91455
▁खाता	-8.91537
मो	-8.91722
सर	-8.91769
त्त	-8.91846
▁रोक	-8.91875
▁पक्ष	-8.91992
▁दृश्य	-8.92031
हार	-8.92054
▁सर्वर	-8.92104
▁साहित्य	-8.92147
डा	-8.92208
E	-8.92233
वान	-8.92241
▁झ	-8.92274
▁जाएँ	-8.92298
▁पुनः	-8.9234
▁भुगतान	-8.9242
▁खुद	-8.92533
▁मंत्री	-8.92611
▁सुनिश्चित	-8.93121
▁दक्षिण	-8.93162
▁आसमान	-8.93187
▁पृष्ठ	-8.93219
▁क्रिया	-8.93222
▁फल	-8.93261
optional	-8.93265
▁प्रशिक्षण	-8.93336
▁गिर	-8.93427
▁दिनों	-8.93551
▁सत्ता	-8.9366
▁भिन्न	-8.93756
▁केन्द्र	-8.93871
▁करोड़	-8.93917
▁आर	-8.93998
आर	-8.94137
▁जांच	-8.94193
बर	-8.94222
20	-8.94289
त्र	-8.9429
▁प्रारंभ	-8.94314
▁फाइल	-8.94415
▁जरूरत	-8.94483
▁महान	-8.94564
▁ऊर्जा	-8.94597
▁ध	-8.94656
▁विस्तार	-8.94738
▁चि	-8.94993
g	-8.95173
▁@	-8.95179
▁लग	-8.95248
▁बह	-8.9526
▁समस्या	-8.95268
▁योग्य	-8.9544
▁मात्रा	-8.95459
▁आदमी	-8.95461
▁संगठन	-8.95568
▁पाठ	-8.95634
▁ट	-8.95676
▁बच्चे	-8.95676
रि	-8.95697
▁रिपोर्ट	-8.95755
▁लिखा	-8.9576
▁स्व	-8.95904
▁(1)	-8.96079
▁जाएँगे	-8.96169
ान	-8.96214
?"	-8.96392
▁इस्तेमाल	-8.96394
▁वापस	-8.96474
कारी	-8.96477
ात	-8.96581
ण्श्	-8.96643
छ्ष	-8.96679
▁उनपर	-8.96819
▁वेबसाइट	-8.97042
▁क़	-8.97078
▁रुप	-8.97193
भी	-8.97452
करण	-8.97538
▁चुनें	-8.97566
▁लाल	-8.97712
▁प्रस्ताव	-8.97724
▁जैसी	-8.97736
▁रो	-8.97742
▁सू	-8.97796
र्म	-8.97812
▁शहर	-8.98018
▁खाते	-8.98078
▁d	-8.98103
▁A	-8.98528
▁सरकारी	-8.98562
हम	-8.98564
O	-8.98565
▁सुन	-8.98726
▁निर्यात	-8.98732
रूप	-8.98772
▁सार्वजनिक	-8.98796
▁पड़	-8.98876
▁प्रकृति	-8.99016
M	-8.99183
▁ज़	-8.99212
00	-8.9925
िस	-8.99356
▁मामलों	-8.99421
▁रहो	-8.99509
कर्ता	-8.99516
▁एम	-8.99519
▁प्रगति	-8.99526
▁गांधी	-8.99564
मन	-8.99671
▁पूरे	-8.99688
▁शासन	-8.99711
वादी	-8.9979
झ	-8.99954
ाना	-9.00051
▁पूंजी	-9.00303
▁अत्यन्त	-9.00424
शी	-9.00425
▁सक्षम	-9.00427
▁राज्यों	-9.00451
कों	-9.00467
्यू	-9.00484
▁खोल	-9.0057
िल	-9.0058
er	-9.00603
▁बाप	-9.00694
▁निकट	-9.00847
▁मालूम	-9.00891
उस	-9.00913
ग़	-9.0096
▁गुण	-9.01018
▁गो	-9.01087
ास	-9.01405
▁यक़ीनन	-9.01405
एक	-9.01571
▁कोशिश	-9.01623
▁बातें	-9.01937
▁कमी	-9.02214
▁संसद	-9.02244
ंच	-9.02277
▁दिखाएँ	-9.02517
मु	-9.02928
▁प्रकट	-9.02979
खा	-9.03006
P	-9.03082
▁व्यापक	-9.03102
▁कानून	-9.03114
▁देखने	-9.03215
▁गति	-9.03242
n	-9.03316
▁भू	-9.03354
▁शख्स	-9.03364
िश	-9.0337
▁ग्रामीण	-9.0339
▁पश्चात	-9.03657
▁कांग्रेस	-9.03684
▁हा	-9.03729
▁जिनमें	-9.03769
D	-9.03887
तम	-9.03968
▁सुविधा	-9.03987
▁सदस्यों	-9.0399
▁दु	-9.04033
▁आयात	-9.04078
▁बैठक	-9.04327
▁संभव	-9.04386
▁सामग्री	-9.04403
▁उचित	-9.04502
▁नदी	-9.04509
क्या	-9.04531
ेंगे	-9.0472
▁एक्स	-9.04793
सि	-9.04834
▁बंगाल	-9.04923
▁मी	-9.04979
▁कहो	-9.04986
L	-9.05273
ुर	-9.0535
▁घटना	-9.05353
▁ड	-9.05365
बल	-9.05368
▁बने	-9.05404
▁15	-9.05419
▁बयान	-9.05505
पत्र	-9.05511
▁संस्था	-9.05682
▁बि	-9.05746
ेगा	-9.05815
▁समारोह	-9.05929
▁राजा	-9.05936
▁आधुनिक	-9.06016
▁गुनाह	-9.06046
▁बचा	-9.06061
▁इतना	-9.06116
बार	-9.06171
यन	-9.06195
▁केंद्रीय	-9.06347
▁चले	-9.06427
▁आवेदन	-9.06557
दर	-9.06558
▁दिखाई	-9.06565
▁गैर	-9.06617
▁पार	-9.06647
▁रक्षा	-9.06655
]	-9.06694
▁महत्व	-9.06714
>	-9.06722
¤¿	-9.06722
8	-9.06808
▁पुरस्कार	-9.06887
▁संदर्भ	-9.06887
▁निधि	-9.06928
▁'%	-9.06949
▁मद	-9.07013
▁प्रदर्शन	-9.07096
▁देती	-9.07313
जे	-9.07346
▁बातों	-9.07401
▁मुँह	-9.07441
▁डिस्क	-9.07544
▁पे	-9.07662
टर	-9.07731
▁दशा	-9.07825
र्ज	-9.07875
डे	-9.07877
▁मह	-9.07928
▁7	-9.07954
://	-9.08305
मि	-9.08524
▁संगीत	-9.08651
▁सोच	-9.08678
▁रा	-9.08742
▁रहेंगे	-9.08951
▁इनमें	-9.08969
▁वजह	-9.09035
▁एल	-9.09229
▁भविष्य	-9.09231
▁पालन	-9.09293
▁चाहिये	-9.09489
▁पुस्तक	-9.09511
▁रखो	-9.09533
▁योगदान	-9.09579
▁औद्योगिक	-9.096
▁साफ	-9.09711
आई	-9.09805
फिर	-9.0984
▁दिवस	-9.09854
▁पड़ा	-9.10008
ुल	-9.1002
क्	-9.10241
स्थ	-9.10246
▁बदले	-9.10253
▁फेर	-9.1038
ख़ुदा	-9.10481
▁कै	-9.10497
▁स्वतंत्रता	-9.10524
▁उत्पाद	-9.10527
▁शायद	-9.10569
र्क	-9.10593
▁टी	-9.10656
▁बता	-9.10782
▁translation	-9.10826
¤	-9.10999
▁अति	-9.11163
Name	-9.11203
▁12	-9.11248
नों	-9.11274
▁जवाब	-9.11294
▁निजी	-9.11334
ेशन	-9.11375
चार	-9.11427
▁किंतु	-9.11461
▁पकड़	-9.11666
▁बुरा	-9.11684
▁प्रमाण	-9.1175
▁न्याय	-9.11773
▁not	-9.11895
▁रखना	-9.12016
▁अल	-9.12045
चा	-9.12261
शन	-9.12378
▁आशा	-9.12585
मय	-9.12629
▁भेज	-9.12778
▁20	-9.12998
स्क	-9.13214
▁बोर्ड	-9.13391
गु	-9.13447
भा	-9.13458
▁चयनित	-9.13462
▁संरचना	-9.13508
यर	-9.13637
द्ध	-9.13646
▁अधि	-9.1365
▁रकम	-9.13692
▁लेखा	-9.13702
ही	-9.13757
▁चित्र	-9.13805
▁हैः	-9.13908
रों	-9.13974
▁M	-9.14155
▁राय	-9.1421
▁अवश्य	-9.14275
काल	-9.14281
▁स्रोत	-9.14442
▁need	-9.1448
▁लागत	-9.14705
▁व्यक्तियों	-9.14974
▁समझा	-9.15228
▁सिर	-9.1528
▁कार्यालय	-9.15341
▁दल	-9.15711
▁भा	-9.15715
▁जे	-9.15724
ूर	-9.15896
०	-9.16035
f	-9.16259
तु	-9.16261
▁आयोजित	-9.16276
▁मुद्रा	-9.16296
कृत	-9.16566
▁8	-9.16583
r	-9.16807
▁सफल	-9.16821
म्प	-9.16854
▁उपकरण	-9.16931
▁ढंग	-9.17096
▁पांच	-9.17111
ाल	-9.17166
▁प्रभावित	-9.17169
▁मजबूत	-9.17471
▁वास्तविक	-9.17496
▁मुक्त	-9.1756
▁स्कूल	-9.17611
▁सुना	-9.17691
▁रचना	-9.17786
▁पर्याप्त	-9.1784
▁डाला	-9.17862
वाह	-9.17911
▁देंगे	-9.18099
ोर	-9.1812
▁समुदाय	-9.18162
▁तंत्र	-9.18235
▁अवस्था	-9.18236
▁प्रकाशित	-9.18249
▁जोड़	-9.1829
▁लौट	-9.18437
▁व्यवहार	-9.1844
▁http	-9.18512
▁सेना	-9.18685
▁दूसरा	-9.18799
▁सफलता	-9.18886
ॅ	-9.18954
l	-9.18985
k	-9.19038
▁डि	-9.19069
▁ब्र	-9.19101
▁खर्च	-9.19189
▁बैठे	-9.19269
▁बोल	-9.1933
ार्थ	-9.19397
▁does	-9.19453
▁लाने	-9.19533
▁नेटवर्क	-9.19579
▁लि	-9.19579
▁ज़रूर	-9.19747
▁भाव	-9.19791
▁probabl	-9.19829
▁पु	-9.19911
द्	-9.19937
▁निर्धारिती	-9.2004
▁महिला	-9.20089
▁राजनीतिक	-9.20119
▁संस्कृति	-9.2013
वह	-9.20173
ाइ	-9.20195
▁बहु	-9.20252
शि	-9.20266
▁हासिल	-9.20494
▁चुकी	-9.20612
मत	-9.2063
एम	-9.20839
▁मुखर्जी	-9.2084
▁पैग़म्बर	-9.21003
▁सकें	-9.21081
ar	-9.21202
▁निम्नलिखित	-9.21446
▁सुरक्षित	-9.21544
▁शक	-9.21552
कु	-9.21661
▁संकेत	-9.21739
▁चर्चा	-9.21753
▁बढ़ा	-9.21759
▁आत्मा	-9.21841
फा	-9.21866
▁रक्त	-9.21985
▁केन्द्रीय	-9.22102
यह	-9.22327
▁व्यक्त	-9.22356
▁संरक्षण	-9.22417
▁भावना	-9.225
▁जि	-9.22521
▁बनी	-9.22627
▁̧à	-9.22632
▁भारी	-9.22683
▁सेवाओं	-9.22718
ाने	-9.2279
▁ऑफ	-9.22875
ाम	-9.23012
▁प्रमाणपत्र	-9.23066
▁यद्यपि	-9.23182
▁सीधे	-9.2323
देश	-9.23353
ढ	-9.23447
▁निम्न	-9.23457
▁विशाल	-9.23467
▁लघु	-9.2354
▁आपकी	-9.23673
▁बाज़	-9.23727
▁तारीख	-9.23771
▁सम्मान	-9.23898
▁स्	-9.23906
▁दस	-9.23918
यी	-9.23925
▁बाग़	-9.23969
▁ईश्वर	-9.23969
ष्ट	-9.24097
▁वर्णन	-9.24099
▁बु	-9.24107
▁अपेक्षा	-9.24237
▁कहना	-9.24279
▁डॉ	-9.24346
▁प्रधान	-9.24387
िए	-9.24527
एन	-9.24549
▁कदम	-9.24624
एल	-9.24645
▁पुनर्	-9.24708
▁बधाई	-9.24786
▁मित्र	-9.24815
▁तरीके	-9.24952
▁सम्मेलन	-9.25017
▁आयोग	-9.2508
न्त	-9.25086
▁शब्दों	-9.25087
▁संसाधन	-9.25151
त्	-9.2522
याँ	-9.25303
ुक	-9.25438
ियो	-9.2545
▁चयन	-9.25587
▁पुरुष	-9.25633
स्व	-9.25676
▁विरुद्ध	-9.25748
यू	-9.25752
▁उपस्थित	-9.25885
चे	-9.25906
ेड	-9.25968
▁कवि	-9.26017
▁इस्लाम	-9.26066
दान	-9.26163
▁छोटी	-9.26213
R	-9.26297
▁गिरोह	-9.26317
▁गुणवत्ता	-9.26349
तः	-9.2656
▁कंप्यूटर	-9.26618
▁भोजन	-9.26723
▁मेल	-9.26746
▁शैतान	-9.26754
▁अस	-9.26789
▁आत्म	-9.2686
रिया	-9.26926
▁अध्यक्ष	-9.26968
▁छोड़कर	-9.2698
▁खरीद	-9.2698
▁घ	-9.27073
गो	-9.27089
▁आता	-9.27153
▁जिला	-9.27168
▁हवा	-9.27237
▁प्राकृतिक	-9.27258
▁सम्बन्ध	-9.27263
▁नमाज़	-9.27327
▁पै	-9.27454
जि	-9.27506
दे	-9.27565
▁संपत्ति	-9.27645
▁पश्चिम	-9.27695
्त	-9.27707
बद्ध	-9.27831
▁वित्त	-9.27868
▁सौ	-9.27914
▁लिख	-9.27931
ाइट	-9.2803
▁प्राचीन	-9.28041
▁रखी	-9.28082
सन	-9.28163
▁सख्त	-9.28201
▁बताया	-9.28249
राज	-9.28415
▁अधिकांश	-9.28439
▁रखे	-9.2846
▁नाटक	-9.28579
▁डे	-9.28611
▁जाति	-9.2873
▁१९	-9.28746
१	-9.28888
nic	-9.28895
▁परीक्षा	-9.28994
▁अता	-9.28998
▁गलत	-9.29069
re	-9.29117
▁वैज्ञानिक	-9.29209
▁प्रभावी	-9.2928
▁आते	-9.29326
▁तुलना	-9.29348
▁नगर	-9.29356
न्न	-9.29383
▁सात	-9.29457
▁हस्ताक्षर	-9.2969
▁अगले	-9.297
▁धार्मिक	-9.29967
▁शिकायत	-9.30002
¤2	-9.30113
वन	-9.30123
):	-9.30451
▁गर्इ	-9.30516
▁ब्याज	-9.3077
▁संशोधन	-9.3083
▁वीडियो	-9.30841
▁जाये	-9.3096
▁समाधान	-9.30984
▁रखें	-9.31004
▁प्रोग्राम	-9.31087
यें	-9.31122
▁स्प	-9.31143
x	-9.31184
▁(19	-9.31216
नो	-9.31431
▁इं	-9.31464
▁जोड़ें	-9.31464
an	-9.3169
▁शीघ्र	-9.31793
▁[	-9.31826
▁बन्दों	-9.31881
▁अधिकारियों	-9.31908
▁हालत	-9.31913
▁बनाना	-9.31925
▁खड़े	-9.31937
उन	-9.32012
▁पाने	-9.32221
▁अंतर	-9.32348
▁चिकित्सा	-9.32388
टो	-9.32399
्‍य	-9.32424
▁आंदोलन	-9.3243
▁लगी	-9.32538
ची	-9.3254
▁बै	-9.32584
▁लेना	-9.32608
नाथ	-9.32625
▁आपका	-9.32726
सु	-9.32744
र्ड	-9.32926
▁कुंजी	-9.3293
साथ	-9.32984
▁उन्हीं	-9.33015
▁शि	-9.33033
नाम	-9.33154
▁एशिया	-9.33158
र्द	-9.3337
देव	-9.33392
▁मिलता	-9.33406
▁जल्दी	-9.33408
▁मिली	-9.33541
▁तुमपर	-9.33618
पो	-9.33671
▁बैठ	-9.33783
सू	-9.33872
▁उल्लेख	-9.33894
▁समझते	-9.33984
▁संस्थानों	-9.34063
र्ट	-9.34102
▁शैली	-9.3416
▁हिदायत	-9.34263
ीन	-9.34316
▁प्रतीक	-9.34332
▁युग	-9.34369
▁सेट	-9.34469
▁प्रणब	-9.34539
▁दिखा	-9.34571
▁तुममें	-9.34609
▁हिन्दी	-9.34697
हि	-9.34923
▁संसार	-9.35021
▁कविता	-9.35037
▁नियत	-9.35056
▁हटा	-9.35207
▁आती	-9.35269
गें	-9.35333
चर	-9.35348
▁निर्	-9.35452
ांत	-9.35458
ष्	-9.35605
▁क्षमा	-9.3561
▁श्रेणीः	-9.35623
शील	-9.35736
▁मालिक	-9.35876
▁सर्व	-9.35891
▁जरूरी	-9.35899
९	-9.35918
▁रू	-9.35923
▁ठ	-9.36041
▁खो	-9.36087
▁रहती	-9.36115
▁माँ	-9.36184
▁पुलिस	-9.36324
▁कीमत	-9.36329
▁निर्मित	-9.36347
N	-9.3636
▁युवा	-9.36368
▁करनी	-9.36487
▁पत्थर	-9.3649
सब	-9.36501
▁सीमित	-9.36562
▁मानते	-9.36592
▁संस्कृत	-9.3662
▁क़सम	-9.36786
Cit	-9.36788
▁वन	-9.36845
पक	-9.36859
वर्ती	-9.36896
▁व्य	-9.36924
▁अनिवार्य	-9.36937
▁निर्भर	-9.36954
▁अनुप्रयोग	-9.37021
▁पश्चात्	-9.37062
▁रहना	-9.37067
▁मुख	-9.37142
▁निर्देश	-9.37156
▁ब्रिटिश	-9.37208
▁सरल	-9.37209
िट	-9.37385
▁साधारण	-9.37401
▁छोटा	-9.37432
▁पिता	-9.37509
▁p	-9.37539
▁D	-9.37595
▁विवाह	-9.37601
▁विरोध	-9.37603
▁जहन्नुम	-9.37616
▁बर	-9.37619
कल	-9.37654
▁शांति	-9.37681
▁क्रम	-9.3769
▁दिलों	-9.37794
▁बिल्कुल	-9.37883
▁असफल	-9.37919
▁इबराहीम	-9.38053
इन	-9.38082
▁हित	-9.3809
▁सारी	-9.38108
▁प्रा	-9.38143
▁झूठ	-9.38187
▁करनेवालों	-9.38235
▁वार्षिक	-9.38241
▁सम्	-9.38306
▁P	-9.38348
▁पथ	-9.38519
▁पढ़	-9.38541
▁प्रो	-9.38627
ाँ	-9.3875
▁अर्थव्यवस्था	-9.38757
▁शताब्दी	-9.38828
▁भूल	-9.3886
▁9	-9.3888
▁औ	-9.38884
▁आदर्श	-9.38887
▁इच्छा	-9.38915
क्त	-9.38981
▁पाक	-9.39034
▁पर्यावरण	-9.3907
▁निगम	-9.39078
12	-9.39079
▁बन्द	-9.39084
▁संग्रह	-9.39087
अपने	-9.39168
▁अंदर	-9.39293
▁सिद्ध	-9.3934
स्प	-9.39528
▁अभिलेख	-9.39568
ियन	-9.39749
▁योग	-9.39793
▁शेष	-9.39804
▁समुद्र	-9.39823
▁किसानों	-9.39874
▁जीव	-9.39913
▁घोषणा	-9.39975
▁सच्चे	-9.40048
▁कहेंगे	-9.40214
▁हि	-9.40261
B	-9.40372
▁11	-9.4038
ूल	-9.40413
▁तरफ़	-9.40493
▁वै	-9.40514
▁महीने	-9.40553
▁शुल्क	-9.40574
▁आपने	-9.40586
▁25	-9.40628
गार	-9.40632
▁सदन	-9.40645
▁व्यक्तिगत	-9.40668
▁प्रदर्शित	-9.40744
▁कठिन	-9.40753
▁खुलती	-9.4081
▁ख़बर	-9.40816
▁अत्यंत	-9.40822
द्द	-9.40901
आख़िरत	-9.40967
▁उठ	-9.40987
▁हल	-9.4101
▁नागरिक	-9.41051
दूसरे	-9.41306
▁16	-9.41344
▁मौजूदा	-9.41352
▁संघर्ष	-9.41409
▁व्यय	-9.4151
ेल	-9.41521
ेश	-9.41524
नेवाले	-9.41534
ल्ड	-9.41598
▁अप्रैल	-9.41679
or	-9.41775
राम	-9.41823
▁प्रयोजनों	-9.41875
▁सम्मिलित	-9.41912
on	-9.41951
▁मुस्लिम	-9.41952
▁विंडों	-9.42032
al	-9.42111
▁डेटा	-9.42135
▁अपील	-9.42211
10	-9.42259
▁अंग्रेजी	-9.42294
िम	-9.42353
ल्	-9.42396
▁फैला	-9.42697
▁स्थायी	-9.42704
▁आयु	-9.42705
▁सामान	-9.42712
▁चुनाव	-9.42715
▁कार्यों	-9.42814
▁̈à	-9.42817
▁बढ़ाने	-9.42822
ोन	-9.42948
▁सदैव	-9.42976
▁तेल	-9.42993
▁विचारों	-9.43046
▁I	-9.43132
बु	-9.43147
्वा	-9.43167
▁वायु	-9.43326
▁पड़ता	-9.43425
▁(2)	-9.43428
,000	-9.4343
▁चरण	-9.43442
▁इंडिया	-9.43632
एफ	-9.43776
ाक	-9.43912
▁लेखक	-9.43917
▁हृदय	-9.44062
बू	-9.44082
▁लगाया	-9.44095
▁ख़	-9.44103
मैं	-9.44128
युक्त	-9.44344
्यु	-9.44496
▁चाल	-9.44595
▁मार्च	-9.44637
▁मिट्टी	-9.44693
फ़ा	-9.44803
▁रहेगा	-9.44807
▁तेजी	-9.44812
टि	-9.44813
▁गीत	-9.44849
▁ऑ	-9.44926
ल्ल	-9.44946
▁ईसा	-9.45067
▁जिसको	-9.45109
▁वी	-9.45125
रत	-9.45149
▁प्रत्यक्ष	-9.45154
▁पहला	-9.45177
▁अनुच्छेद	-9.45183
पट	-9.45326
aà	-9.45347
वालों	-9.45371
▁भली	-9.45394
▁शा	-9.45453
धर	-9.45467
▁हालाँकि	-9.45493
▁निशानियाँ	-9.4555
▁उपबंध	-9.4558
▁दृष्टिकोण	-9.45586
▁F	-9.45604
▁माँग	-9.45654
▁परिषद	-9.45805
▁सच	-9.45828
चि	-9.45884
▁दायित्व	-9.46111
हीन	-9.46182
योग	-9.46234
बाहरी	-9.46331
▁गंभीर	-9.46357
निक	-9.46371
▁बढ़ावा	-9.46375
▁बीमा	-9.46418
▁नये	-9.46489
▁गवाह	-9.46642
▁सत्र	-9.46672
▁चलते	-9.46741
ेट	-9.46742
िता	-9.46903
▁तर्क	-9.47144
२	-9.47154
▁क्र	-9.47254
ोल	-9.47372
▁पंक्ति	-9.47413
▁लोड	-9.47422
▁उपयुक्त	-9.47581
७	-9.47598
▁m	-9.47718
▁विधान	-9.47864
▁दर्शन	-9.47883
डि	-9.47888
▁प्रशासन	-9.48051
▁रुपये	-9.48075
▁सांस्कृतिक	-9.48077
▁पस	-9.48178
अल्लाह	-9.48194
▁नसीहत	-9.48216
र्न	-9.48279
ंगे	-9.48307
▁बिल	-9.48311
▁हानि	-9.48375
▁वैश्विक	-9.48509
▁मिलने	-9.4852
▁इनके	-9.48536
▁पो	-9.48759
दु	-9.48762
▁संभावना	-9.48812
▁30	-9.48846
w	-9.48938
▁तकनीकी	-9.48981
हरगिज़	-9.49144
▁श्रेणी	-9.49254
▁वस्तुओं	-9.49307
▁दोस्त	-9.49326
▁देखें	-9.49327
▁रोजगार	-9.49346
ाइल	-9.49369
▁सलाह	-9.49453
▁पात्र	-9.49489
▁चौ	-9.49508
▁खाद्य	-9.49582
▁बीज	-9.49637
▁14	-9.49639
पूर्वक	-9.49675
▁अंतरराष्ट्रीय	-9.49738
▁देखो	-9.49753
▁तु	-9.49781
▁बनाकर	-9.50035
▁आपस	-9.50282
३	-9.503
▁महिलाओं	-9.50379
धि	-9.50398
िर	-9.50433
▁मिले	-9.50483
वास	-9.5051
▁लेता	-9.5056
▁व्यवसाय	-9.50582
ष्ठ	-9.50623
▁जिनका	-9.50647
▁क्षेत्रीय	-9.50662
}	-9.50665
▁बख्श	-9.50665
मेल	-9.50694
▁सिस्टम	-9.50836
▁बनाई	-9.50851
▁शीर्ष	-9.50868
लू	-9.50935
¤®	-9.51051
▁विनिर्दिष्ट	-9.51057
८	-9.51066
▁बुरी	-9.51175
▁यूरोप	-9.51204
▁प्रसिद्ध	-9.51233
पति	-9.51245
फ्	-9.51252
▁गांव	-9.51358
▁T	-9.51449
तुम	-9.51468
्ल	-9.51491
▁उत्तम	-9.51533
▁अनुवाद	-9.51616
▁समा	-9.51727
▁नियुक्त	-9.51763
▁दिये	-9.51841
▁कठोर	-9.51869
▁पद्धति	-9.519
01	-9.51969
न्ड	-9.51982
▁अधिकतर	-9.52072
▁दिखाया	-9.52075
▁विजय	-9.52094
▁विस्तृत	-9.52129
▁स्वरूप	-9.52134
ेज	-9.52147
▁प्रयासों	-9.52169
▁उतर	-9.52172
र्ण	-9.52182
▁अधिकतम	-9.5224
▁स्वामी	-9.52309
▁अरब	-9.52341
▁बच	-9.52343
वाला	-9.52353
▁साधन	-9.52394
▁अनुकूल	-9.52395
▁the	-9.52438
▁बिजली	-9.5252
यो	-9.52527
▁घरों	-9.52542
▁गुना	-9.52565
▁तत्व	-9.52615
ंध	-9.52671
▁थ	-9.52692
▁कं	-9.52719
▁देव	-9.52765
▁२	-9.53062
▁उद्यम	-9.5307
▁संस्करण	-9.53088
▁खोलें	-9.531
▁मिशन	-9.53113
▁समक्ष	-9.53314
''	-9.53343
▁मार्गदर्शन	-9.53364
ान्त	-9.53414
मेंट	-9.53465
द्र	-9.53505
▁इतनी	-9.53571
▁पुकार	-9.53636
▁बावजूद	-9.53686
▁पार्टी	-9.5371
हन	-9.53804
▁आतंकवाद	-9.53934
▁प्रयुक्त	-9.53937
▁गुज़र	-9.5398
वें	-9.54068
▁आयोजन	-9.54101
▁सूर्य	-9.54125
▁स्ट	-9.54138
▁हु	-9.54144
▁कहानी	-9.54166
▁पीठ	-9.54362
▁0	-9.5442
▁मौसम	-9.5446
▁चुन	-9.54579
ेस	-9.54601
▁कटौती	-9.54633
▁B	-9.5466
▁शक़	-9.5467
▁हालांकि	-9.54677
गर	-9.54794
▁क़यामत	-9.54825
▁कथा	-9.54859
था	-9.54865
▁संचार	-9.54879
▁कार	-9.54879
v	-9.54905
▁खुश	-9.54913
▁मानक	-9.55045
▁बद	-9.55077
▁बुद्धि	-9.55082
बि	-9.55136
▁डा	-9.55195
▁जाँच	-9.55243
र्थ	-9.55257
▁गुरु	-9.55336
▁निरंतर	-9.55436
▁परस्पर	-9.55529
▁पहल	-9.55549
▁लड़	-9.55614
▁लेख	-9.5579
ल्स	-9.5587
▁करनेवाला	-9.55899
▁तार	-9.55913
▁सबको	-9.56014
▁कब	-9.56037
▁जोर	-9.56182
▁पश्चिमी	-9.56266
▁स्पष्टीकरण	-9.56357
▁उपचार	-9.56382
▁सामना	-9.5639
▁आस	-9.5644
चल	-9.56477
▁अपराध	-9.56505
▁रोज़ी	-9.56596
▁गुप्त	-9.56649
▁गुजरात	-9.56711
▁खाली	-9.56749
▁अंक	-9.56766
▁मशीन	-9.5678
▁स्क	-9.56939
▁विद्युत	-9.57003
अपनी	-9.5701
¥	-9.57018
▁निदेशक	-9.57044
▁1.	-9.57091
▁पसंद	-9.57173
न्ट	-9.57215
दि	-9.57229
▁सूक्ष्म	-9.57292
en	-9.5731
▁एफ	-9.57331
▁वायदा	-9.57429
▁आसान	-9.57506
F	-9.57532
▁विदेश	-9.57619
▁सरकश	-9.57667
▁गतिविधियों	-9.57669
▁वातावरण	-9.57888
▁माता	-9.57931
▁लिखने	-9.57967
▁पूर्ववर्ष	-9.57994
लों	-9.58029
▁R	-9.58051
ूँ	-9.58093
▁सकेगा	-9.58124
▁मिलकर	-9.58184
▁यंत्र	-9.58371
▁पुत्र	-9.58456
▁उम्मीद	-9.5847
▁खड़ा	-9.58562
धार	-9.5857
U	-9.58601
भर	-9.58638
क्रम	-9.58657
▁हिन्दू	-9.5881
ii	-9.58942
▁17	-9.58965
▁मुसलमानों	-9.58978
▁अभियान	-9.5901
श्त	-9.59037
▁ग्रहण	-9.59056
▁करा	-9.59122
▁पदार्थ	-9.59384
▁वेतन	-9.59462
▁तिथि	-9.59513
▁चलता	-9.59561
▁तट	-9.59603
▁कार्ड	-9.59624
च्छ	-9.59707
िज	-9.5974
वाले	-9.59838
▁स्वागत	-9.5985
▁नियमित	-9.59875
▁कर्मचारियों	-9.59976
▁करनेवाले	-9.59997
▁क्लिक	-9.60007
▁जाय	-9.60022
५	-9.60047
▁बो	-9.60051
क्ति	-9.60167
▁बनाएँ	-9.60298
▁महसूस	-9.60305
▁मतलब	-9.60306
▁संपूर्ण	-9.60308
ज़ी	-9.6035
▁नियमों	-9.60356
▁नव	-9.6036
▁दस्तावेज	-9.60393
▁फा	-9.60409
▁स्त्री	-9.60455
▁हाथों	-9.60489
▁सज़ा	-9.60508
डर	-9.6054
त्य	-9.60559
▁भेजे	-9.60584
▁त्रि	-9.60612
ाइड	-9.6067
▁दावा	-9.60708
▁सुंदर	-9.60778
वल	-9.60789
▁प्राप्ति	-9.6086
▁वेब	-9.6087
▁वाद	-9.60912
▁परीक्षण	-9.60922
▁सिद्धांत	-9.60975
▁हद	-9.60983
–	-9.61106
▁मोड	-9.61177
¤¤	-9.61218
▁उदार	-9.61282
वत	-9.614
▁अवैध	-9.61442
▁नामक	-9.61514
▁टो	-9.61525
नेवाला	-9.61544
▁बोझ	-9.61567
▁न्यू	-9.61598
▁तय	-9.61598
▁शेयर	-9.6165
▁कल्याण	-9.6168
▁टन	-9.61796
▁अफ्रीका	-9.61823
▁पलट	-9.61833
पाल	-9.61872
▁भय	-9.61899
▁झुठलाया	-9.6205
▁फिल्म	-9.62062
▁हाँ	-9.62127
▁कट	-9.62151
▁रहें	-9.62181
▁कार्रवाई	-9.62206
▁हिसाब	-9.62206
▁ढ	-9.62251
व्य	-9.62269
ेन	-9.62353
▁ग्राम	-9.62356
▁खाने	-9.62448
तन	-9.62473
▁भला	-9.62509
▁50	-9.62584
भाव	-9.62598
▁काव्य	-9.62617
ाए	-9.62629
र्च	-9.62703
▁कारबार	-9.62753
▁–	-9.62797
▁पहुंचा	-9.62816
्न	-9.6282
▁अक्सर	-9.62832
▁मात्र	-9.62859
▁इन्हें	-9.62882
▁x	-9.6297
▁ख़र्च	-9.62985
▁शिव	-9.6307
▁शुभकामनाएं	-9.63126
▁विवाद	-9.63135
ग्	-9.63153
▁पाकिस्तान	-9.63175
▁सप्ताह	-9.63219
▁भरोसा	-9.63219
▁इबादत	-9.63267
11	-9.6335
▁आयुक्त	-9.63378
▁जीवित	-9.63387
▁सहेजें	-9.63435
▁दंड	-9.63437
▁भौतिक	-9.63506
▁देकर	-9.63519
▁तौबा	-9.63558
श्र	-9.63689
वां	-9.63721
▁संकल्प	-9.6382
6	-9.63824
▁शुद्ध	-9.63907
▁जून	-9.6399
▁जिनकी	-9.64023
▁समस्याओं	-9.64043
▁कल्पना	-9.64047
हो	-9.64089
▁प्रसन्नता	-9.64128
▁जनवरी	-9.64193
▁अंतर्राष्ट्रीय	-9.64244
▁पेज	-9.64248
शक्ति	-9.64266
▁अंश	-9.6434
▁शख़्श	-9.64389
▁हिस्से	-9.64585
▁जाएं	-9.64642
▁अद्यतन	-9.64782
▁खूब	-9.64782
▁कितने	-9.64955
▁बढ़कर	-9.65015
▁खाना	-9.65028
▁खेती	-9.65077
▁उपाय	-9.651
▁मिलती	-9.65145
▁चलो	-9.65146
▁ग़	-9.65372
▁मानसिक	-9.65523
▁इजरायल	-9.65596
▁गणराज्य	-9.65624
▁माबूद	-9.65672
▁13	-9.65688
▁बाहरी	-9.65721
▁चु	-9.65739
▁स्थल	-9.65814
▁भलाई	-9.65843
▁पुराने	-9.65861
▁तेज	-9.65907
अलग	-9.65935
▁वितरण	-9.6597
ंगी	-9.66016
▁शून्य	-9.66071
▁खुशी	-9.66131
▁पूछ	-9.66149
▁लगाने	-9.66171
▁परियोजनाओं	-9.66171
▁{	-9.66205
▁दीन	-9.66229
▁प्राण	-9.66313
जू	-9.66348
▁शुरुआत	-9.6637
▁जुड़े	-9.66381
नीय	-9.66409
▁नोट	-9.66446
▁समाचार	-9.6647
▁बुला	-9.665
▁हजार	-9.66513
द्व	-9.66547
▁दूध	-9.66582
▁नेतृत्व	-9.6667
▁तकनीक	-9.66769
▁E	-9.66804
▁रेल	-9.6681
ाह	-9.66829
▁गैस	-9.6684
▁जायेगा	-9.66924
▁सवाल	-9.67008
G	-9.67038
▁बदलें	-9.67068
▁विफल	-9.67121
▁एवोल्यूशन	-9.67223
▁आस्ति	-9.67252
ौर	-9.6733
▁ख्याल	-9.67377
▁हिंदू	-9.67442
▁धीरे	-9.6746
ताओं	-9.67535
▁सै	-9.67619
▁ज़ुल्म	-9.67678
▁निर्देशिका	-9.67717
▁फि	-9.67744
दुनिया	-9.67807
▁क्ल	-9.67857
▁सुख	-9.67882
र्इ	-9.67991
▁उसपर	-9.67991
▁कितनी	-9.67994
मल	-9.67995
▁गाय	-9.68007
▁इत्यादि	-9.68033
भाँति	-9.68034
पु	-9.68089
▁ख़ास	-9.68155
▁शाखा	-9.68234
▁मानो	-9.68247
ाया	-9.6832
▁कार्यक्रमों	-9.68388
▁ध्वनि	-9.68391
7	-9.68485
▁पाए	-9.68506
▁प्रयोजन	-9.68571
▁उपन्यास	-9.68594
▁मूल्यांकन	-9.68604
▁अनुसरण	-9.68646
▁ईमानदार	-9.68752
ंगा	-9.68774
▁छा	-9.68776
▁शीर्षक	-9.68867
▁करार	-9.68896
▁खुले	-9.68925
▁काफ़िर	-9.68995
▁जाएंगे	-9.69159
▁गंगा	-9.69211
▁कराने	-9.69234
▁जु	-9.69288
▁कमांड	-9.69319
▁बजे	-9.69334
टक	-9.69498
▁प्रार्थना	-9.69519
▁तल	-9.69578
▁पर्यटन	-9.69778
▁पत्नी	-9.69779
ing	-9.69859
▁आनंद	-9.69883
न्स	-9.69906
▁अंतरण	-9.69994
▁मल	-9.70056
▁स्क्रीन	-9.70103
▁चीज	-9.70153
सो	-9.70175
▁आपूर्ति	-9.70175
▁जानी	-9.70205
▁संस्थाओं	-9.70226
▁बातचीत	-9.70245
▁काट	-9.70287
▁द्वार	-9.70376
▁छूट	-9.70399
▁बजाय	-9.70447
सम	-9.70541
र्त	-9.70552
▁मुझ	-9.7059
▁पेट	-9.70595
▁बनाते	-9.70599
▁उद्	-9.70622
ंप	-9.70625
▁डरते	-9.70668
श्	-9.70673
शु	-9.70673
▁अस्तित्व	-9.70713
क़यामत	-9.70748
▁पट्टी	-9.70788
ांग	-9.70889
क्षा	-9.70974
▁कर्मचारी	-9.71027
▁इन्	-9.71047
▁स्वतंत्र	-9.71067
▁आये	-9.71098
▁फसल	-9.71111
▁चे	-9.71179
▁खिलाफ	-9.71222
▁ऐतिहासिक	-9.7129
▁मिटाएँ	-9.71374
▁मिटा	-9.71379
▁बेटे	-9.71472
▁तेरे	-9.71503
▁किस्म	-9.71508
पि	-9.71514
▁अत्यधिक	-9.71553
▁प्रेरित	-9.71604
▁विद्यार्थियों	-9.71658
दो	-9.7173
च्च	-9.7178
H	-9.71805
▁पंचांग	-9.71819
फर	-9.71913
ठा	-9.72125
लिंग	-9.72143
▁टे	-9.7215
▁कौशल	-9.7218
पे	-9.72188
धर्म	-9.72192
्क	-9.72197
▁लक्षण	-9.72316
▁मामला	-9.72346
▁जड़	-9.72358
ियम	-9.72383
▁+	-9.72474
▁इकाई	-9.72525
▁परामर्श	-9.72558
▁मुसलमान	-9.72566
▁कक्ष	-9.72643
▁निशानी	-9.72646
चन	-9.72672
▁बुराई	-9.72739
ोप	-9.728
▁प्रारूप	-9.72843
▁बढ	-9.72852
लु	-9.72876
४	-9.72961
▁100	-9.73044
जात	-9.73056
▁अग्र	-9.7306
▁अल्प	-9.73079
क्का	-9.73116
▁स्तंभ	-9.73145
▁N	-9.73226
▁c	-9.73239
▁उतार	-9.73336
▁देखभाल	-9.7336
▁बिक्री	-9.7336
▁L	-9.73409
▁लाइन	-9.73525
▁होनी	-9.73525
▁प्रोत्साहन	-9.73575
▁गृह	-9.73583
र्व	-9.73587
▁चा	-9.73597
सल	-9.73654
▁आयतें	-9.73666
त्मक	-9.73709
▁दुआ	-9.73733
▁किसान	-9.73865
▁सार	-9.73959
जीव	-9.74101
▁बदलाव	-9.74128
▁सुबह	-9.7413
▁दोष	-9.74142
▁दर्ज	-9.74199
▁ज़ालिम	-9.74205
▁हराम	-9.74257
▁लाया	-9.74289
▁भगवान	-9.7429
▁पहाड़	-9.74325
▁प्रतिक्रिया	-9.74361
▁जमीन	-9.74397
▁बुनियादी	-9.74445
▁प्रचार	-9.74536
पूर्व	-9.74588
▁मैदान	-9.74642
▁लोकप्रिय	-9.74661
▁वादा	-9.74674
▁उपयोक्ता	-9.74764
▁...	-9.74803
िये	-9.75007
▁मां	-9.75084
लर	-9.75121
▁ईमानदारों	-9.75144
▁खास	-9.7519
▁रद्द	-9.75233
▁ठिकाना	-9.75309
▁नष्ट	-9.75318
▁प्राथमिकता	-9.75353
08	-9.75379
▁मंच	-9.75397
▁वाद्य	-9.7546
▁समस्त	-9.75577
▁कृष्ण	-9.75604
▁मनो	-9.75652
▁लोकतंत्र	-9.75656
ियर	-9.7568
▁दौड़	-9.75804
▁भाषण	-9.75813
क़ा	-9.75845
▁आठ	-9.75884
▁ग़रज़	-9.75952
▁फ़ैसला	-9.75968
▁ग्रंथ	-9.76007
▁नौ	-9.76134
▁चारों	-9.76153
¥	-9.76188
▁ख़ुश	-9.76247
▁आग्रह	-9.76251
▁रेखा	-9.7642
▁प्रकाशन	-9.76603
▁लगातार	-9.76604
▁बिहार	-9.76659
▁बैंकों	-9.76694
▁सीधा	-9.76729
▁आध्यात्मिक	-9.76742
▁रास्ता	-9.76746
▁अदा	-9.76782
▁आख़िर	-9.76792
▁कहता	-9.76864
▁अर्थात्	-9.76885
▁इतने	-9.76909
▁विविध	-9.76919
▁संबंधों	-9.76944
▁व्या	-9.76952
▁टा	-9.77038
▁शिकार	-9.77082
हालॉकि	-9.77135
▁पढ़ने	-9.7717
▁मौत	-9.77176
▁अर	-9.77231
▁बनने	-9.77262
▁न्यूनतम	-9.77298
▁सेवाएं	-9.77314
▁स्वा	-9.77323
30	-9.77364
▁पूजा	-9.77379
▁सामर्थ्य	-9.77465
िस्ट	-9.77573
▁पवित्र	-9.77577
▁in	-9.7758
▁रौशन	-9.77689
▁अक्षम	-9.77697
▁पेड़	-9.77881
ोस	-9.77904
▁फैल	-9.77948
▁असमर्थ	-9.77976
▁थोड़ा	-9.77983
▁ज्ञापन	-9.78026
▁ची	-9.78048
▁उम्र	-9.78082
▁स्मृति	-9.78175
▁उभर	-9.78196
▁यथा	-9.7825
▁स्त्रियों	-9.78308
▁तर	-9.78357
ीकृत	-9.78386
▁2.	-9.78404
तक	-9.78414
▁मज़ा	-9.78481
▁तथ्य	-9.78488
▁मेहरबान	-9.785
६	-9.78504
▁प्रायः	-9.78506
ज्ज	-9.78594
▁विमान	-9.78594
लैंड	-9.78772
▁वीर	-9.78801
▁करीब	-9.78839
▁एच	-9.78879
िक्स	-9.78889
▁शोध	-9.78955
▁शुक्र	-9.7896
▁गुमराही	-9.78982
निया	-9.79105
▁कोड	-9.79122
▁ख़ूब	-9.79156
सार	-9.79205
▁आंतरिक	-9.79213
▁शरीक	-9.79242
ुआ	-9.7931
▁औसत	-9.79385
9	-9.79386
▁ठहरा	-9.7943
▁निर्वाचन	-9.79555
▁तीव्र	-9.79612
कता	-9.79655
▁तभी	-9.7969
धा	-9.797
▁विषयों	-9.7976
▁वृक्ष	-9.79761
विज्ञान	-9.79771
▁नज़र	-9.79778
▁घरेलू	-9.79783
▁नजर	-9.79957
कारों	-9.79959
▁शाह	-9.79962
▁पुस्तिका	-9.80012
▁गवाही	-9.80025
र्ग	-9.80053
▁महत्त्वपूर्ण	-9.80136
▁संसाधनों	-9.8019
ro	-9.80241
हे	-9.80251
▁स्थानों	-9.80341
▁ज़रुर	-9.80413
▁नृत्य	-9.80472
▁तरीका	-9.80472
▁रास्ते	-9.8049
it	-9.80496
▁पारित	-9.80502
▁मीडिया	-9.80536
▁आओ	-9.80548
▁भार	-9.80582
▁मुंबई	-9.80587
▁त्याग	-9.80588
▁नागरिकों	-9.80596
हित	-9.80692
षण	-9.80746
▁प्रभार	-9.80799
▁दूरी	-9.80821
िड	-9.80919
दन	-9.8098
▁नेता	-9.81092
ेक	-9.81132
रोध	-9.81181
▁अनुमान	-9.81196
▁देखकर	-9.81198
▁रुपए	-9.8122
▁जोखिम	-9.81224
▁ख़ुद	-9.81276
▁संचालन	-9.81281
▁दस्तावेज़	-9.81318
▁दबा	-9.81364
चित	-9.81398
▁जल्द	-9.81404
जर	-9.81626
▁विधेयक	-9.8163
मार	-9.81696
▁उद्घाटन	-9.81805
at	-9.81828
:%	-9.8186
▁अभिप्रेत	-9.81864
▁भागीदारी	-9.81904
ेश्वर	-9.81945
ेर	-9.81955
▁रीति	-9.81986
▁दयावान	-9.81993
▁=	-9.81999
▁ऑनलाइन	-9.8204
▁बोले	-9.82041
▁परिस्थितियों	-9.82113
▁देवी	-9.82252
▁पूछा	-9.82266
ज्ञ	-9.82275
09	-9.82292
▁गोल	-9.82337
▁विश्लेषण	-9.8239
ाद	-9.82464
▁अध्याय	-9.82516
▁तमाम	-9.82626
▁सर्वोच्च	-9.82684
स्ता	-9.82791
▁भाषाओं	-9.82817
ॉन	-9.8282
▁सहकारी	-9.82894
▁घटा	-9.82904
ंब	-9.83023
▁तुझे	-9.83027
!"	-9.83071
▁मना	-9.83082
▁बाबत	-9.83109
▁दूसरों	-9.83157
▁खींच	-9.83157
▁वैध	-9.83181
▁सिवाय	-9.83218
▁मान्यता	-9.83225
▁गठन	-9.83276
गम	-9.83284
टन	-9.83301
प्प	-9.83323
▁वेद	-9.83329
▁टूट	-9.83366
▁लड़के	-9.83408
▁आरोप	-9.83474
▁माह	-9.83508
▁आसानी	-9.83512
▁असम	-9.83542
▁राज्यपाल	-9.83588
▁अगस्त	-9.83691
▁फोन	-9.83803
▁प्रतीत	-9.83879
▁स्वतः	-9.83892
▁दयालुता	-9.83988
ed	-9.84107
▁डाले	-9.84124
html	-9.84173
▁मीटर	-9.84347
▁पढ़ा	-9.84473
▁मोमिन	-9.84479
▁संवाद	-9.84498
▁कॉल	-9.84557
▁न्यायाधीश	-9.84586
▁मई	-9.84603
▁छिपा	-9.84668
चक	-9.84673
्रे	-9.84864
▁लड़ाई	-9.84865
▁मूर्ति	-9.84982
धी	-9.8504
▁उठाने	-9.85042
▁किनारे	-9.85075
▁घोषित	-9.85116
▁सर्वाधिक	-9.85203
▁फैसला	-9.85249
वाली	-9.85257
घर	-9.85315
गल	-9.85391
et	-9.85405
▁चू	-9.85424
▁चलने	-9.85451
▁डाटा	-9.8549
▁पशु	-9.85519
▁द्वीप	-9.856
▁कानूनी	-9.85636
▁लिंक	-9.85648
▁मू	-9.85665
▁संबोधित	-9.85672
मिन	-9.85745
▁आवास	-9.85764
फो	-9.85765
▁शुभ	-9.85791
▁उत्	-9.85803
▁भागों	-9.85821
05	-9.85853
▁चेतना	-9.86037
▁पसन्द	-9.86064
▁देखता	-9.86068
▁प्राथमिक	-9.86172
▁अनुरोध	-9.8618
▁जितना	-9.86282
ां	-9.86434
▁जाओगे	-9.86441
▁ग़ालिब	-9.86464
▁अज्ञात	-9.86525
ic	-9.86621
▁छह	-9.86697
यदि	-9.86703
▁̄à	-9.86709
▁अध	-9.86746
पत	-9.8677
▁विन्यास	-9.8679
▁आनन्द	-9.87018
▁आवाज़	-9.87043
▁उधार	-9.872
▁हत्या	-9.87201
▁हिंदी	-9.87234
▁अन्दर	-9.87264
▁करेगी	-9.87368
भारत	-9.87405
्ह	-9.87414
▁रस	-9.87417
▁आक्रमण	-9.87433
▁सरदार	-9.8744
▁महामहिम	-9.87447
भि	-9.87533
▁समृद्ध	-9.87561
▁युक्ति	-9.8757
्रा	-9.87575
▁24	-9.87614
▁प्रयत्न	-9.87633
लन	-9.87637
▁तोड़	-9.87652
▁प्रिय	-9.87677
माल	-9.87782
▁प्रतीक्षा	-9.87818
▁औलाद	-9.87819
▁संकट	-9.87847
▁बर्	-9.87901
खे	-9.87921
▁अनुरूप	-9.87991
▁देर	-9.88002
▁लिखी	-9.88008
▁G	-9.88046
▁निभा	-9.88094
▁लोगो	-9.88129
▁नेहरू	-9.8813
लोगों	-9.88141
▁उठाए	-9.88146
तल	-9.88185
▁मुक़ाबले	-9.88191
▁हार	-9.88207
▁अधिकारों	-9.88248
▁परिणामस्वरूप	-9.88257
17	-9.88286
▁नैतिक	-9.88313
▁विपरीत	-9.88315
▁मैने	-9.88318
▁बीमारी	-9.88332
मर	-9.88336
दू	-9.88346
▁लेंगे	-9.88349
▁उत्पादों	-9.8839
▁कमजोर	-9.88446
▁आरम्भ	-9.88448
14	-9.885
▁सिफारिश	-9.88565
चाल	-9.88613
ाते	-9.8868
▁दीवार	-9.88718
▁खुला	-9.8875
▁साबित	-9.88753
▁चीन	-9.88812
▁होंगी	-9.88835
िनी	-9.88837
▁उपबंधों	-9.88902
▁दया	-9.88907
प्त	-9.88976
▁सुझाव	-9.88977
▁प्रतिनिधित्व	-9.89016
▁प्रतिभा	-9.89078
तंत्र	-9.89154
▁बन्दगी	-9.89168
ाब	-9.8921
▁पंजाब	-9.89217
ट्ट	-9.89234
▁पाल	-9.89242
▁विद्यमान	-9.89254
तया	-9.89313
▁उपयोगी	-9.89315
दास	-9.8933
रस	-9.89349
िय	-9.89356
▁प्रेरणा	-9.89428
▁समझौता	-9.89443
▁३	-9.89472
▁यक़ीनी	-9.89505
▁शत्रु	-9.8956
mukh	-9.89568
▁कूटशब्द	-9.8957
न्ध	-9.89609
टिंग	-9.89619
▁ज़ाहिर	-9.89632
▁पृथ्वी	-9.89632
स्त्र	-9.89674
▁सहेज	-9.8968
▁प्रशंसा	-9.89696
▁नूह	-9.89697
▁जिनको	-9.89729
टिक	-9.89745
▁चिंता	-9.89764
▁जनसंख्या	-9.89822
▁सचिव	-9.89823
▁अर्	-9.89826
16	-9.89885
▁पट	-9.89909
▁कितना	-9.89923
▁औरतों	-9.89947
▁घटक	-9.90077
▁सीख	-9.901
डो	-9.90103
भार	-9.90212
▁री	-9.90226
धान	-9.90266
ियत	-9.90313
भाग	-9.90335
▁माप	-9.90346
▁दशक	-9.90452
▁सर्वेक्षण	-9.90456
▁मिनट	-9.90526
रिक	-9.90631
erje	-9.90646
prana	-9.90646
▁उपक्रम	-9.90647
नु	-9.90688
▁एंड	-9.90695
मुख	-9.90737
▁समाप्ति	-9.90758
la	-9.90837
▁सच्चा	-9.90864
▁जहाज	-9.90895
▁लेन	-9.90946
▁ताल	-9.90959
▁कर्तव्य	-9.90966
▁अर्थात	-9.91048
prh	-9.91094
▁शिखर	-9.91159
यल	-9.91164
▁खुली	-9.91197
ग्न	-9.91214
▁सृजन	-9.9127
णा	-9.91283
वेद	-9.91303
▁धैर्य	-9.91479
▁व्याख्या	-9.91498
▁बादशाह	-9.9153
▁वैसे	-9.9155
▁दिला	-9.9156
ाधिकार	-9.91588
▁वर्षा	-9.91612
ाकार	-9.91646
▁राजनैतिक	-9.91739
▁सन्तान	-9.91741
▁भंडार	-9.91753
ऱ	-9.91801
▁परंपरा	-9.91842
▁इन्कार	-9.91845
▁मुझसे	-9.91918
गण	-9.91971
▁छत	-9.92076
हु	-9.92164
▁उपभोक्ता	-9.92181
नेवाली	-9.92192
▁प्राधिकारी	-9.92269
ंभ	-9.92277
▁पंजीकरण	-9.92329
▁वहीं	-9.92366
▁उच्चतम	-9.92387
▁पर्वत	-9.92455
▁दान	-9.92467
अर	-9.92481
▁सड़क	-9.92504
क्षेत्र	-9.92544
h	-9.92627
िज़	-9.92682
तार	-9.92685
▁पाई	-9.92699
क्षण	-9.92762
वर्त	-9.92795
▁निकाय	-9.92799
्ज	-9.92854
▁मौ	-9.92858
▁टीम	-9.92861
▁कार्यान्वयन	-9.92905
ानी	-9.92928
▁पति	-9.92989
▁सहज	-9.93
▁साफ़	-9.93011
ैन	-9.93087
▁कम्प	-9.93091
▁अंतर्	-9.93167
कुफ़्र	-9.93171
कभी	-9.9318
▁21	-9.93183
▁पाते	-9.93184
▁शारीरिक	-9.9323
▁डाय	-9.9333
▁पुन	-9.93491
▁डाउनलोड	-9.93492
▁अधिसूचना	-9.93498
▁नबी	-9.93528
▁काफ़ी	-9.93544
▁संगठनों	-9.93559
V	-9.93597
▁अदालत	-9.93626
बिल	-9.93642
ल्ट	-9.93642
अज़ाब	-9.93663
मंडल	-9.93722
▁लिखित	-9.93788
▁चढ़	-9.93838
▁निहित	-9.93853
मिल	-9.93971
्द	-9.93975
ेंट	-9.93994
स्थान	-9.93999
▁मुद्दों	-9.94019
¤1	-9.9404
▁जाकर	-9.94064
▁ट्रैक	-9.94073
▁सुभाष	-9.94085
▁चुने	-9.94114
▁न्यास	-9.94245
ग्र	-9.94368
▁कनेक्शन	-9.94481
▁यु	-9.94484
▁चीज़ों	-9.94502
स्टर	-9.94507
▁पाठ्यक्रम	-9.9455
▁बरस	-9.94582
▁प्रबंधक	-9.94604
कर्ताओं	-9.94657
▁श्रम	-9.94661
▁उठाया	-9.94679
▁पेंशन	-9.9468
▁ड्र	-9.94763
बो	-9.94892
ॉल	-9.94916
▁अमेरिकी	-9.94946
▁शैक्षिक	-9.94946
▁सुविधाओं	-9.94992
▁धु	-9.95022
▁उड़	-9.95075
▁पड़ी	-9.95078
▁जिनसे	-9.95134
▁चुनौती	-9.95146
ङ	-9.95176
▁अक्षर	-9.95206
▁खान	-9.95221
न्या	-9.95241
क्र	-9.95242
▁जीत	-9.95264
वासी	-9.95302
जब	-9.95318
॰	-9.95413
▁पहुँचे	-9.95434
▁ताकत	-9.95438
▁फूल	-9.95453
▁उद्योगों	-9.95467
प्ल	-9.95496
▁परिवहन	-9.95547
03	-9.9556
्ता	-9.95625
▁तूने	-9.95642
le	-9.95791
▁जिले	-9.9593
▁घंटे	-9.96017
कर्म	-9.96023
▁प्रोत्साहित	-9.96085
फी	-9.96086
▁ज्ञात	-9.96104
▁गणना	-9.96124
▁वर्ण	-9.9623
▁31	-9.96257
▁दि	-9.96261
▁चक्र	-9.9627
ट्र	-9.96281
▁श्रृंखला	-9.96286
▁जैव	-9.96289
▁नक़ल	-9.96292
▁Name	-9.96347
▁उत्साह	-9.96354
▁बटन	-9.9637
चित्र	-9.96402
▁क़ा	-9.96426
पात	-9.9652
▁वर	-9.96526
स्ट्र	-9.96546
▁पूर्वी	-9.96598
▁लु	-9.96617
कुछ	-9.96651
▁दाखिल	-9.96759
ुन	-9.96827
▁केरल	-9.96864
▁फ्ल	-9.96883
▁कार्यवाही	-9.96896
▁समीक्षा	-9.96963
हत	-9.96976
▁धारण	-9.96982
▁एड	-9.9707
▁अगला	-9.97092
▁निगरानी	-9.97167
▁फिरऔन	-9.97167
▁नयी	-9.972
μ	-9.97235
▁यूनिट	-9.97236
▁युक्त	-9.9726
▁पूज्य	-9.97277
ून	-9.97284
▁अन्यथा	-9.97289
▁अकबर	-9.97372
▁रेलवे	-9.97413
▁बदलने	-9.97499
खी	-9.97499
▁कागज	-9.97531
z	-9.97543
▁छात्रों	-9.9755
▁ज़िन्दगी	-9.97576
बूझ	-9.97585
▁रहमत	-9.97607
गन	-9.97622
▁परिवर्तित	-9.97644
▁क़ुरान	-9.97685
▁मुश्किल	-9.97781
▁समर्पित	-9.97781
▁कहाँ	-9.97815
▁तलाश	-9.97854
th	-9.97854
▁आइ	-9.97859
▁सेटिंग	-9.9793
क्क	-9.98126
▁अभिव्यक्ति	-9.98133
▁मुलाकात	-9.98193
60	-9.9821
▁आवाज	-9.98236
▁मुक़र्रर	-9.98248
▁संयंत्र	-9.9829
▁स्कीम	-9.98293
▁महाराष्ट्र	-9.98325
▁घड़ी	-9.98333
▁हमसे	-9.98409
▁कलकत्ता	-9.98468
▁सरकारों	-9.98505
▁टि	-9.98521
▁सॉफ्टवेयर	-9.98537
▁संपादक	-9.98537
▁इंटरनेट	-9.98539
▁फेंक	-9.98577
▁मर्द	-9.98583
▁अवि	-9.9872
▁विशेषता	-9.98808
▁शु	-9.98819
▁नर	-9.98836
▁मस्तिष्क	-9.98882
▁राजस्थान	-9.98901
▁लॉग	-9.98918
▁मिलेगा	-9.98921
▁कॉ	-9.99088
हल	-9.99098
▁पुस्तकालय	-9.99099
▁आकर	-9.99108
▁अनुपात	-9.99111
▁प्रतिनिधि	-9.99139
▁जेल	-9.99158
▁लगते	-9.99202
▁साहस	-9.99237
▁चालू	-9.9925
▁(3)	-9.99257
▁सां	-9.99297
▁जादू	-9.99321
▁Z	-9.99337
▁सभ्यता	-9.99369
म्म	-9.9938
▁समग्र	-9.9939
▁साम	-9.99411
▁स्थिर	-9.99441
▁दिनांक	-9.99461
▁अस्थि	-9.9951
▁घट	-9.9957
▁विरोधी	-9.9961
▁80	-9.99649
▁लाते	-9.99704
▁तस्वीर	-9.99717
▁चर	-9.99755
▁मिसाल	-9.99787
▁झुक	-9.99837
50	-9.99855
▁विभाजन	-9.99857
नगर	-9.99928
▁मं	-9.9996
▁उक्त	-9.99966
▁पृष्ठभूमि	-10
▁तंग	-10.0002
▁फे	-10.0008
▁आसपास	-10.0014
जल	-10.0019
▁तथापि	-10.002
▁वंश	-10.0026
▁जरिए	-10.0042
▁भेजें	-10.0059
▁गुफा	-10.0059
▁फार्म	-10.006
▁प्रारंभिक	-10.006
▁नुकसान	-10.007
कुल	-10.0074
▁आना	-10.0076
▁सतह	-10.0078
15	-10.0078
▁संदेह	-10.0086
▁मोड़	-10.0089
▁वचन	-10.009
शास्त्र	-10.0091
लोक	-10.0097
▁अचानक	-10.0098
▁देय	-10.0118
▁निष्क्रिय	-10.012
▁महल	-10.0121
परि	-10.0126
▁विशेषज्ञ	-10.0126
▁इसको	-10.0132
नर	-10.0135
हाँ	-10.0137
▁ग्राहक	-10.0138
▁नंबर	-10.0144
ैर	-10.0146
▁जलवायु	-10.0148
▁कुफ्फ़ार	-10.0149
▁हवाई	-10.015
▁द्वि	-10.0151
18	-10.0155
▁कश्मीर	-10.0161
▁जुलाई	-10.0163
▁शहरी	-10.0165
▁महात्मा	-10.017
es	-10.0172
▁कदापि	-10.0176
▁U	-10.0187
▁लंबे	-10.0191
प्रति	-10.0197
रोह	-10.0199
02	-10.0205
▁रोकने	-10.0205
ृत	-10.0208
▁इनका	-10.0212
▁H	-10.0213
▁लै	-10.0216
▁मोबाइल	-10.0219
▁e	-10.022
▁अन्तर	-10.0221
04	-10.0224
▁दीर्घ	-10.0233
▁दरमियान	-10.0233
▁द्वितीय	-10.0241
वै	-10.0245
▁लानेवालो	-10.0249
▁दोहरा	-10.025
▁देखे	-10.0252
▁चमक	-10.0266
शे	-10.027
▁चाह	-10.0275
▁प्राधिकरण	-10.0276
▁मकान	-10.0277
▁चोट	-10.0282
ेक्ट	-10.0283
▁फ़ॉन्ट	-10.0284
षित	-10.0285
▁करोगे	-10.029
▁पुर	-10.029
▁शहरों	-10.0294
▁मॉडल	-10.0298
ट्स	-10.0301
▁ब्ल	-10.0313
▁क्षमाशील	-10.0317
▁दुखद	-10.032
06	-10.0329
▁सजदा	-10.033
hi	-10.033
बान	-10.0332
▁पड	-10.034
एच	-10.0345
▁n	-10.0347
क़ियामत	-10.0349
▁संलग्न	-10.0352
▁जन्नत	-10.0355
▁घाटे	-10.0362
▁सदा	-10.0363
फल	-10.0363
▁स्वच्छ	-10.0364
▁आराम	-10.0365
▁”-	-10.0369
▁इकट्ठा	-10.037
▁पारंपरिक	-10.037
जु	-10.0372
▁पू	-10.0381
us	-10.0383
▁समर्थित	-10.0393
▁नाथ	-10.0399
▁नेताओं	-10.0409
▁अनुदान	-10.0411
▁प्यार	-10.0415
▁नेपाल	-10.0417
▁अगल	-10.0421
मित	-10.0427
▁राजनीति	-10.0428
▁योजनाओं	-10.0433
▁बजा	-10.0435
▁आकर्षित	-10.0436
▁बंध	-10.0437
▁पुरानी	-10.0439
वाई	-10.0441
▁चलाने	-10.0441
▁ज़्यादा	-10.0443
▁साझा	-10.0445
फे	-10.0448
▁विशेषकर	-10.0453
्ड	-10.0453
▁जोड़ने	-10.046
▁कोशिका	-10.0462
▁नेअमत	-10.0464
ur	-10.0467
कृति	-10.0475
▁मूल्यों	-10.0477
▁सौर	-10.0481
▁प्रेस	-10.0487
▁कंपनियों	-10.0487
▁सागर	-10.049
क़्	-10.0496
:-	-10.05
▁सारा	-10.0501
▁अनक़रीब	-10.0502
▁आमतौर	-10.0502
▁पुष्टि	-10.0503
थे	-10.0513
▁चैनल	-10.0514
▁O	-10.0518
25	-10.0522
is	-10.0526
▁घटनाओं	-10.0529
▁कम्पनी	-10.053
▁नियंत्रित	-10.0532
▁बिलकुल	-10.0532
▁पत्रिका	-10.0542
▁फ्र	-10.0547
▁40	-10.0547
▁कू	-10.0548
▁परमाणु	-10.0554
्ज़	-10.0563
▁भंडारण	-10.0567
▁लकड़ी	-10.0569
▁लेखन	-10.057
▁शाम	-10.0576
▁नस्ल	-10.0578
▁28	-10.0582
▁विद्यालय	-10.0587
▁सुदृढ़	-10.0591
राज्य	-10.0592
▁विश्वविद्यालयों	-10.0594
▁ईमेल	-10.0617
▁प्रबंध	-10.0619
▁of	-10.0621
▁करवा	-10.0626
▁हैंः	-10.0628
▁दिख	-10.0636
▁दिखाता	-10.064
▁समावेश	-10.0643
▁फरवरी	-10.065
ाओं	-10.0651
▁बॉ	-10.0655
▁संविदा	-10.0658
▁तत्वदर्शी	-10.0666
▁प्रशासनिक	-10.0669
▁नाग	-10.0672
www	-10.0673
▁नवान्वेषण	-10.0673
▁कराया	-10.0675
ड्ड	-10.0688
▁इनकी	-10.0693
▁सब्र	-10.0695
▁अस्पताल	-10.0695
▁बौद्ध	-10.0696
भूत	-10.0701
▁साम्राज्य	-10.0703
▁दुख	-10.0705
▁बनाये	-10.0706
▁भटक	-10.0715
▁व्यावसायिक	-10.0718
दर्श	-10.0726
▁ज़िन्दा	-10.0726
13	-10.0727
▁फो	-10.0728
▁बिंदु	-10.0733
कालीन	-10.0733
▁विनिमय	-10.074
▁कुमार	-10.0741
▁संसदीय	-10.0743
▁नहरें	-10.0748
▁प्रावधान	-10.0749
▁रिक्त	-10.0749
▁उपस्थिति	-10.075
▁चेतावनी	-10.0763
▁वृ	-10.0763
▁शक्तियों	-10.0771
कम	-10.0775
ेंस	-10.0778
iii	-10.0801
▁विरासत	-10.0801
▁अना	-10.0807
▁बढ़ती	-10.0816
▁खराब	-10.0817
▁कामना	-10.082
▁थोड़े	-10.084
मै	-10.084
▁मंडल	-10.0856
▁पत	-10.0856
▁ढांचे	-10.0862
▁बाह्य	-10.087
▁w	-10.0874
▁अपेक्षित	-10.0877
▁चुना	-10.0877
▁अक्ष	-10.088
▁(%	-10.0888
▁खड़ी	-10.0896
जनक	-10.0901
▁स्वर	-10.0901
▁सुनने	-10.0903
▁बस्ती	-10.0911
ँग	-10.0915
▁प्रभुत्वशाली	-10.0915
▁शुरु	-10.0917
▁समझने	-10.0919
▁एकल	-10.0919
स्थापित	-10.092
▁भेंट	-10.0933
▁विविधता	-10.0935
▁जय	-10.0935
▁जू	-10.0939
▁मुसीबत	-10.0944
▁चूंकि	-10.0946
▁22	-10.0951
▁ज़ि	-10.0952
▁निवास	-10.0961
¤¦	-10.0961
▁2014	-10.0965
धन	-10.0967
▁सचेत	-10.0973
▁अप्र	-10.0977
है	-10.0977
ज़र	-10.0979
▁बहन	-10.098
▁छात्र	-10.0981
▁जानने	-10.0986
▁मारे	-10.0995
▁कप	-10.0995
▁नेक	-10.0996
▁सकेंगे	-10.0996
▁लिखे	-10.1
▁इल्म	-10.1001
पद	-10.1001
▁खोलने	-10.1004
▁मध्यम	-10.1005
▁उत्तरी	-10.1005
▁परिसर	-10.1006
▁देखना	-10.1007
िष्ट	-10.1011
पार	-10.1013
▁f	-10.1015
▁खेत	-10.1016
▁हटकर	-10.1018
▁बारगाह	-10.1027
ऑ	-10.1029
▁ईमानवालों	-10.1033
▁डरा	-10.1036
▁कड़ी	-10.104
▁बोस	-10.1052
▁अन्त	-10.1052
▁सबके	-10.1054
▁अभाव	-10.1055
ri	-10.1062
▁सांसारिक	-10.1062
▁अन्ततः	-10.1071
▁सवार	-10.1072
▁रहस्य	-10.1073
रुप	-10.1087
▁मास	-10.1092
▁बुद्ध	-10.1093
िकल	-10.1095
र्जन	-10.1096
▁2015	-10.1103
▁होम	-10.1105
▁परिचय	-10.1117
▁शिशु	-10.1126
ांक	-10.1126
▁23	-10.1129
▁दबाव	-10.1131
▁गुमराह	-10.1132
▁मस्जिद	-10.1133
▁संबद्ध	-10.1135
िप	-10.1142
▁दवा	-10.1142
▁टैब	-10.1142
▁दोबारा	-10.1147
▁नियुक्ति	-10.1149
▁समन्वय	-10.1151
▁सद	-10.1153
▁उत्कृष्ट	-10.1155
घात	-10.1158
▁फी	-10.116
▁अज	-10.1162
▁कलाकार	-10.1163
▁राजधानी	-10.1164
▁चरित्र	-10.1164
सभा	-10.1176
▁चीनी	-10.1176
▁रहेगी	-10.1185
ब्ब	-10.1185
▁मिलेगी	-10.1186
(	-10.1186
श्म	-10.1187
▁युवाओं	-10.1187
▁सिविल	-10.1189
▁खिला	-10.1193
as	-10.1194
▁प्रान्त	-10.1201
▁संग्रहालय	-10.1212
▁सम्पूर्ण	-10.1216
▁विनष्ट	-10.1219
▁ति	-10.122
▁४	-10.122
ब्र	-10.1224
▁क़िस्म	-10.1227
▁अनुग्रह	-10.1229
▁इंच	-10.1235
▁मिलते	-10.1242
▁Y	-10.1243
निर्	-10.1249
▁लंबी	-10.1251
▁सफेद	-10.1267
19	-10.1274
▁b	-10.1275
▁गांवों	-10.1286
▁तेरी	-10.1291
▁धातु	-10.1292
▁सूत्र	-10.1293
▁चली	-10.1297
▁प्रतिभूति	-10.1298
प्ट	-10.1298
▁हिंसा	-10.1299
▁प्रविष्ट	-10.13
▁१	-10.1305
▁गरीब	-10.1305
▁प्लगइन	-10.1315
▁चेहरे	-10.1315
यान	-10.1325
▁स्वस्थ	-10.1331
▁तयशुदा	-10.1338
▁अं	-10.1339
▁एकमात्र	-10.1342
▁सम्बन्धी	-10.1343
▁सौंप	-10.1352
▁मिलियन	-10.1352
▁दाख़िल	-10.1354
▁कैसा	-10.1357
▁26	-10.1361
▁दैनिक	-10.1363
▁दिखाने	-10.137
िकी	-10.137
िटी	-10.1372
▁आहार	-10.1378
▁कुरान	-10.1382
▁अस्थायी	-10.1387
info	-10.1389
▁प्रसार	-10.1389
▁अवतरित	-10.1395
▁रोगी	-10.14
कार्य	-10.1401
¤	-10.1403
▁आखिर	-10.1403
▁भेजने	-10.1407
स्ती	-10.1412
▁थोड़ी	-10.1412
▁धा	-10.1416
लेट	-10.1419
▁27	-10.142
ac	-10.1428
▁खण्ड	-10.1431
▁लाओ	-10.1431
▁पैर	-10.1432
▁जटिल	-10.1437
भव	-10.144
▁अर्ध	-10.144
▁नेकी	-10.1445
▁उपयोगकर्ता	-10.1446
▁बाकी	-10.145
▁आकृति	-10.1453
▁समझौते	-10.1459
▁वस्त्र	-10.1463
यु	-10.1469
ॉट	-10.1476
ूं	-10.1481
▁डरो	-10.1484
प्रभु	-10.1485
▁नील	-10.1487
क्ट	-10.1496
▁थो	-10.1498
▁शिक्षक	-10.1498
पोर्ट	-10.1501
▁इक	-10.1506
▁प्रथा	-10.151
▁मानवीय	-10.1512
▁g	-10.1513
▁प्रविष्टि	-10.1515
▁निशान	-10.1519
▁इसने	-10.1533
ीम	-10.1533
क़ायम	-10.1537
मार्ग	-10.1545
उप	-10.1548
¤	-10.1549
▁ऑडियो	-10.1557
कल्प	-10.1562
▁तुरंत	-10.1565
▁इमारत	-10.1565
▁फ़ाइलें	-10.1577
▁आश्चर्य	-10.1581
▁मॉ	-10.1583
समय	-10.1585
Q	-10.159
—	-10.159
▁भले	-10.159
▁हट	-10.1593
▁सुविधाएं	-10.1594
▁लिमिटेड	-10.1598
-2	-10.1605
▁चिह्न	-10.1606
▁W	-10.1618
▁शर्तों	-10.1621
पान	-10.1625
▁निर	-10.1626
▁झुठला	-10.1626
▁विभाजित	-10.1631
▁क्षति	-10.1633
▁कही	-10.1633
▁पालने	-10.1636
▁सर्वोत्तम	-10.1639
▁सराहना	-10.1639
ंडा	-10.1641
▁दिव्य	-10.1641
▁गहरा	-10.1645
▁अनुसूचित	-10.1645
▁बच्चा	-10.1647
ch	-10.1649
दारी	-10.1654
▁जाल	-10.1654
▁फु	-10.1656
▁दोनो	-10.1658
▁फै	-10.1663
▁गिरफ्तार	-10.1664
▁निरीक्षण	-10.1664
ॉँ	-10.1666
▁हिकमत	-10.1672
▁अम	-10.1672
जैसे	-10.1675
▁ट्र	-10.1675
▁जिम्मेदारी	-10.1676
▁लौटा	-10.1677
▁हरि	-10.1681
▁समुद्री	-10.1683
लिया	-10.1688
¤1⁄4	-10.1689
¤¡	-10.1697
▁अनुमोदन	-10.1697
▁संपादित	-10.1714
▁संध्या	-10.1718
▁सतत	-10.1731
▁कारक	-10.1735
▁निकाला	-10.1735
्टी	-10.1736
▁सितंबर	-10.1755
▁पाँच	-10.1755
ol	-10.1757
ानु	-10.1758
▁जंगल	-10.1761
▁स्टेशन	-10.1767
▁लगाए	-10.177
बंध	-10.1771
▁लाइसेंस	-10.1772
▁संवर्धन	-10.1775
▁3.	-10.1777
▁क्रांति	-10.1779
▁वर्गों	-10.178
▁बिगाड़	-10.178
▁पल	-10.1782
देन	-10.1787
▁उन्नत	-10.1792
ia	-10.1793
▁स्वीकृति	-10.1796
▁हिमालय	-10.1806
▁समृद्धि	-10.1807
▁ठोस	-10.1807
▁डो	-10.1808
▁उपखंड	-10.1817
▁प्रवाह	-10.1835
फू	-10.1835
▁हार्दिक	-10.1839
▁संपादन	-10.1842
▁खत्म	-10.1849
K	-10.1858
▁घड़	-10.1861
▁बुरे	-10.1863
▁क़ुरआन	-10.1866
▁बनाता	-10.1871
▁साथी	-10.1878
▁मोदी	-10.1879
मगर	-10.1887
▁प्रतिष्ठित	-10.189
▁जुड़ा	-10.1895
▁एकता	-10.1895
क़त	-10.1897
▁आवश्यकताओं	-10.1898
▁प्रदूषण	-10.1898
▁भरा	-10.1902
▁मक्का	-10.1906
खंड	-10.1915
▁विहित	-10.1924
▁खाओ	-10.1926
▁नीतियों	-10.1929
तों	-10.1931
▁अभिलाभ	-10.1933
शाला	-10.1934
-19	-10.1935
▁2000	-10.1937
▁प्रचलित	-10.194
म्बर	-10.1943
▁राहत	-10.1947
▁चौड़ाई	-10.1949
ंगल	-10.1952
▁दर्शा	-10.1957
बन्ध	-10.1957
▁ऋ	-10.1959
लिन	-10.1961
▁बाधा	-10.1962
▁हस्त	-10.1963
शोथ	-10.1963
ोगे	-10.1977
▁द्विपक्षीय	-10.1983
▁आफ	-10.1985
▁सुनते	-10.1987
ूत	-10.1993
▁दृढ़	-10.2008
▁स्वचालित	-10.2009
▁गहन	-10.2011
वृत्त	-10.2031
▁0.	-10.2032
हरे	-10.2033
▁क़दम	-10.2035
▁उन्होने	-10.2036
कन	-10.2036
▁रेडियो	-10.2037
▁आयी	-10.2039
▁अग्रणी	-10.2044
अनु	-10.2044
▁कॉलेज	-10.2053
▁परिभाषित	-10.2053
▁फ़िल्म	-10.206
▁उपर	-10.2063
▁सावधान	-10.2066
▁भावी	-10.2069
▁2016	-10.2076
ब्ल	-10.2077
▁रोज	-10.2079
▁लॉ	-10.208
▁उतना	-10.2088
ल्ली	-10.2088
▁t	-10.2091
iv	-10.2091
ेय	-10.2092
हद	-10.2092
▁कौ	-10.2095
▁सोचा	-10.2096
▁सुनता	-10.2098
▁समझे	-10.2099
▁आदान	-10.21
▁डिजाइन	-10.2103
तू	-10.2106
फ़ी	-10.2108
▁मछली	-10.2112
▁स्वाभाविक	-10.2112
▁पार्क	-10.2116
▁मोह	-10.2122
तुल	-10.2122
राव	-10.2125
▁फट	-10.2129
▁विपणन	-10.2129
▁फर्म	-10.2135
▁कर्नाटक	-10.2138
▁कारोबार	-10.2138
▁निष्कर्ष	-10.2138
▁संक्रमण	-10.214
▁जहन्नम	-10.2143
्री	-10.2144
▁परहेज़गार	-10.2144
▁जिहाद	-10.2148
▁कपड़े	-10.2148
▁बीमार	-10.216
▁मुंह	-10.2164
▁अली	-10.2179
▁बन्दे	-10.219
षा	-10.2195
ंदा	-10.2197
कै	-10.2206
▁जोड़ा	-10.2207
▁बक	-10.2208
▁बहुतेरे	-10.2208
▁चिह्नित	-10.2212
▁चेक	-10.2216
लिस	-10.2219
▁भक्ति	-10.222
▁गुजर	-10.2226
स्य	-10.2227
▁संरक्षक	-10.2228
▁उगा	-10.2229
Comment	-10.2237
▁दिसंबर	-10.2242
एँगे	-10.2253
▁मज़बूत	-10.226
▁विनियम	-10.2265
▁k	-10.2266
णी	-10.2278
▁वकील	-10.2278
▁दर्द	-10.228
▁बचत	-10.2282
▁भरे	-10.2284
्‍या	-10.2285
▁डिफ़ॉल्ट	-10.2286
▁घेर	-10.2288
▁सूर	-10.2288
▁सलाम	-10.2289
▁ज़रा	-10.2294
▁साहित्यिक	-10.2294
▁टिप्पणी	-10.2295
▁आजादी	-10.2299
ख्या	-10.2303
▁हथियार	-10.2304
▁l	-10.2305
▁मसल	-10.2309
नियम	-10.2319
▁पैकेज	-10.2322
▁एकत्र	-10.2322
▁ऊंचाई	-10.2325
▁छाया	-10.2327
▁अंग्रेज	-10.2328
▁बोली	-10.2334
न्दा	-10.2336
▁उतारा	-10.2342
चु	-10.2346
▁धन्यवाद	-10.2348
▁साइट	-10.235
▁मुगल	-10.2353
लय	-10.2353
▁2013	-10.2354
▁ज़ालिमों	-10.236
▁समूहों	-10.2364
ैक	-10.2365
मेरे	-10.2366
▁60	-10.2373
िस्तान	-10.2375
▁दौर	-10.2377
ल्ला	-10.2378
्टे	-10.2381
▁h	-10.2384
▁लेती	-10.2385
▁ऊपरी	-10.2386
ra	-10.239
▁जम	-10.2395
▁सहमत	-10.24
लाइन	-10.2405
▁अल्	-10.2412
▁असर	-10.2413
▁चंद्र	-10.2414
▁बहा	-10.2418
▁सुर	-10.2419
▁चाहा	-10.2425
ाप	-10.2427
मोमिनीन	-10.2428
▁यूरोपीय	-10.2432
07	-10.2434
▁सीधी	-10.2443
प्रा	-10.2445
▁महीनों	-10.2446
आख़िर	-10.2449
▁सामूहिक	-10.2455
क़्त	-10.2458
जितनी	-10.2459
▁भेजी	-10.2459
ce	-10.2461
▁उड़ा	-10.2471
ोज	-10.2478
रियों	-10.2488
▁स्था	-10.249
▁क़त्ल	-10.2491
▁रुचि	-10.2492
मूल	-10.2493
▁स्वर्ण	-10.2494
▁मानना	-10.2499
▁संत	-10.2499
▁दुर्घटना	-10.25
▁बजट	-10.25
▁आर्	-10.2502
द्य	-10.2504
▁कीट	-10.2506
▁चाहेंगे	-10.2509
्ला	-10.2515
▁सन	-10.2521
प्रदान	-10.2522
▁स्टे	-10.2528
▁समझता	-10.2533
▁सत्यापन	-10.2537
▁त्वचा	-10.2545
ऊँ	-10.2547
▁वरिष्ठ	-10.2554
▁तत्काल	-10.2555
▁अन्तर्गत	-10.2555
▁गहरी	-10.2557
W	-10.2559
▁ड्राइव	-10.2563
ालय	-10.2563
▁मंदिरों	-10.2564
▁समानता	-10.2566
▁सदी	-10.2574
▁विवेक	-10.2581
पिता	-10.2584
जान	-10.2587
▁दू	-10.2587
▁संगम	-10.2599
▁ईरान	-10.26
▁अग्रिम	-10.2601
▁हिंदुस्तान	-10.2608
अप	-10.261
हमारे	-10.2614
धे	-10.2617
▁क्षण	-10.2618
▁बाध्य	-10.2623
▁गर्भ	-10.2623
▁फ़रिश्ते	-10.2627
▁उद्यान	-10.2627
▁हितों	-10.2635
▁लूत	-10.264
▁लिपि	-10.2642
▁अरबी	-10.2644
ul	-10.2645
▁पीढ़ी	-10.2645
▁पैमाने	-10.265
▁आएगा	-10.2651
-1	-10.2653
▁डॉलर	-10.2656
▁सीमाओं	-10.2659
▁पासवर्ड	-10.2661
▁५	-10.2671
▁तंत्रिका	-10.2672
de	-10.2674
विमर्श	-10.2682
▁उल्लेखनीय	-10.2683
िला	-10.2686
▁पूर्ति	-10.2689
▁क्रिकेट	-10.269
▁देवता	-10.2692
▁शिक्षण	-10.2692
▁जानवरों	-10.2701
▁देखी	-10.2702
▁भि	-10.2715
▁यूसुफ	-10.2735
स्तर	-10.2737
पू	-10.2738
▁सीडी	-10.274
▁अनुज्ञात	-10.2742
ड़ियों	-10.2743
क्ल	-10.2749
▁X	-10.2752
▁उल	-10.2754
▁डेस्कटॉप	-10.2755
▁जम्मू	-10.2755
▁प्रवृत्ति	-10.2762
▁ग़ौर	-10.2765
▁प्रांत	-10.2768
2014	-10.2773
▁चन्द	-10.2773
▁quot	-10.2773
▁शोक	-10.2774
▁प्रतिबंध	-10.278
▁इसराईल	-10.2782
▁विनिर्माण	-10.2786
▁सदस्यता	-10.2787
▁नौकरी	-10.2787
▁नेशनल	-10.2792
कू	-10.2793
▁भु	-10.28
▁सशक्त	-10.2804
क्योंकि	-10.2809
▁आंध्र	-10.281
▁पहलू	-10.2811
▁भेद	-10.2812
▁बांध	-10.2815
▁दास	-10.2817
▁बौद्धिक	-10.2819
▁अंतरिक्ष	-10.2819
वर्ग	-10.2821
र्ध	-10.2831
)...	-10.2835
▁चै	-10.2839
li	-10.2845
▁अपनाया	-10.2851
▁मिलाकर	-10.2852
▁रसायन	-10.2857
▁अवसरों	-10.2857
ध्या	-10.2863
▁हॉ	-10.2865
▁>>	-10.2866
▁जानवर	-10.2869
ाशय	-10.2872
▁तुम्हे	-10.2873
▁विरूद्ध	-10.2875
▁साइ	-10.2881
▁चीजों	-10.2883
▁/	-10.2884
हरा	-10.2888
▁घो	-10.2891
▁पक्षों	-10.2894
▁चाहें	-10.2895
\\	-10.2901
▁असाधारण	-10.2903
▁कष्ट	-10.2905
कला	-10.2905
▁यथास्थिति	-10.2913
el	-10.2914
▁तकलीफ़	-10.2915
▁वृत्त	-10.2916
▁भरी	-10.2919
▁जै	-10.2922
▁पूर्वावलोकन	-10.2922
वाल	-10.2923
22	-10.2929
ad	-10.293
▁मांस	-10.2933
▁फ़िल्टर	-10.2941
▁अहले	-10.2941
▁हमको	-10.2944
▁फ़िरऔन	-10.2945
▁अमर	-10.2948
गाह	-10.2948
र्ब	-10.2959
आप	-10.296
▁दावे	-10.2964
सिंह	-10.2968
▁प्रतियोगिता	-10.2969
▁नवीन	-10.2971
याद	-10.2978
▁अर्जित	-10.2979
▁तीसरे	-10.298
छा	-10.2983
ावधि	-10.2984
▁सम्भव	-10.2989
ाएगा	-10.2992
▁पोर्ट	-10.2992
लाल	-10.2995
▁दर्दनाक	-10.2997
हाल	-10.3
▁यूँ	-10.3005
▁ऊतक	-10.3008
ियाई	-10.3015
▁शासक	-10.3017
▁इंडियन	-10.3017
▁बेच	-10.3019
vi	-10.3023
▁चाय	-10.3023
▁फोटो	-10.3027
▁बचाव	-10.303
क़ी	-10.3033
▁कठिनाई	-10.3033
▁कुशल	-10.3035
▁डूब	-10.3036
▁बैठा	-10.3061
23	-10.3064
▁दुकान	-10.3064
▁पंजीकृत	-10.3064
▁पौधों	-10.3064
क्के	-10.3067
▁बाहम	-10.3073
▁बाबू	-10.3083
▁संहिता	-10.3083
▁राजस्व	-10.3088
▁प्रेषित	-10.3092
▁अंतः	-10.3092
▁पहन	-10.3094
▁भागीदार	-10.3095
मू	-10.3096
विक	-10.3101
▁अक्तूबर	-10.3102
पाद	-10.3104
▁गर्म	-10.3104
▁घाटी	-10.3106
▁ख्वाह	-10.3109
रह	-10.3115
मुसलमानों	-10.3119
किसी	-10.3119
▁प्रसंग	-10.3121
▁संदाय	-10.3125
ूक	-10.3135
▁घूम	-10.3144
tr	-10.3146
▁दुश्मन	-10.315
▁तत्वों	-10.3152
▁खतरा	-10.3159
▁to	-10.317
▁मूलभूत	-10.3172
¤«	-10.3179
▁भूख	-10.3181
शासन	-10.3185
▁संभाल	-10.3189
▁लिंग	-10.3193
▁गरीबी	-10.3196
▁बारह	-10.3197
▁श्र	-10.3206
▁त्रुटिः	-10.3212
ुष	-10.3216
▁गठित	-10.3217
▁पुस्तकों	-10.3222
▁आज्ञा	-10.3235
▁प्रत्य	-10.3248
▁साथियों	-10.3251
▁केंद्रित	-10.3252
▁ध्वज	-10.3256
▁शक्तिशाली	-10.3258
फ्ट	-10.3258
▁कहेगा	-10.3263
▁ज़ोर	-10.327
▁सिं	-10.3275
detail	-10.3275
▁ईसाई	-10.3282
अच्छा	-10.3287
▁आउट	-10.3291
▁शर्त	-10.3293
लेख	-10.3293
▁फायदा	-10.3295
▁छिप	-10.3296
▁पं	-10.3304
▁अधिकरण	-10.3306
▁ब्रह्म	-10.3306
स्थल	-10.3311
ho	-10.3312
▁आलोचना	-10.3314
press	-10.3315
▁छोड़ा	-10.3316
▁वाहन	-10.332
▁*	-10.332
क्टर	-10.332
▁सजा	-10.3328
ity	-10.3332
विध	-10.3333
▁संक्षिप्त	-10.3334
पै	-10.3335
▁कथन	-10.3336
▁बैंकिंग	-10.3336
▁हलाक	-10.3339
▁श्रेष्ठ	-10.334
▁उपकरणों	-10.3342
▁दलील	-10.3346
ीज	-10.3349
▁व्यक्तित्व	-10.3349
▁सहमति	-10.3349
▁वाणिज्यिक	-10.3368
▁उल्लंघन	-10.3373
▁</	-10.3373
्थ	-10.3377
▁माने	-10.3382
Y	-10.3383
▁2017	-10.3384
▁गुरू	-10.3389
▁काफिरों	-10.3395
▁सैनिक	-10.3397
▁देगें	-10.3401
ूँगा	-10.3405
▁जला	-10.3408
ेक्स	-10.3408
▁ढांचा	-10.3412
▁सुसंगत	-10.3412
समझ	-10.3414
▁अत	-10.3417
्लो	-10.342
▁शरण	-10.3429
▁सिखा	-10.343
▁सिल	-10.3435
शाली	-10.3441
▁35	-10.3442
दर्शन	-10.3444
▁तह	-10.3445
▁भारतीयों	-10.3445
ांतर	-10.3449
▁लगती	-10.345
▁गाँव	-10.3452
▁कोविन्द	-10.3452
▁निष्पादन	-10.3452
▁योग्यता	-10.3453
▁मुक्ति	-10.3457
▁अमल	-10.3459
▁अभिदाता	-10.3464
▁गौरव	-10.3464
▁जिम्मेदार	-10.3467
▁नेत्र	-10.3468
▁लाना	-10.3469
▁वार	-10.3471
दाय	-10.3492
पल	-10.3494
▁औषध	-10.3495
▁कहे	-10.35
▁ग्राफ	-10.35
▁द्रव	-10.3501
▁परिस्थिति	-10.3503
क्शन	-10.3506
▁उद	-10.3516
▁विद्रोह	-10.3521
▁सम्पर्क	-10.3521
▁उलट	-10.3522
▁उज	-10.3523
मक	-10.3529
जीवन	-10.3541
▁मादा	-10.3548
▁प्रभाग	-10.3549
्ति	-10.3549
ञ	-10.355
▁दुःख	-10.3551
▁परम्परा	-10.3551
▁विद्वान	-10.3564
▁चुनौतियों	-10.3571
▁1961-201	-10.3573
▁पड़ती	-10.3578
ढ़ा	-10.3579
▁डिजिटल	-10.3581
▁पोस्ट	-10.3583
▁पौ	-10.3583
▁छाप	-10.3587
िव	-10.3593
▁जायेगी	-10.3598
ंडी	-10.3603
▁पहुंचे	-10.3608
▁पैरवी	-10.361
▁गढ़	-10.3611
▁औपचारिक	-10.3611
▁पड़ेगा	-10.3619
▁अनुपालन	-10.3622
▁सकाः	-10.3622
▁क्ष	-10.3626
पित	-10.3633
▁अद	-10.3635
▁फ़रिश्तों	-10.3641
▁प्ला	-10.3649
▁बेटा	-10.3652
▁2005	-10.3664
▁६	-10.367
गू	-10.367
▁प्रत्या	-10.3671
▁संभावित	-10.3671
▁अंतराल	-10.3675
पेक्ष	-10.3675
ाइन	-10.3678
▁चाहती	-10.3681
▁अकेले	-10.3682
हू	-10.3684
ter	-10.3684
▁ऊ	-10.3685
▁बढ़ने	-10.369
▁नवंबर	-10.3692
▁खिल	-10.3694
▁निवासी	-10.3702
▁गतिविधि	-10.3703
▁टुकड़े	-10.3705
ज्ञान	-10.3706
▁चन्द्र	-10.3711
▁वंचित	-10.3712
▁परिवारों	-10.3717
▁घु	-10.3718
34	-10.3727
▁बनकर	-10.3731
ेयर	-10.3735
००	-10.3736
▁खुल	-10.3739
▁स्वीकृत	-10.3746
▁जयंती	-10.3753
▁कक्षा	-10.3753
ायी	-10.3755
धारी	-10.3772
▁बस्तियों	-10.3773
जिन	-10.3774
लंब	-10.3775
्टर	-10.3778
se	-10.3779
शोध	-10.378
▁रूस	-10.3781
▁मनुष्यों	-10.3781
▁क़ुबूल	-10.3783
ग्रह	-10.3785
59	-10.3788
▁स्वामित्व	-10.3793
▁उपलब्धि	-10.3796
ष्टि	-10.38
▁रिकार्ड	-10.3805
▁रोका	-10.3807
▁चिकित्सक	-10.3811
▁कृपा	-10.3814
▁उपज	-10.3821
▁ठंड	-10.3823
▁परसतिश	-10.3824
▁गिन	-10.3826
▁चीजें	-10.3831
▁धारणा	-10.3831
▁लगाना	-10.3832
▁साक्ष्य	-10.3845
▁यहूदी	-10.3845
थि	-10.3856
▁पैसे	-10.3858
▁कूट	-10.3874
▁पिछली	-10.3876
▁विद्यार्थी	-10.3876
▁कारणों	-10.3881
▁पूछो	-10.3887
श्व	-10.3893
▁समुचित	-10.3896
▁चीज़े	-10.39
ेन्ट	-10.3901
▁दरबार	-10.3906
▁साझीदार	-10.3907
▁अनाज	-10.3907
सान	-10.391
▁पंख	-10.391
ठी	-10.3912
ग़रज़	-10.392
▁आबादी	-10.3926
htm	-10.3926
39	-10.3928
▁‘‘	-10.394
▁विष्णु	-10.394
धीरे	-10.3946
त्स	-10.3951
X	-10.3951
िमा	-10.3958
▁संचालित	-10.3959
▁कमज़ोर	-10.3959
▁दक्षिणी	-10.396
▁प्रतिमा	-10.3961
▁प्राधिकार	-10.3965
presidentofindia	-10.3969
▁शिल्प	-10.397
ेन्द्र	-10.397
▁लेगा	-10.397
त्री	-10.3974
▁गहराई	-10.3978
▁ब्राह्मण	-10.3981
release	-10.399
¤¬	-10.399
▁पदार्थों	-10.3993
▁ख़ा	-10.3997
नेवालों	-10.4
▁रिजर्व	-10.4
▁निष्ठा	-10.4001
डिया	-10.4002
▁पंच	-10.4003
▁छू	-10.4006
▁उत्पादक	-10.4012
▁जनरल	-10.4021
▁मुल्क	-10.4024
▁छुटकारा	-10.4032
गढ़	-10.4039
▁प्रतिष्ठा	-10.4041
55	-10.4047
▁पीने	-10.4052
▁रॉ	-10.4054
▁स्वभाव	-10.4055
▁सरपरस्त	-10.4063
अब	-10.4066
डु	-10.4069
गुण	-10.4069
रोपण	-10.4075
▁सफलतापूर्वक	-10.4077
▁जुड़ी	-10.4078
▁अर्ज़	-10.4081
प्स	-10.4082
▁मौलिक	-10.4085
▁सामान्यतः	-10.4092
▁ब्रिटेन	-10.4095
▁रवीन्द्रनाथ	-10.4095
▁निकले	-10.4104
▁आमंत्रित	-10.4105
▁शिक्षकों	-10.4107
▁पोषण	-10.4113
▁29	-10.4114
भ्य	-10.4114
▁इलाज	-10.4118
▁रोम	-10.4119
▁जायें	-10.412
नेट	-10.4122
▁खून	-10.4131
▁कोलकाता	-10.4137
▁पंडित	-10.4137
▁रहमान	-10.414
▁डराने	-10.4144
▁गणित	-10.4146
▁बीस	-10.4148
▁टाल	-10.4151
सूची	-10.4153
▁मददगार	-10.4154
▁गर्व	-10.4155
▁छोड	-10.4156
▁इल	-10.417
▁मुह	-10.417
▁ज़बान	-10.4171
▁अंड	-10.4174
पूर	-10.4176
विचार	-10.4184
ation	-10.4189
▁अंध	-10.419
▁इनसे	-10.4191
क़ुरान	-10.4194
ग्रस्त	-10.4199
▁बग	-10.42
▁स्मारक	-10.4201
▁(4)	-10.4205
▁गोया	-10.4206
वाय	-10.4211
▁गल	-10.4216
▁स्मरण	-10.4218
रात	-10.4218
पट्टी	-10.423
▁संस्थापित	-10.424
मैन	-10.4245
मिक	-10.4247
21	-10.4252
▁निकलने	-10.4255
▁कमरे	-10.4268
▁कराना	-10.4269
▁अन्तिम	-10.4277
▁जानकर	-10.4278
सूर	-10.4282
▁बुक	-10.4284
▁वारिस	-10.4289
▁आदम	-10.429
▁मशीनरी	-10.429
्मा	-10.4291
सीसी	-10.4294
ण्ट	-10.4296
▁उत्तरदायी	-10.4299
▁रानी	-10.4301
न्ना	-10.4302
▁दरिया	-10.4303
▁किलोमीटर	-10.4308
▁वैसा	-10.4308
▁जुड़	-10.431
▁भग	-10.4315
▁आरंभिक	-10.4318
ॊ	-10.4319
▁चावल	-10.4321
रंग	-10.4328
▁हाथी	-10.4333
▁इस्लामी	-10.4334
ंडर	-10.4334
यंत्र	-10.4336
▁इलेक्ट्रॉनिक	-10.434
▁उठे	-10.434
▁आद	-10.434
▁विनाश	-10.4341
▁घन	-10.4342
▁प्रयोगशाला	-10.4346
▁बाग	-10.4353
▁पहुंचने	-10.4355
▁आचरण	-10.4356
▁दस्त	-10.436
▁ज़कात	-10.4362
▁प्रकाशना	-10.437
▁सकी	-10.4371
▁रै	-10.4372
▁प्रयोक्ता	-10.4373
टिव	-10.4379
▁विद्या	-10.4383
▁संशोधित	-10.4383
▁दिमाग	-10.4384
▁सेक्टर	-10.4388
▁रास्त	-10.4391
ौल	-10.4391
्यो	-10.4401
▁आसमानों	-10.4402
▁आदत	-10.4405
▁बचाने	-10.4407
इश	-10.441
विद	-10.4411
▁बिन्दु	-10.4413
▁जातियों	-10.4414
ैल	-10.4416
▁कर्ता	-10.4419
जिस	-10.4422
▁स्वप्न	-10.4427
▁पौधे	-10.4433
▁सिद्धांतों	-10.4438
▁अनुसूची	-10.444
▁तिल	-10.444
विन	-10.4442
▁अग्नि	-10.4442
▁एयर	-10.4444
▁ग्र	-10.4455
▁आमाल	-10.4456
▁क़रीब	-10.446
▁आपसे	-10.4462
▁शीत	-10.4462
ृष्ट	-10.4463
ज्ञा	-10.4466
▁ईमानवाले	-10.4472
वासियों	-10.4475
▁मासिक	-10.448
▁आउटपुट	-10.4482
गामी	-10.4487
स्थापन	-10.4487
हरी	-10.4488
राष्ट्रीय	-10.4491
▁पहाड़ी	-10.4492
▁पुल	-10.4492
▁इन्सान	-10.4493
▁तापमान	-10.4495
▁इसपर	-10.4495
▁पिला	-10.4497
▁अत्याचार	-10.4506
▁बहस	-10.4507
▁बांट	-10.451
▁झील	-10.4511
वर्तन	-10.452
▁हैदराबाद	-10.4526
ेगी	-10.4529
निर्देश	-10.4532
ुत	-10.4537
▁उद्देश्यों	-10.4539
▁अश	-10.4539
ावली	-10.454
▁फ्रांस	-10.4548
▁प्रोजेक्ट	-10.4548
▁शो	-10.4548
▁भर्ती	-10.4548
▁शंकर	-10.4553
संघ	-10.4577
▁बल्लेबाज	-10.4581
्टन	-10.4581
▁माइक्रो	-10.4581
स्‍त	-10.459
▁वर्णित	-10.459
रान	-10.4594
▁बुलाया	-10.4595
▁समर्थ	-10.4597
▁लिखें	-10.4597
वालो	-10.4599
▁दिलचस्प	-10.4603
▁रणनीति	-10.4603
▁बढ़ते	-10.4606
_	-10.4608
56	-10.461
il	-10.461
¤¶	-10.4625
▁सोने	-10.4626
▁चढ़ा	-10.4626
▁इसीलिए	-10.4628
त्म	-10.4628
▁दम	-10.4633
ण्य	-10.4634
▁लड़की	-10.4635
▁गहरे	-10.4641
▁न्यायिक	-10.4644
▁तमिलनाडु	-10.4647
▁मित्रों	-10.4649
65	-10.465
▁अत्याचारी	-10.4658
▁पंचायत	-10.4659
०००	-10.4661
▁इनपुट	-10.4663
खु	-10.4668
▁फज़ल	-10.467
▁जादूगर	-10.4671
▁१८	-10.4676
▁देगी	-10.4676
ॉप	-10.4677
▁सकेगी	-10.4679
भ्र	-10.4679
▁दूरस्थ	-10.468
ल्फ	-10.4681
▁समाहित	-10.4682
▁कृति	-10.4689
▁मानवता	-10.469
▁शराब	-10.4693
▁पोजीशन	-10.4703
▁सिंचाई	-10.4703
▁प्रसन्न	-10.4707
▁१०	-10.4707
▁महाभारत	-10.4707
पादन	-10.4708
ख़बरी	-10.471
▁महाराजा	-10.471
▁जापान	-10.4711
▁घुस	-10.4712
दाता	-10.4713
अल	-10.4714
000	-10.4716
पत्ति	-10.4717
▁V	-10.4719
▁जीन	-10.473
▁एकीकृत	-10.4735
▁कम्प्यूटर	-10.4737
▁परिवेश	-10.4737
▁खनिज	-10.4737
▁पुरुषों	-10.4737
▁तुर्की	-10.4739
▁डालें	-10.474
क्रिया	-10.4741
▁उच्चतर	-10.4741
मेन	-10.4742
▁जोड़े	-10.4745
▁वाक़िफ	-10.475
▁जायेंगे	-10.4753
▁#-#-#-#-#	-10.4759
▁ज़रिए	-10.4759
▁संतुष्ट	-10.476
स्‍	-10.476
▁सम्मानित	-10.4767
▁हाज़िर	-10.4771
▁बू	-10.479
आख़ेरत	-10.4793
▁सकारात्मक	-10.4793
▁बट	-10.4794
▁एहद	-10.48
लीन	-10.4802
▁अभ्यास	-10.4805
▁शैक्षणिक	-10.4805
प्राप्त	-10.4806
▁समितियों	-10.4806
▁बहादुर	-10.4816
▁परिभाषा	-10.4818
्यता	-10.4822
क्रि	-10.4828
मह	-10.4832
म्भ	-10.4833
▁अकेला	-10.4839
वती	-10.484
▁अध्य	-10.4844
▁विभेद	-10.4853
64	-10.4854
47	-10.4857
▁साझी	-10.4858
▁साहब	-10.4862
▁सैन्य	-10.4862
योजन	-10.4872
ुस	-10.4873
▁गेंद	-10.4882
▁संदेय	-10.4884
▁सम्बंध	-10.4885
▁गण	-10.4888
▁असं	-10.489
ाणु	-10.4895
▁com	-10.4896
▁नवम्बर	-10.4896
▁कुफ्र	-10.4898
▁पाये	-10.4903
▁धो	-10.4903
40	-10.4904
▁वापसी	-10.4905
▁मानी	-10.4908
▁कोष	-10.4916
▁तारा	-10.4917
▁4.	-10.4918
▁अमरीकी	-10.4918
am	-10.492
▁सावधानी	-10.4922
st	-10.4922
▁१५	-10.4924
बाद	-10.4924
▁चिन्ह	-10.4925
ख्त	-10.4928
▁स्तन	-10.4929
▁एहसान	-10.493
▁तरीकों	-10.493
▁नै	-10.4935
▁हू	-10.4941
▁दर्जे	-10.4945
▁सहारा	-10.4953
▁अवज्ञा	-10.4953
▁वाणिज्य	-10.4958
त्ता	-10.4965
▁रखकर	-10.4965
24	-10.4965
▁शानदार	-10.4966
वर्धन	-10.4966
▁लंबाई	-10.4971
▁व्यस्त	-10.4971
दिन	-10.4971
▁निकालने	-10.4975
रानी	-10.4975
▁कनेक्ट	-10.4976
▁ढक	-10.4982
त्रिक	-10.4983
▁उत्पा	-10.4985
▁संवेदनशील	-10.4987
▁भंग	-10.499
▁प्लेट	-10.4992
तुम्हारे	-10.4996
▁विक्रय	-10.4997
▁हस्तक्षेप	-10.4999
▁कीजिए	-10.5
▁पह	-10.5004
ss	-10.5008
▁प्रवृत्त	-10.5013
▁मुद्दे	-10.5022
▁कायम	-10.5023
वर्ड	-10.5023
ma	-10.5031
▁हटाएँ	-10.5032
ैट	-10.5034
▁निष्	-10.5041
▁प्रसाद	-10.5045
▁पाता	-10.5046
फ़र	-10.5048
दर्शी	-10.5049
▁आकलन	-10.5057
▁ढूंढें	-10.5058
ज़े	-10.5059
▁जैन	-10.5067
▁प्रसंस्करण	-10.5068
च्छेद	-10.5075
▁अभिगम	-10.5082
त्तर	-10.5085
▁वर्	-10.5088
लै	-10.509
ाइज	-10.509
▁प्रतिफल	-10.5091
▁मानता	-10.5094
क्की	-10.5096
▁बेल	-10.5098
▁तकलीफ	-10.51
▁लाइ	-10.5101
रचना	-10.5103
▁स्‍	-10.5104
▁सम्पत्ति	-10.5104
▁पुकारा	-10.5108
▁मार्क	-10.511
▁बोलते	-10.5113
धू	-10.5115
ाधीन	-10.5127
▁संतुलन	-10.5127
यक	-10.5128
▁उतनी	-10.513
▁औरतें	-10.5133
▁रिकॉर्ड	-10.5138
▁व्यवस्थित	-10.5138
▁प्रतिकूल	-10.5143
▁वनस्पति	-10.515
▁दाहिने	-10.515
ुम	-10.515
▁टॉ	-10.5152
▁अनुक्रम	-10.5153
▁वैज्ञानिकों	-10.5154
▁प्रक्रियाओं	-10.5154
▁संधि	-10.5157
75	-10.5158
▁विष	-10.516
कथा	-10.5161
▁शोर	-10.5162
▁रुक	-10.5163
▁रचनात्मक	-10.5176
▁पोत	-10.5177
▁2012	-10.5181
▁अवधारणा	-10.519
पैग़म्बर	-10.5195
▁विनय	-10.5198
ha	-10.5201
▁रच	-10.5207
49	-10.5208
▁उल्लिखित	-10.5209
▁देशी	-10.521
रक्षक	-10.5216
▁अंकित	-10.5219
▁2001	-10.5222
▁90	-10.5226
▁कोशिकाओं	-10.5232
▁प्रतिदिन	-10.5239
क्यू	-10.5243
▁उभार	-10.5244
▁सच्ची	-10.5244
▁मिश्रण	-10.5247
▁मृत	-10.5248
ड़ों	-10.5252
बस	-10.5252
▁पथभ्रष्ट	-10.5256
बोध	-10.5265
ापन	-10.5267
▁विश्वसनीय	-10.5268
▁बदकार	-10.5269
सेट	-10.5274
▁शैल	-10.528
▁चाँद	-10.528
विधि	-10.5281
थन	-10.5282
डीए	-10.5286
▁श्वेत	-10.5292
▁तेज़	-10.5298
▁ढूंढ	-10.5299
▁अन्ध	-10.5301
▁सम्राट	-10.5304
▁डालते	-10.5304
▁मज	-10.5305
ांकन	-10.5319
38	-10.5319
▁परिचित	-10.532
वही	-10.5327
उसके	-10.5328
▁निकाले	-10.5331
▁तैयारी	-10.5332
ैश	-10.5332
वाँ	-10.5333
▁दर्शाता	-10.5337
▁वरीयता	-10.5339
▁हलाल	-10.5346
स्थिति	-10.5346
▁मिस्र	-10.5352
▁i	-10.5362
भूमि	-10.5366
निशानियों	-10.5373
▁देह	-10.5384
▁पीड़ित	-10.5387
▁2019	-10.5393
con	-10.5398
▁बोध	-10.5399
मुखी	-10.54
▁गुट	-10.5409
▁झा	-10.5411
▁खतरे	-10.5411
▁बोला	-10.5412
▁मंजूरी	-10.5412
▁आँखों	-10.5413
मिट	-10.5415
▁खर	-10.542
▁अलबत्ता	-10.5423
▁रज	-10.5425
2015	-10.5425
▁ढेर	-10.5425
▁याची	-10.5429
▁भाष्	-10.5432
▁व्यष्टि	-10.5437
▁गांधीजी	-10.544
▁रखती	-10.545
ानुसार	-10.5451
▁बडी	-10.5457
कट	-10.5458
▁आह्वान	-10.5459
▁लंबा	-10.546
तसबीह	-10.546
▁यथार्थ	-10.5461
▁समुदायों	-10.5466
ज्जा	-10.5467
▁ग्राहकों	-10.5476
▁लानत	-10.5484
बह	-10.5487
मंद	-10.5496
▁सुन्दर	-10.5496
▁वास्तविकता	-10.5503
▁पदों	-10.551
▁कर्ण	-10.5514
▁2007	-10.5514
सूचना	-10.5519
▁औजार	-10.552
▁सीखने	-10.5523
▁होटल	-10.5525
▁आरक्षित	-10.5526
▁पन	-10.553
▁क्रमशः	-10.5532
▁तीर्थ	-10.5532
ल्क	-10.5534
▁असली	-10.5541
▁टिकट	-10.5542
▁प्ले	-10.5547
▁2006	-10.5547
▁कार्बन	-10.5548
स्को	-10.5551
▁चो	-10.5552
▁राहे	-10.5557
नहीं	-10.556
▁पृथक	-10.5565
▁श्रीमती	-10.5569
▁चैतन्य	-10.5581
▁उत्सव	-10.5581
▁पुष्प	-10.5587
▁y	-10.5591
मुझे	-10.5593
▁जितने	-10.5593
▁क़ाबू	-10.5595
▁ग्रा	-10.5596
ध्व	-10.5599
▁प्रजाति	-10.5599
▁प्रशांत	-10.56
▁छु	-10.56
▁दिखाए	-10.56
▁संग	-10.5601
▁श्रोत	-10.5604
▁आदमियों	-10.5604
¥	-10.5605
▁स्टेट	-10.5613
▁हंस	-10.5613
▁सल	-10.5615
▁प्रजनन	-10.5618
▁डिग्री	-10.5618
ट्री	-10.5618
▁घनिष्ठ	-10.5619
यत	-10.562
▁बेस	-10.5622
▁संभवतः	-10.5622
▁नामः	-10.5625
▁रोज़	-10.5626
भू	-10.5629
▁अमरीका	-10.563
▁पान	-10.5638
ाबाद	-10.5641
▁अनुमोदित	-10.5642
▁प्रासंगिक	-10.5642
▁मजबूर	-10.5642
▁पंज	-10.5644
▁प्रभार्य	-10.5645
दादा	-10.5651
▁एजेंसी	-10.5655
▁हां	-10.5655
▁व्यावहारिक	-10.5667
37	-10.5667
▁सूचित	-10.567
योग्य	-10.5672
▁शांत	-10.5678
▁क्रेडिट	-10.5679
▁घाट	-10.5679
▁पुस्तकें	-10.568
age	-10.568
▁संपन्न	-10.5683
▁(1	-10.5685
▁पढ	-10.569
▁फायदे	-10.5692
हट	-10.5699
▁पट्ट	-10.5699
▁जर्मनी	-10.57
उनकी	-10.5706
▁पुराण	-10.5708
▁मोटर	-10.5711
▁लगाते	-10.5714
▁बिता	-10.5716
▁कैसी	-10.5717
▁सिद्धान्त	-10.5719
बत	-10.5721
▁आव	-10.5723
▁194	-10.5723
▁छि	-10.5724
▁लेबल	-10.5725
▁शर	-10.5726
▁क़ादिर	-10.5729
▁अतीत	-10.573
▁आधा	-10.5731
फि	-10.5735
घा	-10.5737
▁टाइप	-10.5739
लिप	-10.5744
▁बीत	-10.5748
▁सलाहकार	-10.5749
▁मातृ	-10.5753
नुमा	-10.5754
▁पुकारते	-10.5754
▁मुर्द	-10.5754
▁झगड़	-10.5755
रक्षण	-10.5756
▁बर्फ	-10.5758
me	-10.5761
te	-10.5764
▁किन्हीं	-10.5766
▁प्राधिकृत	-10.5766
ंदी	-10.5772
▁संलग्नक	-10.5772
▁चलाया	-10.5773
▁प्रबन्ध	-10.5774
शो	-10.5776
शीलता	-10.5776
▁भौगोलिक	-10.5779
लिखित	-10.5779
▁निधन	-10.5783
▁सम्बन्धित	-10.5786
हान	-10.5787
दृष्टि	-10.5787
▁संपदा	-10.5791
▁गद्य	-10.5796
▁दक्षता	-10.5797
ोत्	-10.5797
द्वार	-10.5801
▁जवाहरलाल	-10.5804
▁कुदरत	-10.5804
ख्वाह	-10.5805
तब	-10.5807
़त	-10.582
▁तुझ	-10.5822
▁ट्रा	-10.5823
▁वास	-10.5823
▁फरमा	-10.5826
▁ग्रस्त	-10.5826
▁115	-10.5828
▁हिन्दुस्तान	-10.5829
▁राजकुमार	-10.583
▁राजभाषा	-10.583
▁एकदम	-10.5832
▁प्रश्नों	-10.5833
▁वसूली	-10.5835
शाह	-10.5838
ग्राम	-10.5841
▁रेशम	-10.5842
ल्प	-10.5848
▁प्रोटोकॉल	-10.5854
▁चट्टान	-10.5854
▁जुटा	-10.5858
▁दाम	-10.5858
▁गुणों	-10.5861
▁32	-10.5864
▁प्रोफेसर	-10.5866
▁अर्पित	-10.5868
▁विद्वानों	-10.5875
▁भगवान्	-10.5877
▁लिखते	-10.5891
▁लोकतांत्रिक	-10.5892
▁हज़ार	-10.5892
्यूट	-10.5894
▁नाक	-10.5897
▁पक्षी	-10.5902
▁लेखकों	-10.5904
▁आंशिक	-10.5904
▁उर्दू	-10.5904
▁विज्ञप्ति	-10.5904
▁वाल	-10.5909
▁बरसात	-10.5914
▁ऑफ़	-10.5921
▁re	-10.5927
▁सचमुच	-10.5929
▁खबर	-10.5931
▁भरें	-10.5934
▁उपायों	-10.5936
▁वर्मा	-10.5936
▁गंतव्य	-10.5942
▁टर्मिनल	-10.5942
▁लहर	-10.5946
य्य	-10.5946
▁कन्	-10.5953
▁एं	-10.5955
▁असल	-10.5956
▁तत्त्व	-10.5962
▁अक्टूबर	-10.5968
▁ज़बरदस्त	-10.5968
▁पारस्परिक	-10.5968
▁फलस्वरूप	-10.5968
‍	-10.597
भाषा	-10.597
▁व्यापारी	-10.5971
▁ऑंख	-10.5972
दल	-10.5972
▁प्रस्तावित	-10.5978
▁रोगों	-10.5979
▁संगणना	-10.598
बुल	-10.5981
▁हमला	-10.5983
क्रो	-10.5984
▁नाप	-10.5992
▁विवरणी	-10.5992
▁यानी	-10.5992
्ते	-10.5996
▁हिमाचल	-10.6006
▁अखिल	-10.6006
▁टैग	-10.6008
ज्य	-10.6012
वत्	-10.6014
om	-10.6018
हाय	-10.6018
▁उतारी	-10.602
मानी	-10.6022
▁सर्विस	-10.6023
▁ग्ल	-10.6024
▁विभागों	-10.6029
▁फोल्डर	-10.6031
▁नदियों	-10.6032
▁लिखना	-10.6034
▁अर्जन	-10.6038
▁दीवान	-10.6043
69	-10.6044
▁दीजिए	-10.6044
▁अफ	-10.6049
▁अधिकारिता	-10.6053
IN	-10.6053
ड्र	-10.6055
▁पुराना	-10.6056
▁आशय	-10.6057
मूल्य	-10.606
▁प्लस	-10.6066
साफ़	-10.6068
▁अस्वीकार	-10.607
▁आंकड़ा	-10.607
▁गर्दन	-10.607
▁गर्मी	-10.6073
▁हजारों	-10.6074
▁हकदार	-10.6074
▁शे	-10.6079
▁जागरूकता	-10.6081
▁क्रियाकलाप	-10.6083
▁इकाइयों	-10.6083
▁स्तरों	-10.6086
▁आधारभूत	-10.6088
▁नरम	-10.6093
▁बाँध	-10.6096
▁वृत्ति	-10.6099
शर	-10.6108
▁रामायण	-10.6109
▁एन्	-10.6113
्‍त	-10.6114
▁उठाना	-10.6116
▁o	-10.6117
▁मंगल	-10.6119
कालिक	-10.6125
▁गे	-10.6128
▁दिखायें	-10.6128
▁इंड	-10.6133
▁उर्वरक	-10.6135
▁निगाह	-10.6138
▁ट्यूब	-10.614
▁2002	-10.6142
▁न्यायालयों	-10.6142
▁कुशलता	-10.6143
फरिश्ते	-10.6147
▁वैदिक	-10.6147
▁प्रभु	-10.6149
▁लड़का	-10.6151
▁पाप	-10.6155
▁K	-10.6157
▁पड़ने	-10.616
▁ज़रूरत	-10.6163
काम	-10.6164
▁देशवासियों	-10.6168
▁झूठे	-10.6168
श्य	-10.6171
र्श	-10.6173
▁बेटों	-10.6174
रोग	-10.6174
▁भांति	-10.6175
▁शेयरों	-10.6186
▁दिसम्बर	-10.6186
▁पनाह	-10.6187
रहित	-10.6191
▁दशकों	-10.6192
j	-10.6194
▁मंद	-10.6195
▁ईंधन	-10.6199
▁ब्रह्मा	-10.62
▁पूर्ववर्ती	-10.6201
स्सा	-10.6202
▁मचा	-10.6211
▁चलती	-10.6212
▁दर्शक	-10.6214
▁दूँगा	-10.6219
▁पसंदीदा	-10.6225
उसकी	-10.6232
▁कार्यरत	-10.6232
२००	-10.6234
▁वैकल्पिक	-10.6238
▁संगठित	-10.6238
▁अपराधी	-10.6241
▁डालने	-10.6247
डब्ल्यू	-10.6251
▁शास्त्र	-10.6256
बाज़	-10.6267
थी	-10.6269
रेशन	-10.6269
▁व्याख्यान	-10.6275
▁अधिसूचित	-10.6277
बहुत	-10.6282
▁घास	-10.6284
▁u	-10.6287
▁नज़दीक	-10.6291
जुल	-10.6292
▁निदेश	-10.6294
▁आपदा	-10.6295
धारा	-10.6296
▁ढा	-10.6297
▁सकल	-10.6299
लिए	-10.63
ंगो	-10.6309
77	-10.6317
लिक	-10.6319
▁75	-10.6321
▁चैन	-10.6321
▁तमिल	-10.6324
ध्य	-10.6325
▁शेर	-10.6325
▁उन्होनें	-10.6328
¥	-10.633
ate	-10.6338
▁गुलाम	-10.6345
▁इम	-10.6348
▁महत्त्व	-10.6354
▁माइ	-10.6356
▁गारंटी	-10.6356
▁योजनाएं	-10.636
▁मंडप	-10.6369
▁सत्यापित	-10.637
अधि	-10.6371
▁क्यू	-10.6375
▁अंततः	-10.6376
▁डाली	-10.6388
्ले	-10.6388
▁आएगी	-10.6389
फ्र	-10.639
डल	-10.6396
▁परिश्रम	-10.6396
▁समूद	-10.6396
विल	-10.6399
धु	-10.6399
▁बालक	-10.64
आउट	-10.6401
▁होगें	-10.6405
वंश	-10.6407
▁प्रबल	-10.6409
▁प्रचालन	-10.641
▁चुकता	-10.6411
▁हटाने	-10.6412
▁पैसा	-10.6413
▁होगे	-10.6413
▁सिरे	-10.6415
66	-10.6423
▁आतंकवादी	-10.6427
▁कहां	-10.6431
▁देखोगे	-10.6433
▁सीता	-10.6434
▁तेरा	-10.6438
▁बडे	-10.6441
▁अंग्रेजों	-10.6443
▁बनना	-10.6444
▁रंज	-10.6448
28	-10.645
▁प्रतिबद्धता	-10.6451
▁असामान्य	-10.6453
निष्ठ	-10.6462
▁बीविय	-10.6467
▁प्रजा	-10.647
▁फसलों	-10.6472
▁आईडी	-10.6474
▁अज्ञान	-10.6476
▁सोसाइटी	-10.6476
▁अवयव	-10.6476
▁भरपूर	-10.6479
▁2020	-10.6482
▁पहलुओं	-10.649
▁साक्षी	-10.649
▁सम्पन्न	-10.649
▁संगत	-10.6493
▁ज़िक्र	-10.6494
▁आपसी	-10.6497
ent	-10.6498
▁जाया	-10.6501
झा	-10.6504
▁पॉ	-10.6509
▁बचे	-10.6509
बाल	-10.651
वृत्ति	-10.6512
▁नकद	-10.6516
▁सन्देह	-10.6517
▁साधनों	-10.652
▁निपटान	-10.6521
▁अटल	-10.6521
प्रणाल	-10.6522
▁तीसरा	-10.6523
ांश	-10.6523
▁प्रमाणित	-10.6532
स्राव	-10.6532
▁भरने	-10.6537
▁ग्रे	-10.6538
2016	-10.6538
पास	-10.654
▁पैनल	-10.6544
▁फरमाया	-10.655
▁5.	-10.6552
धिक	-10.6555
उनके	-10.6556
▁प्रभावशाली	-10.656
▁भक्त	-10.6561
▁सिख	-10.6567
▁झोंक	-10.6568
प्रद	-10.6572
▁उपलब्धता	-10.6573
▁चीज़ें	-10.6576
▁छुपा	-10.6578
ab	-10.658
▁इरादा	-10.6584
▁रहम	-10.6587
▁बताता	-10.6589
वेल	-10.659
▁करेंः	-10.6592
▁अधिकृत	-10.6592
रियल	-10.6594
▁प्रावधानों	-10.6595
मात्र	-10.6599
▁अपनाने	-10.6603
▁श्रद्धा	-10.6611
वर्ष	-10.6612
▁दादा	-10.6613
43	-10.6617
▁दोज़ख़	-10.6624
▁रन	-10.6627
73	-10.6631
▁सहयोगी	-10.6635
▁फुट	-10.6638
▁मारा	-10.6638
▁गुणा	-10.6643
▁अन्तर्	-10.6644
▁आस्तियों	-10.6645
▁बिट	-10.6654
‘	-10.6655
op	-10.6661
▁धनराशि	-10.6665
35	-10.6665
▁मतभेद	-10.6666
▁डॉक्टर	-10.6667
▁यक़ीन	-10.6669
▁ट्रे	-10.6677
▁समापन	-10.6678
▁पचास	-10.6679
▁यहीं	-10.668
▁200	-10.668
▁जीवों	-10.6685
मोहन	-10.6689
▁ठहर	-10.6692
▁टेलीफोन	-10.6692
▁पाकीज़ा	-10.6693
58	-10.6693
▁स्विच	-10.6693
▁सारांश	-10.6693
to	-10.6694
▁इतर	-10.6696
▁राज़ी	-10.6696
▁झूठा	-10.6697
▁पड़ते	-10.6701
▁व्यापारिक	-10.6701
▁कृतज्ञता	-10.6702
▁भुला	-10.6704
▁कचरा	-10.6706
▁वाक्य	-10.6708
▁प्रवर्तन	-10.6713
ैक्ट	-10.6719
▁प्रतिदान	-10.6719
▁मुहम्मद	-10.672
▁नकारात्मक	-10.672
र्रा	-10.6721
▁बनता	-10.6727
गृह	-10.6728
▁निरा	-10.673
67	-10.6731
▁शेख	-10.6732
▁दार्शनिक	-10.6734
▁लंदन	-10.6734
Z	-10.674
▁भाग्य	-10.6747
he	-10.6749
▁याचिका	-10.6752
▁मश	-10.6753
▁तथ्यों	-10.6758
▁फ्रेम	-10.6762
ेंद्र	-10.6764
▁लाएँ	-10.677
ly	-10.677
▁टीका	-10.6774
▁भेड़	-10.6777
▁उन्हे	-10.6782
▁दुर्	-10.6785
▁गईं	-10.6786
▁मेहनत	-10.6789
▁परोक्ष	-10.679
▁ठहराया	-10.679
ल्ले	-10.6798
▁पुरूष	-10.6799
▁कालेज	-10.68
▁बताते	-10.6804
▁कार्यालयों	-10.6805
▁माफ	-10.6806
▁गतिशील	-10.6808
2013	-10.6811
▁सिंध	-10.6812
▁गिनती	-10.6812
¥	-10.6816
निर्माण	-10.6817
▁कार्यान्वित	-10.682
भोग	-10.6821
▁पर्व	-10.6822
पुरुष	-10.6825
▁आयुर्वेद	-10.683
▁अंशदान	-10.6833
▁बां	-10.6833
ंबर	-10.6833
▁शीर्षिका	-10.6838
▁नौका	-10.6841
म्मा	-10.6842
दूर	-10.6843
▁बढा	-10.6847
▁विडियो	-10.6849
▁साझेदारी	-10.6854
▁ज्योति	-10.6858
▁अनि	-10.6859
▁जानना	-10.6861
▁स्तरीय	-10.6862
▁ख़ौफ	-10.6869
▁आंकड़े	-10.6872
▁कीटों	-10.6873
▁बचने	-10.6874
▁चाहो	-10.6877
ग्राफ	-10.6877
▁रोकते	-10.6882
▁डीवीडी	-10.6886
▁खिलाड़ी	-10.6889
▁विचारधारा	-10.689
ग्रे	-10.6891
▁नायक	-10.6894
▁गवर्नर	-10.69
्रि	-10.69
▁भाइयों	-10.6901
▁प्रतिलिपि	-10.6901
▁दस्तावेजों	-10.6902
▁ख्वाहिश	-10.6915
▁ट्रांस	-10.6916
▁स्ट्र	-10.6922
ईमान	-10.6925
▁तीनों	-10.6926
▁{0}	-10.6928
▁उत्तरदायित्व	-10.6928
88	-10.6928
▁कमाई	-10.6934
▁बाज़ार	-10.6936
ायत	-10.6937
▁प्रसारण	-10.6937
▁आदर	-10.6938
▁45	-10.694
▁संगणक	-10.6942
▁इराक	-10.6943
26	-10.6943
ाचार्य	-10.6944
▁विज्ञापन	-10.6956
▁रहित	-10.6956
ूंगा	-10.6958
▁प्रतिरोध	-10.6958
▁शत	-10.6959
▁पीछा	-10.696
▁ईंट	-10.6962
▁हाइ	-10.6965
▁एव	-10.6966
▁डाक्टर	-10.6973
श्च	-10.6979
weather	-10.6984
▁गिरा	-10.6984
▁ग्रह	-10.6984
▁मान्य	-10.6988
▁अध्यक्षता	-10.6999
किस	-10.7002
▁देखेंगे	-10.7011
▁सूरज	-10.7012
▁नमूना	-10.7012
▁आयकर	-10.7013
▁नाते	-10.7014
▁हज	-10.7018
बर्ग	-10.7023
▁कण	-10.7025
▁सौभाग्य	-10.7026
▁पिछला	-10.7026
वस्था	-10.7028
▁इष्ट	-10.7028
▁स्रोतों	-10.7031
▁आएँ	-10.7042
▁वस्तुएं	-10.7044
▁ताप	-10.7044
▁क्रोध	-10.7044
▁नारायण	-10.7047
45	-10.7047
गिर	-10.7053
▁नमक	-10.7054
▁उड़ीसा	-10.7054
रेट	-10.7055
▁जवान	-10.7056
▁पादप	-10.7057
▁संक्रिया	-10.706
हें	-10.7065
▁संयोजन	-10.7066
▁चोरी	-10.7069
29	-10.7075
िकाओं	-10.7077
▁अपनाई	-10.7078
▁बिन	-10.7078
ट्ठ	-10.708
lo	-10.708
▁इंग्लैंड	-10.7083
▁आकर्षण	-10.7083
▁v	-10.7085
▁बाक़ी	-10.7086
▁मरियम	-10.7087
81	-10.7096
▁आस्था	-10.7096
▁कृत्रिम	-10.7097
62	-10.7111
▁फूट	-10.7112
ित्र	-10.7115
▁r	-10.7117
▁प्रवासी	-10.712
पटल	-10.7122
सऋ	-10.7122
di	-10.7123
▁नकल	-10.7124
▁अभिभाषण	-10.7126
▁जग	-10.713
▁लोकसभा	-10.7131
▁पोल	-10.7132
▁हिम	-10.7133
रिस	-10.7133
▁शिक्षित	-10.714
्हा	-10.7141
र्ति	-10.7141
▁जिलों	-10.7143
▁धान	-10.7147
स्थि	-10.7148
▁प्रारम्भ	-10.7148
▁बड़	-10.7148
क्षेप	-10.7152
▁लाइब्रेरी	-10.7154
दाद	-10.7156
▁चौक	-10.716
▁सूरत	-10.7161
▁स्वच्छता	-10.7163
▁निकाह	-10.7169
63	-10.7169
▁विधा	-10.717
प्पा	-10.7174
31	-10.7175
▁प्रतिवादी	-10.7177
्नी	-10.718
.–	-10.7181
▁बम	-10.7184
▁करूँ	-10.7185
▁परेशान	-10.7186
▁पढ़ते	-10.7188
85	-10.719
▁तबाही	-10.7194
▁मौका	-10.7195
▁अतिथि	-10.7197
▁लटक	-10.7201
▁समझना	-10.7204
▁लक्ष्यों	-10.7206
ियल	-10.7209
▁मनपसंद	-10.7212
▁भावनाओं	-10.7215
▁लीग	-10.7217
99	-10.7217
▁संचित	-10.7219
▁परिवर्तनों	-10.7223
पक्ष	-10.7227
▁हाउस	-10.7237
ir	-10.7237
▁स्थितियों	-10.7238
▁देवताओं	-10.724
68	-10.724
▁दुर्लभ	-10.724
▁ऑफ़लाइन	-10.7241
▁`	-10.7241
▁क़रार	-10.7242
▁जुल	-10.7243
78	-10.7244
▁देनेवाला	-10.7247
▁लाएँगे	-10.7248
आईटी	-10.725
▁अगरचे	-10.7255
▁अकादमी	-10.7255
▁यातायात	-10.7255
क्रमण	-10.7256
▁मानदंड	-10.7256
▁भव्य	-10.7264
▁राष्ट्रों	-10.7265
▁कानूनों	-10.7269
▁आवरण	-10.7271
भोज	-10.7276
▁संतान	-10.7276
▁७	-10.728
▁बताए	-10.7281
▁मुशरिक	-10.7284
▁महासागर	-10.7284
क्रे	-10.7285
▁be	-10.7286
वो	-10.7286
▁बालों	-10.7291
▁निकास	-10.7294
▁अपेक्षाकृत	-10.7294
▁भ्रम	-10.7294
,–	-10.7296
▁कैंसर	-10.7298
▁निचले	-10.7298
▁रजिस्टर	-10.7298
▁पाना	-10.7304
▁टिक	-10.7306
▁अंडे	-10.7307
▁जरूर	-10.7307
▁लाखों	-10.7308
▁अवस्थित	-10.7308
94	-10.7309
मण्डल	-10.731
▁मानकों	-10.7312
शेष	-10.7313
▁क्रय	-10.7316
▁बेहिश्त	-10.732
▁पाओगे	-10.7322
▁पीड़ा	-10.7326
▁सौंदर्य	-10.7327
▁एक्सचेंज	-10.7328
▁सच्चाई	-10.7329
डिंग	-10.7329
ेन्स	-10.733
▁छुट्टी	-10.7332
▁बनाओ	-10.7333
▁मोहन	-10.7336
वसाय	-10.7337
▁एजेंसियों	-10.7342
र्ज़	-10.7348
योजित	-10.7355
▁दीक्षांत	-10.7357
▁लम्बी	-10.7357
शंस	-10.7358
भाई	-10.7359
▁मतदान	-10.7363
▁जता	-10.7363
▁फ़रमा	-10.7365
▁इंदिरा	-10.7371
▁इजाज़त	-10.7371
▁प्लगिन	-10.7372
▁लाभों	-10.7374
▁Comment	-10.7379
▁लगाकर	-10.7381
अपना	-10.7382
▁सैनिकों	-10.7383
राह	-10.7397
वाड़	-10.7398
ind	-10.7404
▁बहुमत	-10.7405
शिया	-10.7406
▁जगत	-10.7407
हमारी	-10.7411
▁आजीविका	-10.7415
▁तनाव	-10.7416
▁आईटी	-10.7418
▁समर्थक	-10.7426
▁धोखे	-10.7431
▁समर्पण	-10.7431
निश्चय	-10.744
▁दूँ	-10.7443
▁विफलः	-10.7443
57	-10.7443
▁आत्मनिर्भर	-10.7445
▁हिस्सों	-10.7445
▁शान्ति	-10.7449
चन्द्र	-10.745
डू	-10.7452
▁अनन्त	-10.7452
▁सोम	-10.7456
▁पूछते	-10.7457
खुदा	-10.7459
▁व्युत्पन्न	-10.7459
▁प्रणालियों	-10.7459
▁बुल	-10.7464
▁मोहम्मद	-10.7465
▁शाखाओं	-10.7466
▁कोर्ट	-10.7474
▁मरम्मत	-10.7474
▁मुकदमा	-10.7474
▁परिचालन	-10.7474
▁पेशेवर	-10.7474
▁एज	-10.7475
माला	-10.7477
श्री	-10.7479
▁डरता	-10.7484
▁पूर्णतः	-10.7485
▁तीस	-10.7487
▁अन्याय	-10.7488
▁मानने	-10.7488
▁निवारण	-10.7489
▁केंद्रों	-10.7492
▁टू	-10.7492
▁मिलना	-10.7498
▁फॉर	-10.7501
▁बताने	-10.7503
▁नवाचार	-10.7504
▁सारणी	-10.7505
▁फौज	-10.7505
im	-10.7507
▁हँसी	-10.7515
▁भो	-10.7517
▁चाहूंगा	-10.7519
▁उदय	-10.7519
▁वार्ता	-10.752
ौं	-10.7522
अत	-10.7522
▁फर	-10.7527
▁हुये	-10.7528
▁पंजाबी	-10.7528
84	-10.753
▁वितरित	-10.7533
▁मील	-10.754
▁इन्हीं	-10.7548
▁शुरूआत	-10.7549
▁आभास	-10.7552
▁परंपरागत	-10.7552
ढा	-10.7561
▁कर्ज	-10.7567
▁ऊँचाई	-10.7568
▁उपदेश	-10.7577
आईसी	-10.7577
▁चमत्कार	-10.7578
▁संकल्पना	-10.7581
▁प्रतिज्ञा	-10.7586
ैत	-10.759
▁करनेवाली	-10.7592
72	-10.7593
▁उत्कृष्टता	-10.7596
▁कंप	-10.76
▁२०	-10.7601
▁दांत	-10.7603
▁चं	-10.7603
जै	-10.7608
वृ	-10.7611
तापूर्वक	-10.7613
ॉक	-10.7619
छु	-10.7619
▁अध्यापक	-10.7623
▁कुबूल	-10.7623
▁केडीई	-10.7625
sh	-10.7629
▁तीसरी	-10.7629
▁पाठक	-10.7631
वट	-10.7631
▁भरत	-10.7632
▁घटित	-10.7635
▁हिला	-10.7636
हक़	-10.7636
▁मद्रास	-10.7638
▁खातों	-10.7642
▁वॉ	-10.7646
▁शर्तें	-10.7651
▁उद्यमों	-10.7654
भिन्न	-10.7656
▁प्राणी	-10.7656
खण्ड	-10.7663
परिवर्तन	-10.7663
▁पहुँची	-10.7666
लाभ	-10.7667
▁अनिवासी	-10.7669
▁ओपन	-10.7672
▁अनुदेश	-10.7677
टिल	-10.7678
▁लेट	-10.7679
▁अवसंरचना	-10.7683
80	-10.7684
▁2003	-10.7686
▁अनुचित	-10.7704
▁विदेशों	-10.7706
▁वैसी	-10.7707
औ	-10.7707
▁स्कूलों	-10.7708
......	-10.771
▁मुख्यतः	-10.7711
▁गि	-10.7714
▁जरूरतों	-10.7718
27	-10.7722
लियन	-10.7722
बै	-10.7724
ियॉ	-10.7736
्हे	-10.7738
वचन	-10.774
ट्रिक	-10.774
▁अतएव	-10.7744
▁सुधारों	-10.7757
▁अखबार	-10.7759
दीन	-10.7762
▁ओवर	-10.7764
उसका	-10.7767
▁कार्यकारी	-10.7768
▁गले	-10.777
▁पूर्णता	-10.7771
▁औज़ार	-10.7774
▁सृष्टि	-10.7774
▁बगैर	-10.7775
▁2008	-10.7779
’’	-10.7779
▁सकने	-10.7782
▁बैक	-10.7785
▁ब्रा	-10.7786
कोण	-10.7787
▁तालाब	-10.7797
▁उत	-10.7797
▁चलना	-10.7801
▁2011	-10.7802
▁शिष्य	-10.7805
▁प्रदत्त	-10.7808
▁उत्पादकता	-10.7813
▁खाल	-10.7814
▁सृजित	-10.782
▁मुकदमे	-10.782
▁पॉल	-10.7823
▁संजाल	-10.7824
▁नूर	-10.7824
ोत्तर	-10.7825
▁चक	-10.783
▁पहुँचने	-10.7831
▁गोरा	-10.7832
▁कवियों	-10.7832
▁पाइप	-10.7836
▁फाइ	-10.7843
▁बेकार	-10.7844
र्प	-10.7846
▁कराता	-10.785
▁उपेक्षा	-10.7851
पंथ	-10.7852
ऊँगा	-10.7855
▁मिट	-10.7858
दायक	-10.7859
पीठ	-10.786
▁ढाल	-10.7864
▁इस्पात	-10.7866
▁अपवाद	-10.788
▁लम्बे	-10.7882
LAT	-10.7882
▁ठहरे	-10.7892
▁गौर	-10.7892
▁हिल	-10.7893
▁गाड़ी	-10.7894
▁वाणी	-10.7895
▁इंटर	-10.7897
▁आज़ाद	-10.7898
▁मध्यस्थ	-10.7898
▁तस्	-10.7899
ड़िया	-10.7901
▁माफ़	-10.7906
▁सेंटर	-10.7906
▁वैष्णव	-10.7912
▁कृत्य	-10.7913
▁डोमेन	-10.7913
▁अहम	-10.7913
▁झु	-10.7914
▁समकालीन	-10.7915
वश	-10.7921
▁इंजीनियरी	-10.7924
▁विकासशील	-10.7927
▁संकलन	-10.7928
▁OF	-10.7929
▁पशुओं	-10.7931
▁बाढ़	-10.7931
▁निर्गम	-10.7932
▁स्टोर	-10.7933
▁माननीय	-10.7935
▁गीता	-10.7936
▁आँखें	-10.7936
चौ	-10.794
▁गज	-10.7943
▁जंग	-10.7946
▁८	-10.7948
▁बडा	-10.7952
▁गलती	-10.7954
▁विकलांग	-10.7959
▁उपाधि	-10.7959
▁जीवाणु	-10.796
▁दिखाना	-10.7961
चीन	-10.7967
▁उड़ान	-10.7971
▁फूँक	-10.7975
▁रखरखाव	-10.7975
▁चौथा	-10.7979
▁कैद	-10.7982
ठीक	-10.7984
य्या	-10.7987
▁वजन	-10.7988
▁मित्रता	-10.7989
▁हिंद	-10.7989
▁खतरनाक	-10.799
▁परिपक्व	-10.799
▁मुकाबले	-10.799
वित्त	-10.799
▁कबीर	-10.7994
▁नौकर	-10.8001
▁प्रशासक	-10.8005
व्रत	-10.8006
▁बचपन	-10.8012
ताकि	-10.8013
▁ज़िम्मे	-10.8018
वस्तु	-10.802
▁TRANS	-10.8021
▁प्रॉक्सी	-10.8021
र्ष	-10.8021
▁खोजें	-10.8026
92	-10.8026
▁हैसियत	-10.8038
क्यों	-10.8045
▁सितम्बर	-10.8052
▁प्रस्तुति	-10.8054
▁2004	-10.8056
▁उपलब्धियों	-10.8064
ORS	-10.8069
▁विनियमन	-10.807
▁अम्ल	-10.807
▁जुड	-10.8071
▁घाटा	-10.8073
कार्ड	-10.8074
▁सुनाई	-10.8074
▁शादी	-10.8075
▁पब्लिक	-10.8084
▁टैगोर	-10.8085
▁अवरोध	-10.8088
▁घबरा	-10.8102
▁रचनाओं	-10.8105
▁प्रिंटर	-10.8106
▁सामान्यतया	-10.8106
▁वस्तुतः	-10.8108
▁जं	-10.8109
टू	-10.8112
▁अंग्रेज़ी	-10.8115
▁स्ट्रिंग	-10.812
▁कवर	-10.8124
सिल	-10.8128
▁दुर्भाग्य	-10.8131
▁बांग्लादेश	-10.8131
▁शक्तियां	-10.8133
▁बॉक्स	-10.8138
▁औषधि	-10.8141
▁त्वरित	-10.8147
▁इलाकों	-10.8147
▁प्रोटीन	-10.8147
▁प्रशिक्षित	-10.8148
▁गुम	-10.8149
▁व्यर्थ	-10.815
▁सुनकर	-10.8152
न्द्र	-10.8154
▁रखनेवालों	-10.8156
▁अनंत	-10.8159
ve	-10.8162
▁स्नातक	-10.8162
▁घुमा	-10.8163
▁सोचते	-10.8165
▁कोयला	-10.8166
▁उलझ	-10.8167
▁आर्य	-10.8169
▁वसा	-10.8171
ात्मा	-10.8173
▁इताअत	-10.8178
▁मणिपुर	-10.8178
कूट	-10.818
▁अनुशासन	-10.8182
▁कराई	-10.8182
▁मूत्र	-10.8183
▁नोड	-10.8185
उल	-10.8194
पेट	-10.8199
▁पडे	-10.8202
▁बंबई	-10.821
▁रूपरेखा	-10.821
गीर	-10.8211
▁माउस	-10.8213
▁राजमार्ग	-10.8214
एमएस	-10.822
▁पश्च	-10.8222
▁दंत	-10.8223
▁गयीं	-10.8223
▁अफगानिस्तान	-10.8226
▁फौरन	-10.8226
▁नाट्य	-10.8226
▁संवेदना	-10.8228
गोया	-10.8239
कहीं	-10.8241
▁गूगल	-10.8242
▁आकर्षक	-10.8242
▁पहाड़ों	-10.8246
बाप	-10.8255
ळ	-10.8258
▁ऊंची	-10.8258
▁हमपर	-10.8261
▁सिर्फ़	-10.8267
▁आपात	-10.8267
46	-10.827
▁लगने	-10.8272
▁पढ़ाई	-10.8273
▁रिज़र्व	-10.8274
▁इत्	-10.8275
▁दिशानिर्देश	-10.8276
शिप	-10.8279
स्टा	-10.8283
▁दत्त	-10.8284
वृत	-10.8289
▁कार्मिक	-10.829
१९	-10.8291
▁स्पर्श	-10.8291
▁कथित	-10.8294
▁अधिवेशन	-10.8306
▁कविताओं	-10.8309
▁आजाद	-10.8313
▁धारक	-10.8316
▁पते	-10.8316
▁रासायनिक	-10.8322
▁करतूत	-10.8323
▁निः	-10.8325
अगर	-10.8335
▁सांस	-10.8337
▁उम्मत	-10.8338
लेखन	-10.8339
▁रूपये	-10.834
▁पैमान	-10.8346
▁प्ल	-10.8348
मुक्त	-10.835
▁अवकाश	-10.8354
▁पौध	-10.8355
▁अजीब	-10.8356
बंद	-10.8361
▁होस्ट	-10.8361
▁झगड़ा	-10.8361
▁अंतरित	-10.8362
सिन	-10.8364
ट्टा	-10.8368
▁एशियाई	-10.8369
▁नाबार्ड	-10.837
▁परिकल्पना	-10.837
▁सुनी	-10.8371
▁घोष	-10.8372
▁ऋषि	-10.8374
▁हर्ष	-10.8375
▁आँख	-10.8377
ग्रा	-10.8379
▁शासित	-10.8381
ैया	-10.8382
▁बाइ	-10.8385
▁वसीयत	-10.8387
▁किशोर	-10.8389
▁नकदी	-10.8393
▁दौरा	-10.8395
▁परवाह	-10.8396
▁खुल्लम	-10.8403
▁सर्वथा	-10.8406
\	-10.8407
▁मुर्ग	-10.8413
▁राजपत्र	-10.8413
▁कहानियों	-10.8421
पथ	-10.8423
▁डालो	-10.8424
▁70	-10.8426
▁मंत्र	-10.8426
एंगे	-10.8427
देख	-10.8428
तौरेत	-10.843
यार	-10.8433
▁एहकाम	-10.8435
▁मौजिज़े	-10.8435
▁सवाब	-10.8436
▁इबरत	-10.8436
▁सम्बद्ध	-10.8439
▁दिखाते	-10.8444
▁बढ़ता	-10.8446
▁पहुंचाने	-10.8447
▁सरीह	-10.8449
▁मेमोरी	-10.8452
▁रेड	-10.8452
किताब	-10.8454
हमने	-10.8459
▁मराठी	-10.8468
▁झुठलाने	-10.847
▁बजाए	-10.8473
र्पण	-10.8474
▁सौंपा	-10.8477
▁रूह	-10.8483
▁दलों	-10.8483
▁निर्धन	-10.8486
▁सफाई	-10.8487
▁जिन्ना	-10.8488
▁उम्मीदवार	-10.849
हृ	-10.8495
▁दीवारों	-10.8495
▁सभापति	-10.8496
▁निवेदन	-10.8501
▁धूप	-10.8501
▁रोज़े	-10.8502
▁ज्यादातर	-10.8502
▁पंथ	-10.8504
महा	-10.8504
▁लड	-10.8507
▁वर्गीकरण	-10.8517
▁रंगमंच	-10.8517
▁मोर	-10.8519
ॆ	-10.8531
▁आमदनी	-10.8534
▁वरन्	-10.8537
▁चखा	-10.8542
▁ठहराते	-10.8543
▁सहानुभूति	-10.855
अच्छे	-10.8551
▁इंजीनियरिंग	-10.8553
कोट	-10.8561
▁विधिक	-10.8563
▁फूलों	-10.8566
▁कतिपय	-10.8566
▁सर्वश्रेष्ठ	-10.8566
▁हुकूमत	-10.8566
▁निमित्त	-10.8566
▁खजूर	-10.8567
▁किनारा	-10.8571
▁जंगली	-10.858
खाना	-10.858
▁ऊंचे	-10.8583
▁स्त्रियाँ	-10.8583
▁प्राप्तकर्ता	-10.8585
▁तरल	-10.8585
▁शपथ	-10.8585
▁आलेख	-10.8587
▁निबंध	-10.8588
▁स्ल	-10.8592
दायी	-10.8601
▁निक्षेप	-10.8603
वादियों	-10.8604
▁लू	-10.8605
▁अहमद	-10.8606
▁पार्श्व	-10.8613
▁मोती	-10.8616
▁निपटने	-10.8616
co	-10.8617
▁मरने	-10.8617
▁फलक	-10.8619
▁कॉपी	-10.8624
▁फॉर्म	-10.8627
▁सर्वज्ञ	-10.8629
संदत्त	-10.863
▁आधे	-10.8637
▁सीन	-10.8641
ao	-10.8654
▁1956	-10.8655
सुर	-10.8659
बन्द	-10.8664
▁ख़ैर	-10.8666
▁कलाम	-10.8667
▁पठन	-10.8668
ect	-10.867
देह	-10.8671
▁अंधे	-10.8673
▁बढ़ाना	-10.8675
▁छोर	-10.8675
ङ्	-10.8676
ment	-10.8676
▁क्लब	-10.8679
▁शास्त्रीय	-10.868
मुशरेकीन	-10.8682
▁स्वाधीनता	-10.8682
▁वक्तव्य	-10.8689
▁निराश	-10.869
▁मनाया	-10.8692
▁भूत	-10.8693
▁मैच	-10.8696
कोड	-10.8697
▁रजिस्ट्री	-10.8699
▁ऊँट	-10.8699
▁एकत्रित	-10.8706
▁नोडल	-10.8708
▁दुष्	-10.8709
साफ	-10.8715
▁चित्रण	-10.8715
▁सौदा	-10.8716
▁चखो	-10.8716
गुल	-10.8718
▁भत्ता	-10.8718
▁क्रांतिकारी	-10.8719
▁सूजन	-10.8723
▁अन्जाम	-10.8733
▁विस्फोट	-10.8733
▁करुणा	-10.8733
▁माहौल	-10.8734
ex	-10.8734
▁धोखा	-10.8734
▁हममें	-10.874
▁ऊंचा	-10.8743
▁निवेशकों	-10.8745
▁संतोष	-10.8749
▁गणतंत्र	-10.875
95	-10.8751
▁मुड़	-10.8754
▁खु	-10.8756
▁जॉन	-10.8759
▁उपग्रह	-10.876
▁टेक	-10.876
▁लौटने	-10.8762
बाजी	-10.8763
os	-10.8764
▁ज्यादती	-10.8766
▁बीबी	-10.8768
▁कैन	-10.8773
82	-10.8773
▁मिटाना	-10.8774
um	-10.8777
▁मधु	-10.8779
▁निपटा	-10.8781
▁टुकड़ा	-10.8783
▁बरबाद	-10.8784
▁अनुभूति	-10.8785
▁1999	-10.8788
▁2010	-10.8788
▁गुनाहगार	-10.8788
▁बेटी	-10.8792
गीत	-10.8794
मन्त्र	-10.8807
▁जरा	-10.881
▁सिफ़ारिश	-10.8817
▁मोटे	-10.8818
बिया	-10.8818
समूह	-10.8819
▁ग़लत	-10.882
▁सबका	-10.8821
▁पक्का	-10.8828
▁पेट्रोलियम	-10.8834
▁फ्लैग	-10.8834
▁बैकअप	-10.8834
गति	-10.8835
▁परियोजनाएं	-10.8838
▁बढ़ाया	-10.884
▁घेरे	-10.8843
▁सुगम	-10.8843
▁गेट	-10.8844
▁36	-10.8847
▁पाठ्य	-10.8851
▁उन्नयन	-10.8851
▁वैयक्तिक	-10.8851
चरित	-10.8851
▁विलय	-10.8853
▁ट्रेड	-10.8853
▁खरीदने	-10.8853
चंद्र	-10.8858
▁बोलने	-10.8858
▁शाही	-10.8861
▁असीम	-10.8861
ंजर	-10.8865
▁ब्राउज़र	-10.8866
▁तत्कालीन	-10.887
▁ख़िलाफ	-10.887
आय	-10.8871
कर्ष	-10.8873
ne	-10.8875
परक	-10.8881
▁po	-10.8882
▁संवैधानिक	-10.8885
▁सशस्त्र	-10.8885
▁घायल	-10.8885
▁प्रदर्शक	-10.8885
▁सहन	-10.8886
पश्चिम	-10.8887
▁सुनो	-10.8889
▁दमन	-10.889
▁रिहा	-10.889
पन्न	-10.8891
▁मिश्रित	-10.8894
▁घोड़े	-10.8904
▁दिखला	-10.8904
श्वर	-10.8906
▁गरीबों	-10.8908
▁विद्वत	-10.8908
▁अपार	-10.8909
▁चूक	-10.8913
tion	-10.8913
▁2018	-10.8921
▁नाहक़	-10.8921
▁अनुभाग	-10.8924
▁साकार	-10.8928
▁ख़ान	-10.8933
▁अमीर	-10.8933
लैण्ड	-10.8934
▁आभार	-10.8936
▁गाँधी	-10.8936
▁दुर्ग	-10.8937
▁पूछे	-10.8943
▁गै	-10.8945
पूर्ति	-10.8945
▁मोहल	-10.8946
▁चार्ट	-10.8947
मिया	-10.8948
▁सार्थक	-10.8953
▁संकाय	-10.8953
item	-10.8954
▁जज़ा	-10.8954
रोजगार	-10.8956
▁लपेट	-10.8956
▁छिपाते	-10.8962
▁आज्ञाकारी	-10.8974
▁कहें	-10.8978
▁मज़े	-10.8978
आज	-10.8979
▁सुझा	-10.8985
color	-10.8987
▁टै	-10.8988
▁नार	-10.8992
▁निभाई	-10.8993
ागार	-10.8994
आइ	-10.8999
▁बंदरगाह	-10.9005
▁इनको	-10.9006
धीन	-10.9007
▁ग्रन्थ	-10.9007
ट्रि	-10.9009
32	-10.9013
▁पका	-10.9013
सेवा	-10.9013
▁बनाती	-10.9016
▁थै	-10.902
ग्रहण	-10.9023
▁खैर	-10.903
▁नियोजन	-10.9035
ैंड	-10.9035
▁जाएँगें	-10.9036
▁इलाहाबाद	-10.9039
बंदी	-10.9039
▁परहेज़गारी	-10.9044
▁रहीं	-10.9051
ेटर	-10.9053
▁सचिवालय	-10.9057
▁समायोजन	-10.906
▁वादी	-10.9061
▁पैरा	-10.9064
va	-10.9064
▁आवश्य	-10.9069
▁फिल्टर	-10.9074
▁कृषक	-10.9074
▁पाँव	-10.9074
▁लाई	-10.9074
▁निराशा	-10.9081
▁सॉ	-10.9081
▁विशेषाधिकार	-10.9083
मेट	-10.9083
▁शर्म	-10.9086
▁बनायी	-10.9086
▁राजाओं	-10.9089
▁छोड़ें	-10.909
▁१२	-10.909
▁नुक़सान	-10.9091
मंत्र	-10.9091
▁मजदूरी	-10.9092
▁धारित	-10.9092
धारण	-10.9093
सामग्री	-10.9094
▁यात्री	-10.9095
▁अवतार	-10.9097
▁खोजने	-10.9099
▁इंजन	-10.91
▁मुद्रित	-10.9109
▁लाभांश	-10.9112
▁उपहार	-10.9113
फिक	-10.9113
नुसार	-10.9116
प्रो	-10.912
em	-10.9123
▁कॉन्फ़िगर	-10.9125
ख्तियार	-10.9126
▁पकड़े	-10.9131
▁(5)	-10.9133
च्छा	-10.9133
▁समझो	-10.9143
▁ऊँची	-10.9143
▁स्तम्भ	-10.9143
बर्ट	-10.9144
▁गोली	-10.9148
▁शस्त्र	-10.915
थो	-10.9151
▁आगमन	-10.9152
▁फिलीस्तीनी	-10.9154
▁फीस	-10.9158
▁महानिदेशक	-10.9161
▁श्रद्धांजलि	-10.9161
▁उत्सुक	-10.9161
▁हस्तांतरण	-10.9161
▁अवशेष	-10.9163
▁आभूषण	-10.9167
उनसे	-10.9168
▁चरम	-10.9173
▁स्वीकार्य	-10.9175
▁रहकर	-10.9175
▁दूरसंचार	-10.9178
▁नियंत्रक	-10.9178
याक़ूब	-10.9178
▁शरारत	-10.9178
▁यौन	-10.9179
NT	-10.918
▁चह	-10.918
▁दरख्त	-10.9182
आर्थिक	-10.9182
बात	-10.9185
▁समीकरण	-10.9194
500	-10.9195
▁कैश	-10.9195
▁विक्रेता	-10.9196
▁आजकल	-10.9199
▁मोटा	-10.9199
▁कारगर	-10.92
संस्कृत	-10.92
षक	-10.9201
▁यो	-10.9203
्‍व	-10.9204
रक्त	-10.9205
▁बसव	-10.921
id	-10.9212
नायक	-10.9213
▁रियायत	-10.9213
▁आंखों	-10.9226
डऋ	-10.9227
मार्क	-10.9228
▁150	-10.9233
व्यवस्था	-10.9234
▁संव्यवहार	-10.9235
▁2009	-10.9235
▁\	-10.9236
▁अवगत	-10.9242
कूल	-10.9246
▁पूर्वोत्तर	-10.9254
वृति	-10.9254
▁सीट	-10.9254
▁स्क्रिप्ट	-10.9258
▁उग	-10.9259
▁मंजूर	-10.9265
▁अहिंसा	-10.9266
▁आज़माइश	-10.9267
▁असंभव	-10.9267
36	-10.9267
▁संरक्षित	-10.927
▁ऑटो	-10.927
स्वामी	-10.9271
per	-10.9271
▁वृद्ध	-10.9271
▁हाई	-10.9277
▁छप	-10.928
▁लम्बा	-10.9298
▁आनुवंशिक	-10.9302
▁भूटान	-10.9302
▁राव	-10.9303
▁मजदूर	-10.9306
केंद्र	-10.9306
श्ले	-10.9311
▁कैप	-10.9315
▁सरदारों	-10.9316
▁शास्त्री	-10.9316
▁नींव	-10.932
▁44	-10.9322
मुद्र	-10.9333
▁पढ़ी	-10.9339
▁संचय	-10.934
पार्ट	-10.9342
▁नाश	-10.9344
▁बहका	-10.9347
टेल	-10.9348
विशेष	-10.9348
▁स्थूल	-10.9355
▁चिंतन	-10.9355
ग्री	-10.9366
▁कतरा	-10.9367
दिर	-10.9382
▁आयाम	-10.9387
चाहे	-10.939
▁श्रीलंका	-10.9391
▁वयस्क	-10.9391
▁कच्चे	-10.9391
▁मंजिल	-10.9391
▁रत्न	-10.9392
▁उपभोग	-10.9395
▁पैरों	-10.9404
ृष	-10.9408
▁हमले	-10.9409
▁कार्यपालिका	-10.9409
▁चक्कर	-10.9409
▁नतीजा	-10.9409
पहले	-10.9409
▁आंख	-10.941
▁भड़कती	-10.9411
रसूल	-10.9416
▁सेनाओं	-10.9425
¤	-10.9427
▁आश्वासन	-10.9427
▁क्षैतिज	-10.9427
भारतीय	-10.943
▁जहॉ	-10.9431
▁ढील	-10.9432
बड़े	-10.9438
िणी	-10.944
▁मनोरंजन	-10.9445
▁वर्षगांठ	-10.9445
▁अमानत	-10.9445
▁छेद	-10.9446
▁बाबा	-10.9446
रेखा	-10.945
▁फॉ	-10.9451
▁बदलना	-10.9452
▁हिर	-10.9452
युक़्त	-10.9455
▁क्रा	-10.9457
▁झुठलाओगे	-10.9463
▁धमकी	-10.9463
▁एकजुट	-10.9463
▁गोवा	-10.9464
▁डालना	-10.9464
▁बरसाया	-10.9465
▁क़ब्ल	-10.9465
▁सन्देश	-10.9471
▁दादाओं	-10.9472
▁तालिका	-10.9473
▁समस्याएं	-10.9475
▁अज्र	-10.9477
▁रोज़ा	-10.9479
▁डाटाबेस	-10.9481
end	-10.9482
▁घुट	-10.949
▁निर्माता	-10.9492
▁तिर	-10.9497
▁थोप	-10.95
▁बैल	-10.9504
▁कमीशन	-10.9507
पिंग	-10.9508
▁पाबन्दी	-10.9512
▁आचार्य	-10.9512
तरह	-10.9514
▁बाएं	-10.9515
▁सुलेमान	-10.9517
▁नमूने	-10.9517
▁चिपका	-10.9517
▁रद्दी	-10.9518
▁चेहरा	-10.9518
▁तप	-10.9518
▁अन्न	-10.952
▁सड़कों	-10.9522
▁स्वाद	-10.9522
▁गंध	-10.9522
&	-10.9523
▁स्थलों	-10.9525
▁प्रवाहित	-10.9526
▁चलाए	-10.9532
▁तदनुसार	-10.9535
▁दीर्घकालिक	-10.9536
▁आँकड़ा	-10.9536
▁सुदूर	-10.9539
▁संग्राम	-10.9542
▁गार्ड	-10.9543
▁ट्रै	-10.9545
▁अफ़	-10.9547
▁अपूर्ण	-10.955
▁गर्भाशय	-10.9554
▁देनी	-10.9562
▁टकरा	-10.9564
संबंध	-10.9564
▁बनाएं	-10.9565
▁झाड़	-10.9567
▁अनुकरण	-10.9568
ब्रा	-10.9571
▁अप्रत्याशित	-10.9572
▁बतौर	-10.9572
▁अशोक	-10.9572
▁तुम्ही	-10.9572
▁बेहद	-10.9578
▁for	-10.9579
▁लौ	-10.9584
▁बायो	-10.9585
▁संग्रहण	-10.9585
▁यकीन	-10.959
▁अपराधियों	-10.9591
74	-10.9591
▁1947	-10.9597
▁आवृत्ति	-10.9599
हाक़	-10.9607
▁नाफरमान	-10.9608
▁सूझ	-10.961
▁मुख्यालय	-10.9614
▁गोपनीय	-10.9615
▁खोला	-10.962
▁छः	-10.9621
▁संकेतक	-10.9623
52	-10.9626
▁उपर्युक्त	-10.9626
▁नजदीक	-10.9626
▁ठाकुर	-10.9626
▁बेचने	-10.9627
▁उपनिवेश	-10.9628
▁बगल	-10.9629
▁धूल	-10.9634
▁वाक़िफ़	-10.9637
पालन	-10.9638
▁प्राय	-10.9644
▁सत्याग्रह	-10.9645
▁सीआरए	-10.9645
▁वर्क	-10.9646
▁शोषण	-10.9646
▁स्कैन	-10.9647
▁रोड	-10.965
चन्द	-10.9662
▁परिसंपत्ति	-10.9663
▁दरवाजे	-10.9663
▁महामारी	-10.9663
▁स्वर्ग	-10.9663
▁सिंहासन	-10.9663
▁घमंड	-10.9664
न्ह	-10.9666
▁माध्य	-10.9668
▁गोपन	-10.9669
ाहट	-10.967
▁33	-10.9672
ers	-10.9681
▁इच्छुक	-10.9682
▁वग़ैरह	-10.9682
▁नाशुक्र	-10.9682
▁हल्का	-10.9682
▁स्नेह	-10.9682
▁सूचक	-10.9683
▁बरकत	-10.9685
आपको	-10.9686
शासित	-10.9688
▁पागल	-10.9691
▁अपमान	-10.9693
डियो	-10.9695
▁युवक	-10.97
▁लय	-10.9701
▁आधी	-10.9706
▁जाननेवाला	-10.9711
pp	-10.9712
▁पड़ोसी	-10.9719
▁निवेदित	-10.9719
▁करूँगा	-10.9721
▁लड़ने	-10.9725
▁बंधन	-10.9728
▁छोड़ने	-10.9732
▁पेय	-10.9734
▁एख्तेयार	-10.9737
▁सुलझा	-10.9737
▁वास्तुकला	-10.9737
▁नीतिगत	-10.9738
▁तख्त	-10.9743
▁पटेल	-10.9744
▁पूर्णतया	-10.9744
▁प्रतिवर्ष	-10.9746
पोषण	-10.9746
▁is	-10.9749
▁कुफ्फार	-10.9751
▁पक्षियों	-10.9755
▁अद्वितीय	-10.9756
▁उत्सर्जन	-10.9756
▁सुनवाई	-10.9759
ियस	-10.9771
यहूद	-10.9772
▁टेनिस	-10.9774
33	-10.9776
भुज	-10.9785
▁सिया	-10.9786
▁उत्तराधिकारी	-10.9787
बैक	-10.9788
▁हालात	-10.9788
▁जोड़ना	-10.9791
▁मिथ्या	-10.9793
▁रियासत	-10.9793
▁अपितु	-10.9793
▁प्रभुत्व	-10.9795
▁विपक्ष	-10.9801
▁जीवंत	-10.9803
▁सिखाया	-10.9805
एसएस	-10.9811
▁सुचरिता	-10.9811
▁नवीनतम	-10.9814
▁कपड़ा	-10.9816
▁पाय	-10.9824
▁बुत	-10.9824
▁स्थिरता	-10.983
▁मारने	-10.983
▁मुहैया	-10.9831
▁सटीक	-10.9831
▁जाहिर	-10.9831
▁हारून	-10.9832
▁ट्रेन	-10.9832
▁आधिकारिक	-10.9849
▁मेन्यू	-10.9849
▁पर्यटकों	-10.9851
▁चित्रित	-10.9854
▁श्रमिक	-10.9857
दिल	-10.9861
▁थक	-10.9865
▁मॉड्यूल	-10.9868
▁पद्म	-10.9868
▁ऋतु	-10.9872
रेख	-10.9872
▁नानक	-10.9872
▁जैविक	-10.9874
▁झुका	-10.9877
▁निकलते	-10.9882
▁आकस्मिक	-10.9886
▁फैक्ट	-10.9888
योजना	-10.9889
▁दृढ़ता	-10.989
▁कामकाज	-10.9895
एक्स	-10.9895
▁गोर	-10.9897
▁डालर	-10.9903
▁दायर	-10.9904
▁महफूज़	-10.9905
▁समता	-10.9906
▁भेदभाव	-10.9907
डोर	-10.9908
▁फ़िर	-10.9909
▁क्रि	-10.991
▁तै	-10.9912
llation	-10.9914
▁अनाथ	-10.9914
वक्त	-10.9915
व्या	-10.9915
रिट	-10.9917
▁नेताजी	-10.9919
कोई	-10.9921
96	-10.9921
83	-10.9924
▁विनिधान	-10.9924
▁गुल	-10.9926
▁संक्षेप	-10.993
ाध्यक्ष	-10.9931
▁बातिल	-10.9938
▁क्वा	-10.994
▁वन्य	-10.9942
▁सोचने	-10.9948
प्रदेश	-10.9949
▁परिषद्	-10.995
▁जगा	-10.9951
▁मेहरबानी	-10.9955
▁जरुरत	-10.9962
▁प्रचुर	-10.9962
▁मुफ्त	-10.9962
▁पहना	-10.9967
▁महान्	-10.9971
▁पर्यावरणीय	-10.9974
▁मंत्रियों	-10.9975
▁स्टै	-10.998
घाट	-10.9983
▁खुर	-10.9985
▁रोचक	-10.9985
▁दुर्गा	-10.9987
▁स्टॉक	-10.9988
इयाँ	-10.999
▁स्‍व	-10.9996
▁ईस्ट	-10.9999
▁निरन्तर	-11
▁डिबग	-11.0001
▁बीवी	-11.0002
▁शिर्क	-11.0006
▁प्रतिबद्ध	-11.0015
ऍं	-11.0015
▁लायक	-11.0017
▁सूचीबद्ध	-11.0017
▁ह्य	-11.0018
▁प्रकोप	-11.0019
▁राजदूत	-11.0019
भु	-11.0033
▁तरीक़े	-11.0038
▁टॉगल	-11.0039
▁खासकर	-11.0039
▁जनजाति	-11.0039
▁परिदृश्य	-11.004
▁मैत्री	-11.004
▁जिन्न	-11.0042
▁प्रदाता	-11.0043
▁कैल	-11.0045
मीटर	-11.0047
ाइज़	-11.0048
▁ख़बरदार	-11.0052
▁दर्शाया	-11.0052
▁आशंका	-11.0055
पीडीएफ	-11.0056
▁प्रेषक	-11.0057
▁श्लोक	-11.0057
▁आवेदक	-11.0057
बाई	-11.0059
्तु	-11.006
▁~	-11.006
▁लोप	-11.0061
▁सोना	-11.0062
▁ज़िम्मेदारी	-11.0062
दाताओं	-11.0063
स्तान	-11.0067
इंट	-11.0074
▁चख	-11.0076
▁जमे	-11.0077
▁पावर	-11.0077
▁आबाद	-11.008
▁चांद	-11.0082
▁दाऊद	-11.0096
▁चित्रकला	-11.0098
▁भ्रष्टाचार	-11.0115
▁साक्षात्कार	-11.0115
▁कनाडा	-11.0115
▁सुपर	-11.0115
▁बर्तन	-11.0117
▁मुहर	-11.0118
AR	-11.0119
▁पूजते	-11.0121
▁किराए	-11.0122
यात्रा	-11.0125
शुल्क	-11.0125
▁अफसोस	-11.0127
दृश्य	-11.0128
▁एण्ड	-11.0134
▁सामुदायिक	-11.0134
▁साक्षरता	-11.0134
यन्त्र	-11.0135
साधक	-11.0136
▁आगरा	-11.0138
▁क्रमांक	-11.015
▁URL	-11.0153
▁अप्रत्यक्ष	-11.0153
▁त्योहार	-11.0153
▁न्यायपालिका	-11.0153
पाठ	-11.0154
▁खनन	-11.0158
त्‍त	-11.0168
▁पटल	-11.0171
▁इलेक्ट्र	-11.0173
▁तदबीर	-11.0173
▁बदौलत	-11.0173
▁आश्रम	-11.0173
▁सेवक	-11.0173
▁आघात	-11.0182
▁J	-11.0183
▁मंड	-11.0187
दोनों	-11.0187
मध्य	-11.0189
▁उन्मूलन	-11.0192
▁दोपहर	-11.0192
▁व्यंजन	-11.0193
▁महाद्वीप	-11.0193
▁बारीक	-11.0198
▁छल	-11.0204
▁नीच	-11.0208
▁पृ	-11.0209
▁शू	-11.021
▁रोशनी	-11.0212
▁भेजना	-11.0213
90	-11.0215
▁उपयोगिता	-11.0217
▁रूपांतरण	-11.0224
un	-11.0228
▁समेट	-11.023
▁सर्वप्रथम	-11.0231
▁बेटियाँ	-11.0231
▁लड़कियों	-11.0231
79	-11.0233
▁विस्तारित	-11.0234
ist	-11.0244
▁जिंदगी	-11.025
▁मधुमेह	-11.025
▁इसलिये	-11.0251
▁पतन	-11.0252
▁सुधारने	-11.0253
जाल	-11.0254
बेहिश्त	-11.026
डियम	-11.0263
हीनता	-11.0263
▁नाव	-11.0264
बेट	-11.0267
▁इंस्ट	-11.027
▁लखनऊ	-11.027
▁हरियाणा	-11.027
▁गतिविधियां	-11.0273
▁चलाएँ	-11.0273
▁सूअर	-11.0274
▁पाएंगे	-11.0278
▁तौल	-11.0279
▁झेल	-11.0282
ांकित	-11.0289
फरिश्तों	-11.029
▁आन्दोलन	-11.029
▁सम्भावना	-11.029
▁सूचकांक	-11.0292
▁प्रतिनिधियों	-11.0297
िंद	-11.0297
▁चर्च	-11.0305
▁क़्योंकि	-11.0309
▁फ़साद	-11.0309
▁बच्चन	-11.0309
▁आगामी	-11.031
▁झुठलाते	-11.0311
76	-11.0317
▁मग़फ	-11.0318
ऐसा	-11.032
aa	-11.0325
▁समेकित	-11.0329
▁जाएँगी	-11.0329
▁श्रेय	-11.033
▁उठता	-11.033
▁नींद	-11.0331
▁मैत्रीपूर्ण	-11.0331
▁नोटिस	-11.0334
म्बा	-11.0335
▁चतुर	-11.0337
▁मजदूरों	-11.0344
पुट	-11.0348
▁झिल्ली	-11.0348
▁पांव	-11.0349
▁इंजीनियर	-11.0349
▁प्रण	-11.035
▁बताना	-11.0354
▁निर्वाह	-11.0354
▁महि	-11.0356
▁इस्लामवादी	-11.0356
प्रेषण	-11.0359
ंद्र	-11.036
▁इधर	-11.0362
▁स्वायत्त	-11.0368
▁रसीद	-11.0369
▁नरेन्द्र	-11.0369
▁क्षय	-11.0372
मणि	-11.0379
पूरा	-11.0384
▁करेगें	-11.0384
ट्रा	-11.0386
▁छुपाएँ	-11.0392
▁हँस	-11.0394
ER	-11.04
▁ट्रस्ट	-11.0413
▁प्रेषण	-11.0417
कोष	-11.0418
▁पारदर्शिता	-11.0428
▁ग्यारह	-11.0428
▁डेटाबेस	-11.0428
▁मेजबान	-11.0428
▁क्षमताओं	-11.0429
▁निकला	-11.0433
▁तुर्क	-11.0434
ive	-11.0439
▁संस्थागत	-11.044
▁रूचि	-11.0442
▁पट्टे	-11.0444
▁प्राणियों	-11.0445
▁क्लिपबोर्ड	-11.0447
▁स्थानांतरित	-11.0448
▁मामूली	-11.0448
71	-11.0448
▁ख़रीद	-11.0448
▁ज्या	-11.045
▁रुसवा	-11.0451
व्यवहार	-11.0454
if	-11.0455
विवाद	-11.0457
▁पाव	-11.0458
▁आइए	-11.0459
▁स्टाफ	-11.046
▁500	-11.0464
70	-11.0465
▁कार्यकाल	-11.0467
▁ऑपरेशन	-11.0467
▁गरिमा	-11.0467
▁मत्स्य	-11.0468
▁मुख्यमंत्री	-11.047
▁प्रजातियों	-11.0472
▁300	-11.0473
▁सिटी	-11.0476
धारक	-11.0483
▁रूट	-11.0483
▁अभिव्यक्त	-11.0486
▁मूर्ख	-11.0487
▁वांछित	-11.0487
▁शोभा	-11.049
▁घाव	-11.0496
▁आतंक	-11.0497
▁रूक	-11.0498
▁बांस	-11.0507
▁सांप्रदायिक	-11.0507
▁कब्जा	-11.0507
▁तलाक़	-11.0507
▁कमेटी	-11.0508
▁प्रौद्योगिकियों	-11.0512
▁जर्मन	-11.0513
▁विवश	-11.0516
▁सादा	-11.0519
▁ऊँचा	-11.0522
▁तरंग	-11.0523
▁डै	-11.0523
विभाग	-11.0527
▁ज़्यादती	-11.0527
▁48	-11.0534
बिट	-11.0538
▁जिसमे	-11.0538
▁आपत्ति	-11.0549
युग	-11.0549
▁सजद	-11.0552
शियन	-11.0555
रेटर	-11.0561
प्रिय	-11.0563
▁अंदाज	-11.0565
▁वक्र	-11.0566
▁मुद्रण	-11.0568
▁मरयम	-11.0568
▁बिगड़	-11.0568
ph	-11.0575
▁खपत	-11.0577
बल्कि	-11.0579
▁परेशानी	-11.0584
▁दशमलव	-11.0588
▁ध्रुव	-11.0588
▁स्त्रोत	-11.0588
▁स्वदेशी	-11.0588
▁किराया	-11.059
▁वाज़े	-11.0591
▁दोषी	-11.0591
बाबू	-11.0592
▁पाएँगे	-11.0596
▁रेगिस्तान	-11.0608
▁फरमाबरदार	-11.0608
▁यात्रियों	-11.0608
▁जमाअत	-11.0611
▁टाइम्स	-11.0612
▁स्टाक	-11.0615
▁अपशिष्ट	-11.0628
▁विटामिन	-11.0628
▁यहूदियों	-11.0628
▁मृतक	-11.0637
वेयर	-11.0643
▁परिपत्र	-11.0643
▁हक	-11.0648
title	-11.0649
▁ध्येय	-11.0649
▁सत्	-11.065
▁विगत	-11.0651
▁प्रतिस्पर्धा	-11.0651
▁बिस्तर	-11.0651
५०	-11.0655
▁दर्जा	-11.0655
बीह	-11.0656
▁ऍ	-11.0657
▁कार्यनीति	-11.0657
▁समाजवादी	-11.0663
▁पोर्टल	-11.0664
जिसे	-11.0669
▁चिकन	-11.067
▁मोहताज	-11.0671
▁गैल	-11.068
मोहम्मद	-11.0681
चिह्न	-11.0682
▁दाल	-11.0682
▁लौटना	-11.0685
▁अंधा	-11.0689
▁हड्डी	-11.0689
▁अभिनय	-11.0689
▁छपाई	-11.0693
IS	-11.0694
▁टूल	-11.0697
▁हॉल	-11.0701
▁बौ	-11.0708
▁अब्दुल	-11.0709
▁स्वैच्छिक	-11.071
▁जनजातीय	-11.071
▁पुणे	-11.071
▁घू	-11.0711
▁खुल्ला	-11.0713
▁वसूल	-11.072
न्ज	-11.0722
▁स्पेन	-11.0728
▁टेली	-11.0728
▁अँधेर	-11.073
▁संचिका	-11.0731
▁सजावट	-11.0731
▁1992	-11.0735
▁ऑन	-11.0737
▁सिंधु	-11.0739
▁बंग	-11.074
▁अकड़	-11.0748
▁नियोक्ता	-11.0751
▁१६	-11.0752
▁अनुमानित	-11.0752
▁अवज्ञाकारी	-11.0753
लेखा	-11.0754
▁02	-11.0758
▁यज्ञ	-11.0759
▁विकार	-11.076
ta	-11.0767
▁बनते	-11.0767
¥	-11.0771
▁ब्यूरो	-11.0771
▁हार्डवेयर	-11.0771
▁पैदावार	-11.0772
▁एजेंट	-11.0772
▁पेटेंट	-11.0773
▁पीछल	-11.078
▁किताबें	-11.0781
ावस्था	-11.0786
▁निकालना	-11.079
फिल	-11.0791
▁घृणा	-11.0792
▁आंकड़ों	-11.0792
▁यूनियन	-11.0792
▁पैरामीटर	-11.0792
▁संघीय	-11.0793
▁उद्भूत	-11.0793
विष	-11.0795
एफसी	-11.0796
▁पुकारो	-11.0796
▁पाओ	-11.0802
▁बताओ	-11.0803
▁विकिरण	-11.0812
▁ज़लील	-11.0812
▁धीमी	-11.0812
▁ग्रिड	-11.0814
▁चंद	-11.082
▁लोहे	-11.0822
सीमा	-11.0825
पूज्य	-11.0826
▁काउंसिल	-11.0833
▁शासकों	-11.0833
▁मंत्रि	-11.0843
भंग	-11.0846
भद्र	-11.0848
▁करूंगा	-11.0848
2012	-11.0853
▁कैमरा	-11.0854
▁घिर	-11.0854
▁वर्तनी	-11.0854
▁स्नान	-11.0855
राष्ट्र	-11.0859
▁साझीदारी	-11.0859
स्तरीय	-11.0867
▁सको	-11.087
▁टांग	-11.0875
▁प्रगतिशील	-11.0879
▁स्टार	-11.0884
▁राष्ट्रवाद	-11.0886
रवाना	-11.0887
▁बंट	-11.0888
▁गुच्छ	-11.089
2019	-11.0891
व्यय	-11.0893
▁क़ुदरत	-11.0893
प्रकाश	-11.0894
▁सिक्किम	-11.0895
▁कंपनियां	-11.0895
▁इन्होंने	-11.0896
ड्यू	-11.0901
▁अभिन्न	-11.0903
पीएस	-11.0904
▁उन्नति	-11.0908
▁झलक	-11.0909
▁गोद	-11.0915
▁पाठकों	-11.0917
▁कठिनाइयों	-11.0917
▁कुशाद	-11.0918
▁उपभोक्ताओं	-11.0918
▁#	-11.0926
क्रा	-11.0928
सुन	-11.0929
▁प्रलेख	-11.093
▁बेचा	-11.0933
नीति	-11.0933
▁मुताबिक	-11.0934
सम्मत	-11.0934
▁तीर	-11.0936
▁गम्भीर	-11.0937
▁किलोग्राम	-11.0937
▁किनारों	-11.0938
▁प्रक्रम	-11.0942
▁सोचता	-11.0947
ot	-11.0948
▁बेहश्त	-11.0951
▁कहती	-11.0955
▁मज़दूरी	-11.0957
▁टेप	-11.0957
▁रूए	-11.0958
▁प्रख्यात	-11.0958
▁उत्पत्ति	-11.0959
▁छिद्र	-11.0959
▁मास्टर्स	-11.0962
ङ्ग	-11.0978
▁ऑस्ट्रेलिया	-11.0979
▁निर्वाचित	-11.0979
▁अवलोकन	-11.0979
▁शल्य	-11.0979
▁विख्यात	-11.0979
▁केन्द्रित	-11.0979
▁धड़	-11.0981
▁फिलीस्तीन	-11.0987
वर्ण	-11.0989
▁पूछें	-11.099
▁विकृत	-11.0991
▁टाइम	-11.0995
▁रात्रि	-11.0998
gnome	-11.1
▁अधिकाधिक	-11.1
▁ढो	-11.1006
▁निंदा	-11.1011
प्रभाव	-11.1013
▁निदान	-11.1018
▁निश्	-11.1018
▁माँगता	-11.1019
▁आहरण	-11.1021
▁उद्यमियों	-11.1024
▁कॉम	-11.1025
▁हरेक	-11.1025
86	-11.1025
▁दायरे	-11.1025
सरकारी	-11.1026
▁फंस	-11.1026
▁मानचित्र	-11.1028
दंड	-11.1034
▁प्रीत	-11.1039
▁लड़ते	-11.1041
▁फसाद	-11.1042
▁कार्यशाला	-11.1043
▁इंकार	-11.1044
▁मसीह	-11.1044
कोश	-11.1045
▁पायी	-11.1048
▁उलटे	-11.1048
▁रखेगा	-11.1049
▁बनावट	-11.1051
तन्त्र	-11.1051
▁अन्वेषण	-11.1063
▁ऊँचे	-11.1063
▁राज़्य	-11.1063
▁निष्पक्ष	-11.1063
▁लड़े	-11.1067
▁hi	-11.1069
▁अग्रसर	-11.1069
▁विशेषताओं	-11.1079
▁ताज़ा	-11.108
▁प्रसव	-11.1081
▁निधियों	-11.1083
▁विनम्र	-11.1084
▁हिन्दुओं	-11.1084
▁प्रगाढ़	-11.1084
▁अपीलार्थी	-11.1084
▁कोरोना	-11.1087
▁1948	-11.109
▁परिपूर्ण	-11.1093
▁मतदाता	-11.1094
सीआर	-11.1105
▁but	-11.1105
▁वियतनाम	-11.1105
▁सोसायटी	-11.1105
use	-11.1107
▁जापानी	-11.1109
48	-11.1109
ध्द	-11.1114
▁सहेजने	-11.1115
▁पर्यटक	-11.1124
▁प्रपत्र	-11.1125
गमन	-11.1127
▁इंतजार	-11.1127
▁बशर्ते	-11.1127
▁विषम	-11.113
ावरण	-11.113
ns	-11.1132
▁योनि	-11.1134
▁सालेह	-11.1136
▁पीड़क	-11.1136
इन्	-11.1137
▁चिल्ला	-11.1142
▁निर्णायक	-11.1148
▁विशुद्ध	-11.1148
▁खाई	-11.1149
▁पत्तन	-11.115
▁समझदार	-11.115
▁असफलता	-11.1152
▁जानेवाले	-11.1155
▁प्रतिभूतियों	-11.1155
▁सतर्कता	-11.1157
▁दुखी	-11.1157
▁अंगूर	-11.1158
भेद	-11.1162
▁कराए	-11.1169
▁लक्ष्मी	-11.1169
▁स्मार्ट	-11.1169
▁पत्ते	-11.117
▁विधानसभा	-11.1172
▁खौलत	-11.1173
▁बाएँ	-11.1174
▁सांप	-11.1177
▁शान	-11.1177
क्वे	-11.1179
▁अश्व	-11.1183
▁बदलते	-11.1184
▁सबूत	-11.1187
▁विलियम	-11.1191
▁मेनू	-11.1191
▁1"	-11.1197
ran	-11.1202
▁झगड़े	-11.1206
▁हरकत	-11.1208
▁फैसले	-11.1212
अभि	-11.1215
▁मार्	-11.123
▁पढ़कर	-11.1231
▁रुए	-11.1232
▁दिवा	-11.1233
▁पुर्तगाल	-11.1234
▁तृतीय	-11.1234
▁अनुस्मृति	-11.1234
▁दुग्ध	-11.1235
▁फिटकार	-11.1237
▁छुप	-11.1242
▁वाक़िफकार	-11.1245
मंत्री	-11.1249
▁वगैरह	-11.1255
▁ओबामा	-11.1255
▁खिसकाएँ	-11.1258
▁किरायेदार	-11.1265
▁मधुर	-11.1268
छोटे	-11.1271
▁HTML	-11.1277
▁दरवाज़े	-11.1277
▁श्रेणियों	-11.1277
▁संतुलित	-11.1277
ायण	-11.128
▁विधियों	-11.1286
AN	-11.1288
आईएस	-11.1289
▁ब्लॉक	-11.129
▁सांसद	-11.1291
""	-11.1292
▁हिंदुओं	-11.1299
▁यांत्रिक	-11.1299
▁अन्तर्राष्ट्रीय	-11.1299
▁पत्नियों	-11.13
▁उठाकर	-11.1301
▁ID	-11.1305
▁आर्क	-11.1306
▁तिरु	-11.1307
▁श्रमिकों	-11.1311
▁काटने	-11.1311
स्थित	-11.1314
▁प्रतिवेदन	-11.1321
ोदय	-11.1322
▁तारे	-11.1323
शब्द	-11.1337
▁११	-11.1339
action	-11.1343
▁लगेगा	-11.1344
▁संस्थापन	-11.1346
ल्लाह	-11.1349
▁फैले	-11.1352
थित	-11.1354
▁झगड़ते	-11.1358
जहां	-11.1359
▁भटका	-11.1361
▁बहुल	-11.1362
ाइयों	-11.1364
▁संकीर्ण	-11.1364
▁मौखिक	-11.1364
▁स्वतन्त्र	-11.1365
▁लेनदेन	-11.1365
▁कट्टर	-11.1365
▁संयोग	-11.1366
▁व्याकरण	-11.1369
▁अनुबंध	-11.1369
▁तैर	-11.1371
▁पृथक्	-11.1373
▁महिमा	-11.1379
▁लीजिए	-11.1386
▁एनपीएस	-11.1387
▁पारदर्शी	-11.1388
▁अनुक्रिया	-11.139
▁कार्यकलापों	-11.1392
▁गेंदबाज	-11.1399
▁ताज	-11.1405
▁पारिश्रमिक	-11.1408
▁प्रतिबिंब	-11.1408
mail	-11.1408
▁राजवंश	-11.141
रिवाज	-11.1415
दत्त	-11.1418
▁अफ़सोस	-11.1422
व्यक्ति	-11.1427
▁अद्भुत	-11.1429
▁पंद्रह	-11.1429
▁पारिस्थितिक	-11.1429
▁विलोपित	-11.1429
▁निविदा	-11.143
▁अटकल	-11.143
▁वात	-11.1433
¤·	-11.1433
▁चोर	-11.1434
▁अभिनेता	-11.1435
▁व्यास	-11.1437
▁भोग	-11.1438
▁प्रिंट	-11.1439
▁बारिश	-11.1445
▁मेघ	-11.1446
सिद्ध	-11.1451
▁प्रोफ़ाइल	-11.1451
▁बिखर	-11.1457
▁टेस्ट	-11.1457
ऐसे	-11.1459
▁संस्थापक	-11.1459
61	-11.1463
ानंद	-11.1465
▁देखिए	-11.1468
▁मूल्यवान	-11.1472
▁बग़ैर	-11.1473
▁अर्जुन	-11.1474
▁लाहौर	-11.1474
▁पूरक	-11.1474
सख्त	-11.1479
ानन्द	-11.1481
▁निवासियों	-11.1484
▁बिल्ड	-11.1485
▁अपरि	-11.1491
▁अनुज्ञा	-11.1491
87	-11.1493
▁निषेध	-11.1496
▁सांख्यिकी	-11.1496
▁कदाचित	-11.1496
▁पोषक	-11.1497
▁$	-11.1505
ान्तर	-11.1506
▁गिल	-11.1511
कुफ्फ़ार	-11.1513
पृष्ठ	-11.1513
▁तिहाई	-11.1515
▁महाकाव्य	-11.1518
▁सहभागिता	-11.1518
▁दुशमन	-11.1518
पीआई	-11.1527
▁बुलाए	-11.153
▁मुहल	-11.1534
▁and	-11.1534
▁पाएगा	-11.1538
▁आशुतोष	-11.154
▁गेहूं	-11.154
▁हिम्मत	-11.154
▁भेजते	-11.1541
▁छुड़ा	-11.1544
▁शर्मा	-11.1548
▁1950	-11.1552
na	-11.156
▁इच्छाओं	-11.156
É	-11.1562
▁दरगुज़र	-11.1562
▁मौजिज़ा	-11.1562
केन्द्र	-11.1562
▁कोविड	-11.1564
▁परंपराओं	-11.1565
▁अनिश्चित	-11.1565
▁राग	-11.1566
▁अप्रिय	-11.1575
▁नीला	-11.1575
श्‍	-11.1579
▁भट्ट	-11.1582
▁अहं	-11.1582
▁आबंटित	-11.1584
▁निश्चिन्त	-11.1584
▁ग्रुप	-11.1584
▁निरपेक्ष	-11.1585
▁जनजातियों	-11.1587
▁बिलियन	-11.1591
▁फंड	-11.1591
▁भगत	-11.1591
▁ढल	-11.1591
▁नातेदार	-11.1595
कर्त्ता	-11.1597
एसटी	-11.1599
▁उधर	-11.16
97	-11.1603
▁मौके	-11.1603
89	-11.1606
वंत	-11.161
▁जज	-11.1617
▁संस्थाएं	-11.1618
▁अभियुक्त	-11.1618
वुड	-11.1621
सुविधा	-11.1625
▁एंव	-11.1627
▁शुष्क	-11.1629
▁क्लास	-11.1633
▁असत्य	-11.1633
▁मिश्र	-11.1635
▁लगाई	-11.1647
98	-11.1648
▁1000	-11.1649
▁१७	-11.1654
स्‍थ	-11.1663
चक्र	-11.1664
▁टीवी	-11.1669
▁इज्ज़त	-11.1674
▁पूछताछ	-11.1674
▁रिमोट	-11.1674
▁रविशंकर	-11.1674
▁ग्रीन	-11.1678
▁ख़त	-11.1683
▁दौरे	-11.1686
▁स्थाई	-11.1691
▁इल्ज़ाम	-11.1696
▁जगन्नाथ	-11.1696
▁विश्राम	-11.1696
▁निष्पादित	-11.1696
▁मुद्दा	-11.1697
येंगे	-11.1697
▁हटाना	-11.1697
▁विमानक्षेत्र	-11.1698
▁अर्द्ध	-11.17
▁बीमारियों	-11.17
AT	-11.1715
▁समझाने	-11.1718
▁क्रियान्वयन	-11.1719
▁जाएंगी	-11.1727
▁रथ	-11.1732
▁गरम	-11.1733
ख़ास	-11.1738
▁आविष्कार	-11.1742
▁सर्प	-11.1757
▁अण्ड	-11.1759
▁ब्रैसेरो	-11.1764
▁वापिस	-11.1764
▁प्रदाह	-11.1764
▁विधवा	-11.1764
▁कहलाता	-11.1765
▁स्लाइड	-11.1765
▁धुंध	-11.1767
▁गौ	-11.1773
▁42	-11.1773
▁खाद	-11.178
▁ठहराए	-11.1784
Generic	-11.1787
▁भयानक	-11.1787
▁समीप	-11.1788
▁टेढ़	-11.1795
▁भागवत	-11.1795
▁अपमानित	-11.1802
सल्ल	-11.1803
▁पहने	-11.1809
▁निस्बत	-11.181
▁तिब्बत	-11.181
▁फ़ज़ल	-11.181
▁बैठने	-11.1815
▁चुप	-11.182
▁चुनने	-11.1825
91	-11.1831
▁रोकथाम	-11.1833
▁रोगियों	-11.1835
उद्	-11.1838
▁वर्गीकृत	-11.1839
बॉक्स	-11.1841
फेर	-11.1842
▁विशेषताएं	-11.1846
▁आरेख	-11.1848
▁पढ़ना	-11.1848
ard	-11.1849
▁छापें	-11.1853
▁राज्यक्षेत्र	-11.1854
▁नीतियां	-11.1854
▁नारी	-11.1855
▁समकक्ष	-11.1856
▁आवासीय	-11.1856
▁कारीगर	-11.1856
▁श्रीवास्तव	-11.1858
▁हौ	-11.1858
▁In	-11.1859
कंठ	-11.1864
निर्धारण	-11.1876
▁आबंटन	-11.1878
▁अल्पसंख्यक	-11.1879
व्यापी	-11.188
▁1998	-11.1882
▁फारसी	-11.1884
भला	-11.1886
▁फ़रमाया	-11.1888
▁प्रवास	-11.1888
भावना	-11.1896
raviratlami	-11.1901
▁अस्वीकृत	-11.1901
▁संप्रदाय	-11.1901
बोहतान	-11.1902
▁मिटाने	-11.1902
मक्ख	-11.1905
▁बंगला	-11.191
▁सजीव	-11.192
▁आश्रय	-11.1925
▁बेख़बर	-11.193
प्रधान	-11.1947
▁ढोल	-11.1947
▁जगत्	-11.1947
▁अपलोड	-11.1948
▁ज़रुरत	-11.1948
▁अब्बा	-11.1949
▁कारावास	-11.1952
▁व्याप्त	-11.1953
खोलकर	-11.1964
▁गणेश	-11.1966
▁मर्यादा	-11.1971
▁हल्के	-11.1971
▁तत्पर	-11.1973
▁भ्रमण	-11.198
▁टु	-11.1989
▁खाड़ी	-11.1993
▁चालीस	-11.1995
▁मल्टी	-11.1996
▁भूभाग	-11.1998
एसआई	-11.1998
▁विचारण	-11.2005
▁अत्याचारियों	-11.2014
▁स्केल	-11.2014
▁स्वेच्छा	-11.2017
▁संस्कार	-11.2017
सीआई	-11.2026
▁तसदीक़	-11.2041
▁हुज़ूर	-11.2041
▁प्रौढ़	-11.2041
▁धरोहर	-11.2041
▁हिमनद	-11.2041
▁लेखापरीक्षा	-11.2041
▁गुमान	-11.2045
▁रोकें	-11.2048
▁उदर	-11.2051
▁छीन	-11.2061
▁विकिपीडिया	-11.2064
▁सनातन	-11.2064
▁गिरावट	-11.2064
पुत्र	-11.2066
ja	-11.2074
▁विचित्र	-11.2085
label	-11.2087
▁शृंखला	-11.2087
▁सहारे	-11.2088
▁उग्रवाद	-11.2096
▁लूट	-11.21
रक्षित	-11.2108
▁लिखत	-11.2109
डीपी	-11.211
▁वार्तालाप	-11.2111
▁हुकुम	-11.2111
▁सहभागी	-11.2111
▁पूर्वोक्त	-11.2111
up	-11.2113
ion	-11.2118
▁निर्माताओं	-11.212
▁बढ़ाकर	-11.2123
जाति	-11.2125
▁अनजान	-11.2125
ग्ध	-11.2128
▁बिछ	-11.2128
▁मरीज	-11.2132
▁बलिदान	-11.2134
▁दौलत	-11.2134
▁क्षतिपूर्ति	-11.2135
▁प्रतिष्ठान	-11.2138
▁आईपी	-11.2141
▁चुपके	-11.2142
▁मजिस्ट्रेट	-11.2158
▁जेहाद	-11.2158
▁मुहताज	-11.2158
▁क्रियाओं	-11.2158
▁राजकीय	-11.2158
िरत	-11.2158
▁पिछड़े	-11.2159
▁छंद	-11.2167
▁ताजा	-11.2172
▁फीड	-11.2175
▁संभावनाएं	-11.2181
▁ग्लोबल	-11.2182
▁शाश्वत	-11.2182
▁पैटर्न	-11.2182
चर्या	-11.2183
▁कब्र	-11.2185
▁लाभदायक	-11.2185
▁सदियों	-11.2187
▁पुनर्वास	-11.2187
▁जुदा	-11.2199
चरण	-11.2204
▁पोशीदा	-11.2205
▁स्वराज	-11.2206
▁बाँट	-11.2206
▁कॉन्फ़िगरेशन	-11.2207
थ्र	-11.2209
▁विशेषज्ञता	-11.2225
▁बूट	-11.2225
▁घातक	-11.223
▁नारियल	-11.2233
▁छेड़	-11.2234
▁म्यू	-11.2235
हानि	-11.2238
कुमार	-11.2247
▁तारीफ	-11.2247
▁गायब	-11.2248
▁ग़ुलाम	-11.2253
▁मक़सूद	-11.2253
▁हानिकारक	-11.2253
▁हल्की	-11.2253
▁अभिवृद्धि	-11.2254
▁बकाया	-11.2255
▁फरमाएगा	-11.2255
gt	-11.2261
▁आगाह	-11.2268
▁भ्रूण	-11.2277
▁सल्तनत	-11.2277
▁तुरन्त	-11.2277
▁महिलाएं	-11.2284
▁क्रो	-11.2291
▁मुकाबला	-11.2301
▁तमन्ना	-11.2301
हिजरत	-11.2302
▁कामयाबी	-11.2306
▁कमाया	-11.2312
▁पुरा	-11.2313
▁ऑंखें	-11.2317
पेश	-11.2319
▁बहती	-11.232
▁कॉन्	-11.2323
▁आंबेडकर	-11.2325
▁श्वसन	-11.2325
▁तैनात	-11.2326
tor	-11.2327
▁मास्टर	-11.2328
▁दिखायी	-11.2332
93	-11.2333
▁निकालें	-11.2337
▁स्वार्थ	-11.2338
▁जांचें	-11.2338
▁अष्ट	-11.234
▁शेयरधारक	-11.2349
कुदरत	-11.235
▁लॉगिन	-11.2355
▁सहनशील	-11.236
▁सीखा	-11.2361
▁विजेता	-11.2366
▁URI	-11.2373
▁एक्सटेंशन	-11.2373
▁गुलाब	-11.2376
▁यूसुफ़	-11.238
मोद	-11.2382
▁असंगत	-11.2384
▁ढूँढ	-11.2394
▁ज़िम्मेदार	-11.2395
▁दवाओं	-11.2395
▁अग्रेषित	-11.2397
िस्म	-11.2401
▁ऊंट	-11.2402
nc	-11.2406
▁छिपे	-11.2409
▁फार	-11.2411
▁कामयाब	-11.2416
▁बदरूद्दीन	-11.2421
▁अनुयायी	-11.2421
▁क़ब्र	-11.2425
▁रुख़	-11.2442
▁ख़ाक	-11.2444
[	-11.2445
▁विधायिका	-11.2445
▁भयंकर	-11.2445
API	-11.2445
▁org	-11.2446
▁अधिग्रहण	-11.2447
▁संचरण	-11.245
युद्ध	-11.2451
44	-11.2453
▁क्रिस	-11.2457
पात्र	-11.2457
▁दूत	-11.2459
▁रहोगे	-11.2467
est	-11.2468
▁सरस्वती	-11.247
▁१३	-11.2472
▁आरक्षण	-11.2473
मेरी	-11.2483
स्पेस	-11.2483
▁दण्ड	-11.2483
मरने	-11.2489
▁सौहार्द	-11.2494
▁आत्मविश्वास	-11.2495
▁समायोजित	-11.2495
▁१४	-11.2496
▁1991	-11.2498
अंतर	-11.2499
बीएस	-11.2501
▁खादी	-11.2502
▁ठहरने	-11.2505
प्ति	-11.2506
जिसके	-11.2507
मेरा	-11.2509
▁NAME	-11.2514
▁अपर्याप्त	-11.2519
▁पूँजी	-11.2519
▁महर्षि	-11.2519
▁कश्ती	-11.2519
आरआई	-11.2519
▁तूफान	-11.2519
▁कहानियाँ	-11.2519
OR	-11.2521
▁विधानमंडल	-11.2521
▁दिशाओं	-11.2522
बड़ी	-11.2537
▁मुर्दा	-11.2539
▁तेलुगु	-11.2543
▁पारिवारिक	-11.2543
▁सिनेमा	-11.2543
▁उदासीन	-11.2544
▁पिघल	-11.2546
▁हुर्इ	-11.2547
्रेट	-11.2552
▁खुलने	-11.2553
▁डराओ	-11.2553
▁मौज़ूदा	-11.2555
2018	-11.2566
▁जरुरी	-11.2568
▁मार्गदर्शक	-11.2568
▁मुद्दत	-11.2568
▁उग्र	-11.2568
▁उतने	-11.2568
▁व्यक़्ति	-11.2569
▁छात्रवृत्ति	-11.257
▁बुद्धिमान	-11.2571
▁अनुकम्पा	-11.2572
▁निर्देशित	-11.2574
▁रूसवा	-11.2584
▁साम्राज्यवाद	-11.2591
▁नीर	-11.2591
▁whatsthis	-11.2592
▁जबरदस्त	-11.2592
▁आश्चर्यजनक	-11.2594
▁संबध	-11.2595
▁अधीनस्थ	-11.2596
बोर्ड	-11.2597
▁कृतज्ञ	-11.26
▁तटीय	-11.26
▁अमन	-11.2608
▁चिड़ी	-11.261
▁शै	-11.261
▁यूआरएल	-11.2617
▁शहीद	-11.2617
▁दुर्बल	-11.2619
▁पवन	-11.2624
साध्य	-11.2628
▁तात्कालिक	-11.2642
▁जॉर्ज	-11.2642
▁सोवियत	-11.2642
▁खगोल	-11.2642
▁आज़मा	-11.2642
▁सूखे	-11.2647
▁आचार	-11.2649
व्यस्त	-11.2657
▁हम्द	-11.2661
फ्रे	-11.2664
मुनासिब	-11.2667
▁अनुष्ठान	-11.2667
▁पिक्सेल	-11.2667
▁आपराधिक	-11.2667
एसएल	-11.2672
▁चिड़िया	-11.2673
▁सापेक्ष	-11.2674
बदल	-11.2676
▁संज्ञा	-11.2683
▁फिट	-11.2685
ke	-11.2687
विद्	-11.2689
▁अनुस्मारक	-11.2691
▁एमएसएमई	-11.2691
▁नियोजक	-11.2691
▁मसौदा	-11.2691
▁स्थगित	-11.2691
तुम्हारी	-11.2692
दिवस	-11.2693
▁बहुमूल्य	-11.2693
▁लाभप्रद	-11.2696
▁पर्दा	-11.2696
▁जाँचें	-11.27
▁अभियोग	-11.2704
▁सफ़र	-11.2705
▁टैक्स	-11.2709
▁आधुनिकीकरण	-11.2709
▁राजनयिक	-11.2716
▁समन्वित	-11.2716
▁यतीम	-11.2716
▁साइन	-11.2721
ोसिस	-11.2723
▁फुल	-11.2734
▁प्रत्यर्थी	-11.2741
▁अमृत	-11.2742
▁क्षतिग्रस्त	-11.2742
▁जबतक	-11.2743
▁बुलन्द	-11.2745
▁शब्दावली	-11.2745
▁प्रमाणीकरण	-11.2758
▁मूर्तियों	-11.2761
ष्‍ट	-11.2763
▁पुनर्गठन	-11.2766
▁दुबारा	-11.2766
▁क्षेत्रफल	-11.2767
▁हकीम	-11.2767
▁बुश	-11.2768
ill	-11.2777
▁रवि	-11.2779
रोज़	-11.2788
▁द्वारकानाथ	-11.2792
▁प्लास्टिक	-11.2792
▁विवेकानंद	-11.2792
▁मूर्तिकला	-11.28
▁रखनेवाले	-11.2811
▁नाटकीय	-11.2811
▁ऊन	-11.2812
हिन्दी	-11.2818
▁दैव	-11.2819
गुनाह	-11.2819
भाषी	-11.282
▁दिखाएं	-11.2825
▁बाजू	-11.2828
▁पद्धतियों	-11.2832
▁रूपान्तर	-11.2839
्योर	-11.284
▁उद्धरण	-11.2842
▁संख़्या	-11.2842
▁अभिप्राय	-11.2842
▁मुख़्य	-11.2842
▁निःशुल्क	-11.2842
सूत्र	-11.285
▁शांतिपूर्ण	-11.2857
विद्या	-11.2866
▁ऑर्	-11.2867
▁चाहेगा	-11.2867
विकास	-11.2867
▁फाउंडेशन	-11.2867
▁समुच्चय	-11.2867
▁आमंत्रण	-11.2867
▁मुद्रक	-11.2868
▁इंसान	-11.287
▁दिखता	-11.2872
▁माया	-11.2876
▁बिछा	-11.2876
100	-11.2879
▁परिणत	-11.2879
▁विलंब	-11.2882
▁लौह	-11.2889
▁भूकंप	-11.2893
▁वाकई	-11.2893
▁अब्दुल्ला	-11.2893
▁अहंकार	-11.2897
▁गोपाल	-11.2901
▁राइ	-11.2903
मूसा	-11.2906
▁चित्त	-11.291
▁रखनेवाला	-11.2912
▁कौंसिल	-11.2918
▁स्क्रॉल	-11.2918
▁मेहमान	-11.2918
ip	-11.2919
▁जुड़ने	-11.294
▁बुनियाद	-11.294
EMAIL	-11.2944
▁एसोसिएशन	-11.2944
▁अस्पष्ट	-11.2944
▁निर्वहन	-11.2944
क़ुदरत	-11.2946
जहन्नुम	-11.2946
▁नौसेना	-11.2947
आईडी	-11.2947
▁अन्तः	-11.2949
▁नाच	-11.2963
टीपी	-11.2966
देखो	-11.2967
star	-11.2967
▁चेन्नई	-11.2969
▁इसराइल	-11.297
▁सोशल	-11.297
इतना	-11.2972
▁कतार	-11.2984
▁मुअय्य	-11.2995
इख्तेयार	-11.2995
▁नाफ़रमानी	-11.2995
▁निरूपित	-11.2995
▁गुणसूत्र	-11.2996
▁देशभक्त	-11.3
▁जयपुर	-11.3001
▁यश	-11.3007
क्चर	-11.3012
▁खिंच	-11.3021
▁मंत्रिमंडल	-11.3021
▁लड़कों	-11.3029
▁ग्रेड	-11.3029
▁खिसका	-11.3031
▁मठ	-11.3037
निधि	-11.3039
▁कीटनाशक	-11.3046
▁श्वास	-11.3046
▁श्रेष्ठता	-11.3054
▁बोर	-11.3055
▁वाच	-11.3059
▁याचिकाकर्ता	-11.3067
q	-11.307
▁मृदा	-11.3072
▁रस्सी	-11.3072
वर्धित	-11.3073
▁लौटाए	-11.3073
▁दर्शाती	-11.3093
▁मलयालम	-11.3098
▁हड़ताल	-11.3098
▁हेक्टेयर	-11.3098
▁समेत	-11.3099
▁दिनांकित	-11.3102
▁अनन्य	-11.3104
▁उत्प	-11.3105
इंग	-11.3106
▁आदिवासी	-11.3109
ॉक्स	-11.311
▁गिर्द	-11.3118
मूर्ति	-11.312
▁चुंबकीय	-11.3124
▁सौन्दर्य	-11.3124
▁रेखांकित	-11.3124
▁आलोचक	-11.3124
▁वर्ल्ड	-11.3126
▁उपरांत	-11.3127
▁साठ	-11.3138
▁प्रबंधित	-11.314
▁खूबसूरत	-11.315
▁इंगित	-11.315
कैलेंडर	-11.315
▁अपरिचित	-11.3151
▁क़ु	-11.3157
▁चलेगा	-11.3173
▁छत्तीसगढ़	-11.3176
▁ताजमहल	-11.3176
▁वाजपेयी	-11.3176
▁उत्थान	-11.3176
▁पॉलिसी	-11.3176
▁अवसाद	-11.3176
▁अक्ल	-11.3178
▁ईसवी	-11.3178
▁जन्मदिन	-11.318
दक्षिण	-11.318
▁सौदे	-11.3183
▁ढलान	-11.3184
▁भुजा	-11.3185
ण्ण	-11.3188
▁कपास	-11.3193
▁Const	-11.3194
out	-11.3201
▁निमंत्रण	-11.3202
▁पौराणिक	-11.3202
▁वायदे	-11.3202
▁भित्ति	-11.3203
▁मुराद	-11.3203
▁मैसूर	-11.3208
IP	-11.3209
▁कृतियों	-11.3209
▁दूंगा	-11.321
▁वृक्क	-11.3213
उनको	-11.3227
▁पांडुलिपि	-11.3229
world	-11.3229
▁शोकाकुल	-11.3229
▁अलार्म	-11.3229
▁ललिता	-11.3229
▁1997	-11.3233
▁1987	-11.3233
▁आएँगे	-11.3241
▁अभिकरण	-11.325
▁आक्षेप	-11.325
▁जटिलता	-11.3254
▁इकट्ठे	-11.3255
▁लॉन्च	-11.3255
▁प्रशस्त	-11.3255
फॉर्म	-11.3259
▁अश्लील	-11.3281
▁साँचाः	-11.3281
▁प्लग	-11.3281
▁अणु	-11.3282
file	-11.3283
▁अन्दाज़	-11.3283
निर्धारित	-11.3285
▁जैसाकि	-11.3287
one	-11.3289
तौरैत	-11.3292
सत्ता	-11.3293
▁बुर्ज	-11.3296
▁निरस्त	-11.3302
दृ	-11.3304
▁दिखाओ	-11.3305
▁पर्यवेक्षण	-11.3308
▁पैग़ाम	-11.3308
▁शास्ति	-11.331
▁स्थानांतरण	-11.3312
चिकित्सा	-11.3312
▁दोहरी	-11.3315
▁दिलाया	-11.3317
▁घिरा	-11.3319
▁चन्द्रमा	-11.3319
▁प्रारम्भिक	-11.3319
शिक्षा	-11.3323
▁सदृश	-11.3328
▁अनुयायियों	-11.3334
▁चुपचाप	-11.3334
▁व्यायाम	-11.3334
▁इटली	-11.3334
▁विकेट	-11.3335
▁बेचैन	-11.3336
▁शत्रुओं	-11.3338
▁हास्य	-11.3338
बुद्धि	-11.3339
▁छवियों	-11.3342
ह्न	-11.3342
▁बेगम	-11.3348
▁हठ	-11.3351
▁करवाया	-11.3357
▁स्नातकोत्तर	-11.3361
▁सघन	-11.3361
▁सपने	-11.3362
▁कारस्तानिय	-11.3362
▁कलात्मक	-11.3364
NAME	-11.3365
cast	-11.3367
▁क्लो	-11.3367
▁मेहर	-11.3368
▁दक्ष	-11.3375
सलाम	-11.3377
▁विराम	-11.3377
▁हवाले	-11.3378
▁अनुपस्थित	-11.3379
▁बुलाते	-11.3383
ांतरण	-11.3384
निवेश	-11.3387
▁निगेहबान	-11.3388
जिबरील	-11.3388
▁अमान्य	-11.3388
▁लंबित	-11.3388
▁महाविद्यालय	-11.3389
▁रूजू	-11.3392
क्षमता	-11.3405
▁वाक़िफ़कार	-11.3406
▁सामंजस्य	-11.3414
▁नगरपालिका	-11.3414
▁ज़ूम	-11.3414
▁अपमानजनक	-11.3415
▁सेकेंड	-11.3416
▁घोर	-11.3417
▁क्रूर	-11.3421
▁शिरा	-11.3423
▁प्रसारित	-11.3428
▁बहाल	-11.3429
▁एहसास	-11.3441
▁डिज़ाइन	-11.3441
▁निकोबार	-11.3441
▁समूचे	-11.3441
▁जुल्म	-11.3444
▁इंद्र	-11.3444
गुआ	-11.3446
▁(6)	-11.3446
▁आकांक्षाओं	-11.3448
१०	-11.3456
▁जूट	-11.346
संख्य	-11.3462
▁तनिक	-11.3464
▁पर्वतीय	-11.3467
▁राधाकृष्णन	-11.3468
▁चौदह	-11.3468
▁ख़याल	-11.3468
▁अहमदाबाद	-11.3468
▁राधा	-11.347
द्वीप	-11.3472
▁नियोजित	-11.3473
कश्मीर	-11.3473
▁1996	-11.3474
▁उठते	-11.3475
▁बलराम	-11.3481
▁सूखा	-11.3487
▁जमींदार	-11.3495
▁वित्तपोषण	-11.3496
लौकिक	-11.3498
▁समतल	-11.3502
▁प्रताप	-11.3504
▁डिप	-11.3511
▁शॉर्टकट	-11.3522
▁मन्दिर	-11.3522
▁साहिब	-11.3523
ISO	-11.3524
▁रहनेवाले	-11.3524
▁परिपथ	-11.3525
▁मंज़िले	-11.3526
परीक्षा	-11.3526
पीछे	-11.3527
▁पंक्तियों	-11.3539
▁टुकड	-11.3542
▁अभयारण्य	-11.3549
▁तत्पश्चात	-11.3549
▁उपरोक्त	-11.3549
▁लार्वा	-11.3549
▁मायने	-11.3549
▁मस्त	-11.3551
▁शब्दकोश	-11.3551
बैंक	-11.3558
न्‍द	-11.3563
▁सुखद	-11.3564
इयां	-11.3567
विश्वास	-11.3573
▁जिन्होने	-11.3576
▁साप्ताहिक	-11.3576
▁फंक्शन	-11.3576
▁फतेह	-11.3576
▁BAR	-11.3577
बढ़	-11.3579
शैली	-11.3582
▁महाराज	-11.3584
▁मध्यवर्ती	-11.359
▁जुट	-11.3593
कुरान	-11.3593
▁चिंतित	-11.3603
▁बुराइयों	-11.3603
▁क़बूल	-11.3603
▁बम्बई	-11.3603
▁उपहास	-11.3604
▁विजेट	-11.3604
▁ख़त्म	-11.3607
▁कूद	-11.3609
▁बाघ	-11.3611
▁रावण	-11.3613
▁क्यो	-11.3614
▁रखेंगे	-11.3624
aol	-11.3625
▁रसोई	-11.3631
▁गर्भवती	-11.3632
▁इन्साफ़	-11.3632
▁अंडमान	-11.3639
▁रूढ़	-11.3643
▁आंखें	-11.3644
ग्राही	-11.3658
▁पुरातत्व	-11.3658
▁स्नायु	-11.3658
▁साम्यवाद	-11.3659
▁सज्जन	-11.3659
अर्थात	-11.3664
▁अर्थशास्त्र	-11.3668
▁मेनन	-11.3668
▁क़दर	-11.3671
▁वृहत	-11.3675
▁वाजे	-11.3675
▁आकांक्षा	-11.3678
▁नियन्त्रण	-11.3686
▁लक्ष्मण	-11.3686
ज़मीन	-11.3692
▁फ्रे	-11.3707
▁ड्राफ्ट	-11.3713
▁दफा	-11.3714
▁कानपुर	-11.3718
▁शौक	-11.3728
▁फर्क	-11.3729
▁वास्तु	-11.3741
▁उखाड़	-11.3741
▁परिमाण	-11.3741
▁चिन्ता	-11.3741
प्शन	-11.3743
▁शिविर	-11.3746
▁सुश्री	-11.3747
▁मूर्त	-11.3751
गृहीत	-11.3752
उत्तर	-11.3754
ाक्षर	-11.376
▁नोकिया	-11.3769
▁राजपूत	-11.3769
▁सुलभ	-11.3769
▁सार्वभौमिक	-11.3772
▁टेक्न	-11.3774
▁गाथा	-11.3778
▁युग्म	-11.378
▁जकड़	-11.3781
▁घुमाव	-11.3786
गर्भ	-11.3787
▁पीढ़ियों	-11.3796
▁उपासना	-11.3796
▁ग़ैब	-11.3796
▁यूनानी	-11.3796
▁मापदंड	-11.3797
▁बरहक़	-11.3798
▁1986	-11.3801
▁सफर	-11.3804
आदम	-11.3808
▁हार्ड	-11.381
▁फरमाई	-11.3812
▁कटाई	-11.3813
▁प्रातः	-11.382
लब्ध	-11.3822
▁घंटा	-11.3824
▁त्रिपुरा	-11.3824
▁अविलय	-11.3828
▁मोटी	-11.3828
▁1993	-11.3829
▁fore	-11.3829
▁विश्वासघात	-11.3832
ga	-11.3837
▁लिपट	-11.3839
▁कौम	-11.3843
▁तात्पर्य	-11.3852
▁बागवानी	-11.3852
and	-11.3854
ब्रि	-11.3854
िटर	-11.3856
▁जिक्र	-11.3857
▁सीरिया	-11.3867
▁अनियमित	-11.388
▁बनारस	-11.3883
▁कोयले	-11.3885
▁पड़ेगी	-11.3887
▁तराश	-11.3887
▁अर्श	-11.3901
▁पेपर	-11.3909
▁विधायी	-11.391
▁उपाध्यक्ष	-11.3913
▁रिश्ते	-11.393
option	-11.3936
▁प्रीमियम	-11.3936
▁भैंस	-11.3936
निर्मित	-11.3946
िज्म	-11.3951
▁नामांकन	-11.3953
▁ट्यू	-11.3955
▁औचित्य	-11.3965
▁बुखार	-11.3965
▁उन्मुख	-11.3965
▁परिवर्धित	-11.3967
▁असंख्य	-11.3977
▁आर्ट	-11.3987
▁काश्मीर	-11.3993
▁प्रेरक	-11.3993
संशोधन	-11.4001
▁उद्धृत	-11.4021
▁प्रामाणिक	-11.4021
▁अकारथ	-11.4021
▁सोलह	-11.4022
▁जागरूक	-11.4025
▁ख़ज़ान	-11.4029
▁1980	-11.4029
उन्हें	-11.403
पहल	-11.403
▁फाड़	-11.4033
tra	-11.4034
▁पत्रकार	-11.4037
यहाँ	-11.4037
▁ठान	-11.4038
▁हावी	-11.4045
▁मॉग	-11.4049
▁आस्ट्रेलिया	-11.405
▁कसौटी	-11.405
▁सैकड़ों	-11.405
type	-11.405
▁अलिफ़	-11.405
▁Google	-11.405
▁पहुच	-11.405
▁चाप	-11.4062
▁स्तूप	-11.4078
▁उल्लास	-11.4079
▁पूरब	-11.4079
▁नरेंद्र	-11.408
ोन्मुख	-11.4081
▁देहात	-11.4095
▁मूलतः	-11.4098
▁क्लाइंट	-11.4107
▁मेडिकल	-11.4107
▁आधारशिला	-11.4107
▁गड़बड़	-11.4107
able	-11.4108
▁कालावधि	-11.4112
▁विषयवस्तु	-11.4113
▁कन्या	-11.4126
ियॉँ	-11.4126
▁कैबिनेट	-11.4136
▁निर्दोष	-11.4136
▁चूँकि	-11.4136
	-11.4136
▁संबोधन	-11.4136
एसएम	-11.4138
ग्रंथ	-11.4146
▁दाएँ	-11.4147
▁पूज	-11.4151
▁समितियां	-11.4154
▁वाराणसी	-11.4165
▁बछड़े	-11.4165
▁चौपाय	-11.4165
▁हॆ	-11.4168
¤¥	-11.417
कुशल	-11.4174
बेहश्त	-11.4174
क़ौम	-11.4175
▁सद्भावना	-11.4177
ana	-11.4179
एमएल	-11.4181
▁एक्सेस	-11.4182
SS	-11.4187
▁अकारत	-11.4194
▁रंगीन	-11.4194
▁निदेशालय	-11.4194
▁गुज़ार	-11.4195
▁झुठलाए	-11.4212
▁ख़ुशनूदी	-11.4223
▁पुनरावृत्ति	-11.4223
▁उपास्य	-11.4223
▁अखंडता	-11.4223
▁लक्षित	-11.4223
▁क़ैद	-11.4223
▁दाँत	-11.4223
▁1988	-11.4231
्रेशन	-11.4231
६०	-11.4242
▁वबाल	-11.4243
▁कार्यकलाप	-11.4243
▁डिरेक्ट्री	-11.4252
▁प्रोफाइल	-11.4252
▁हुसैन	-11.4252
▁जरिये	-11.4252
▁असमानता	-11.4252
▁सेटअप	-11.4255
▁अफसर	-11.4255
▁नाराज	-11.4258
▁अंतरिम	-11.4258
▁संतति	-11.4261
▁हफ्ते	-11.4265
▁धूम	-11.4268
▁पूंजीगत	-11.4271
▁इंस्टीट्यूट	-11.4281
▁वाशिंगटन	-11.4281
▁लैंगिक	-11.4281
▁हाइड्रो	-11.4281
▁सुलह	-11.4281
▁टैंक	-11.4285
▁Anjuta	-11.431
▁लाभकारी	-11.431
▁प्यास	-11.4313
पैदा	-11.4318
वाणी	-11.4318
▁विजेताओं	-11.4319
▁तिरू	-11.4322
विषय	-11.4324
▁अन्‍य	-11.4324
▁Re	-11.4338
▁अरुणाचल	-11.4339
▁एल्गोरिथ्म	-11.4339
▁ताज्जुब	-11.4339
▁सिलसिले	-11.4339
▁छाँट	-11.434
▁एकाग्र	-11.434
▁मणील	-11.4345
▁उद्यमिता	-11.4345
ुल्ला	-11.4347
ऊंगा	-11.4352
फोर्ड	-11.4358
▁LDAP	-11.4369
▁प्रदूषक	-11.4369
▁ब्रितानी	-11.4369
▁प्रतिरक्षा	-11.4369
▁ऑफलाइन	-11.4372
▁1995	-11.4376
▁नोड्स	-11.4377
▁अवधारित	-11.4398
▁डिवाइस	-11.4398
box	-11.4398
▁संगोष्ठी	-11.4398
▁लश्कर	-11.4398
▁संभाव्य	-11.4398
▁बृहत	-11.4399
▁देखरेख	-11.4402
▁इन्द्रिय	-11.4406
सागर	-11.441
unit	-11.4412
▁भड़का	-11.4417
tic	-11.4417
▁पीएम	-11.4418
▁झुकाव	-11.442
▁३०	-11.4427
▁condition	-11.4428
▁पुस्‍तकालय	-11.4428
▁शताब्दियों	-11.4428
▁स्ट्रीट	-11.4428
▁पैदल	-11.443
▁वर्गाकार	-11.4435
▁नलिका	-11.4442
एसडी	-11.4455
▁एनकोडिंग	-11.4457
▁डेविड	-11.4457
▁मेहराब	-11.4458
न्ग	-11.4463
▁1990	-11.4463
ug	-11.4473
▁बेहतरीन	-11.4474
▁समाजवाद	-11.4478
▁देवनागरी	-11.4487
▁भण्डार	-11.4487
▁इन्द्र	-11.449
▁अनुमत	-11.4493
शीर्ष	-11.4501
▁शैव	-11.4501
शहर	-11.4504
DE	-11.451
बन्धु	-11.4514
▁ग्रीष्म	-11.4517
▁हड्डियों	-11.4517
▁योद्धा	-11.4517
▁विनोद	-11.4517
ध्र	-11.4525
all	-11.4532
▁शान्त	-11.4537
▁नित्य	-11.4542
▁तत्	-11.4542
▁साफ्टवेयर	-11.4547
|	-11.4547
▁संगणित	-11.4547
▁उपराष्ट्रपति	-11.455
▁तालमेल	-11.4551
▁तन्	-11.4554
ॉर्ड	-11.4559
गांव	-11.4562
▁पिंड	-11.4569
▁दरजे	-11.4575
▁विन्यस्त	-11.4577
▁विघटन	-11.4577
▁खुशहाली	-11.4577
▁रिसर्च	-11.4577
▁सब्जियों	-11.4577
▁भविष्यवाणी	-11.4578
▁अविश्वास	-11.4588
*	-11.4588
▁डिफ	-11.4589
▁पतली	-11.4596
▁सपना	-11.4608
▁न्यायमूर्ति	-11.4608
▁फीसदी	-11.461
गुप्त	-11.4611
▁चैट	-11.4613
जहन्नम	-11.4619
ग्ग	-11.4632
▁सांकेतिक	-11.4637
विश्व	-11.4638
▁वाष्प	-11.4638
▁क़ौल	-11.4641
no	-11.4642
ाइटिस	-11.4649
▁संकुल	-11.4657
▁बहरे	-11.4657
▁विवेचन	-11.4668
▁सउदी	-11.4668
▁व्यतीत	-11.4668
▁सशक्तीकरण	-11.4674
▁मियाद	-11.4675
vii	-11.4678
▁सज़ावार	-11.4679
▁जमानत	-11.4682
स्वरूप	-11.4687
गोष्ठ	-11.4695
france	-11.4698
▁इलाके	-11.4698
▁वल्लभ	-11.4698
▁ज्वर	-11.4698
▁बिठा	-11.4706
▁तुच्छ	-11.4706
▁अनुपस्थिति	-11.4707
▁क्रियान्वित	-11.4729
▁प्रत्युत्तर	-11.4729
▁रिएक्टर	-11.4729
▁तुलसी	-11.4729
▁लकीर	-11.4729
▁बाईं	-11.4729
▁आज्ञापालन	-11.4729
▁खुराक	-11.473
ak	-11.474
मौजूद	-11.4741
▁फरमाए	-11.475
विवाह	-11.4754
भूषण	-11.4758
▁अकादमिक	-11.4759
▁क्षेञ	-11.4759
▁उम्दा	-11.4759
▁खाद्यान्न	-11.4759
पट्ट	-11.476
▁प्रायोजित	-11.4761
▁अभिकल्प	-11.4767
▁सलामती	-11.4784
▁२५	-11.4784
▁गोप	-11.4787
▁तार्किक	-11.479
▁चतुर्थ	-11.479
▁पुरातन	-11.4791
एनआर	-11.4794
▁नवाब	-11.4798
स्मरण	-11.4804
▁इनायत	-11.4807
2011	-11.4817
▁उत्तेजित	-11.4821
▁तबाह	-11.4823
२४	-11.4829
▁फायर	-11.4829
▁तलवार	-11.483
ज़रूर	-11.4839
प्रेम	-11.484
२६	-11.4851
▁संप्रतीक	-11.4851
▁भूगोल	-11.4851
▁उकसा	-11.4852
gra	-11.4852
▁मुताबिक़	-11.4856
▁ख़ौफ़	-11.4858
▁1957	-11.4859
▁क़द्र	-11.4861
▁पेरिस	-11.4866
▁बागान	-11.4866
▁जायगा	-11.487
▁गुंजाइश	-11.4882
▁नवान्वेषी	-11.4882
▁कित्तूर	-11.4883
▁तमाश	-11.4888
▁सम्मुख	-11.489
▁आवेग	-11.4896
▁चित्रकार	-11.4897
▁इमेज	-11.4907
▁फ़ंक्शन	-11.4913
▁ख्याति	-11.4914
▁आश्रित	-11.4914
▁अपडेट	-11.4914
▁शीट	-11.4927
▁शंका	-11.4933
▁करूणाकर	-11.4945
▁पराजित	-11.4945
▁मरतबा	-11.4945
▁स्वादिष्ट	-11.4945
▁नीलामी	-11.4948
▁वैद्य	-11.4948
aoM	-11.4951
▁एंटी	-11.4953
▁आस्तियां	-11.4954
ञ्ज	-11.4956
▁स्टार्ट	-11.496
▁राज्‍य	-11.4972
▁कब्जे	-11.4976
▁बूढ़े	-11.4976
▁सिक्ख	-11.4976
▁इक़रार	-11.4978
ial	-11.4978
time	-11.498
▁साझेदार	-11.4986
तत्त्व	-11.5
▁POP	-11.5007
▁इकाइयां	-11.5007
▁प्रस्‍तुत	-11.5007
▁संदिग्ध	-11.5007
▁ऊर्ध्व	-11.5007
▁पोशाक	-11.5007
▁बैटरी	-11.5007
ल्यूशन	-11.5008
▁चौथे	-11.501
▁अतिमानसिक	-11.5011
▁245	-11.5012
▁अंधेरे	-11.5013
▁अमूर्त	-11.5016
▁अध्यादेश	-11.5039
▁नौजवान	-11.5039
▁परिष्कृत	-11.5039
New	-11.5039
▁फोकस	-11.5039
खेरत	-11.5047
आसमान	-11.5054
▁प्रतिबन्ध	-11.5063
शायर	-11.5063
▁परिप्रेक्ष्य	-11.507
▁आन्तरिक	-11.507
▁आश्वस्त	-11.507
▁मुम्बई	-11.507
▁ग़ज़ब	-11.507
▁यूनिकोड	-11.5071
▁ब्राउज़	-11.5075
प्रसार	-11.5079
J	-11.5085
आईआर	-11.5089
▁खडे	-11.5101
▁पंचवर्षीय	-11.5102
▁ख़राबी	-11.5102
▁आवंटन	-11.5102
▁उपद्रव	-11.5102
▁घंटों	-11.5102
▁स्टील	-11.5103
▁सदक़	-11.5106
▁आँक	-11.5111
▁ऑफिस	-11.5115
चिन्ह	-11.5118
▁क़्या	-11.5122
▁समाविष्ट	-11.5134
▁आरोग्य	-11.5134
▁बेहोश	-11.5134
▁लुप्त	-11.5136
old	-11.5141
▁अंकुर	-11.5144
कौन	-11.5156
▁कुचल	-11.5162
▁तिमाही	-11.5165
▁त्यौहार	-11.5165
▁धूम्रपान	-11.5165
▁हनुमान	-11.5166
▁मंत्रिपरिषद	-11.5166
▁यमुना	-11.5166
▁ताकीद	-11.5166
▁अंचल	-11.5169
▁खोखल	-11.5175
▁निम्नतर	-11.5181
▁कार्यवाहियों	-11.5197
▁वकालत	-11.5198
▁पेशकश	-11.5198
▁श्याम	-11.5199
▁कंधे	-11.52
▁निर्जीव	-11.5202
▁1971	-11.5204
▁मास्क	-11.5212
पुष्प	-11.5213
पुस्तक	-11.5213
▁पाबन्द	-11.5213
▁पॉव	-11.5215
▁बायाँ	-11.5219
▁1961	-11.5227
▁शिष्टमंडल	-11.5229
९९	-11.523
ुएब	-11.5232
क्लि	-11.5244
विहीन	-11.5244
स्क्रिप्ट	-11.5245
▁फर्ज	-11.5257
▁अकादेमी	-11.5262
▁रीसेट	-11.5263
▁मान्यताप्राप्त	-11.5263
▁डीपीआई	-11.5264
qu	-11.5264
▁जंतु	-11.5264
▁संयम	-11.5265
▁1976	-11.5268
▁ढूंढ़	-11.527
▁प्रेमचन्द	-11.5272
▁अवधारण	-11.5284
▁उत्तराधिकार	-11.5285
▁अठारह	-11.5294
▁वामपंथी	-11.5294
▁सन्दर्भ	-11.5294
▁वशीभूत	-11.5294
▁व्यंग्य	-11.5294
▁बरामद	-11.5295
▁श्रीकृष्ण	-11.5298
वृद्धि	-11.5308
वार्षिक	-11.531
▁फ़ोन	-11.5313
▁अम्र	-11.5322
▁अकृतज्ञ	-11.5326
▁प्रेमचंद	-11.5326
▁काल्पनिक	-11.5326
▁संकलित	-11.5326
▁खतरों	-11.5327
ुद्दीन	-11.5327
▁मादक	-11.5327
▁चूर्ण	-11.533
▁अभिदाय	-11.5335
राष्ट्रपति	-11.5341
प्रतिशत	-11.5342
▁वाकिफ	-11.5343
▁"{0}"	-11.5359
▁मेगावाट	-11.5359
▁सुसज्जित	-11.5359
▁उजागर	-11.5359
▁महोत्सव	-11.536
▁श्रव्य	-11.5361
साधन	-11.5363
▁बताये	-11.5372
▁विधिवत	-11.5373
कायदा	-11.5387
ान्तरण	-11.5388
▁translate	-11.539
▁उत्तेजना	-11.5391
▁पॉपअप	-11.5391
▁लाज़िम	-11.5391
▁नाजुक	-11.5391
▁दहकत	-11.5392
▁अंतर्वस्तु	-11.5392
▁रिश्तेदार	-11.5398
▁बिंब	-11.5398
▁सेवानिवृत्ति	-11.54
▁बैंड	-11.5419
▁अस्पृश्य	-11.5424
▁आक्रामक	-11.5424
▁मृदु	-11.5424
▁आर्द्र	-11.5427
▁फर्श	-11.5428
▁नर्तक	-11.5429
▁चार्ज	-11.5443
▁निवल	-11.5444
▁कुष्ठ	-11.5447
राष्‍ट्रीय	-11.5457
▁अरविंद	-11.5457
▁ड्रग्स	-11.5457
▁परिवीक्षा	-11.5457
▁सुपुर्दगी	-11.5458
▁स्ट्रीम	-11.5458
▁भोपाल	-11.5458
वर्धक	-11.5458
▁दुहरा	-11.5463
सामान्य	-11.5464
▁IMAP	-11.549
▁दुरुपयोग	-11.549
▁२००८	-11.549
▁वायरस	-11.549
▁शक़्ति	-11.5504
डेंट	-11.5507
▁क्रियाशील	-11.5512
▁शिश्न	-11.5523
▁केन्‍द्र	-11.5523
▁मानसून	-11.5523
▁वीणा	-11.5528
for	-11.5535
▁ग्रेट	-11.5545
2001	-11.5552
▁ओडिशा	-11.5556
▁पाश्चात्य	-11.5556
▁प्रायोगिक	-11.5556
▁संक्रामक	-11.5556
▁सिंगापुर	-11.5556
▁पत्तियों	-11.5556
कोशिका	-11.5558
▁निर्देशांक	-11.5559
state	-11.5562
▁साधु	-11.5563
▁गौण	-11.5564
चेंज	-11.5569
▁बंधु	-11.5571
एमपी	-11.5571
▁अनुमतियाँ	-11.5572
क्रांत	-11.558
▁प्रचलन	-11.5589
▁चैत्य	-11.5591
▁ढूँढ़	-11.5593
▁बेपरवा	-11.5594
tur	-11.5599
▁स्वर्गीय	-11.56
शंकर	-11.5608
कृतियां	-11.5609
▁उदास	-11.5614
१८	-11.5614
▁अवहेलना	-11.5622
▁उन्‍होंने	-11.5622
▁नोबेल	-11.5622
▁रिसालत	-11.5622
▁सब्सिडी	-11.5622
▁वाक्यांश	-11.5623
▁खारिज	-11.5624
फाई	-11.5652
▁खिड़की	-11.5656
▁रोबोट	-11.5656
▁दावों	-11.5657
विद्यालय	-11.5671
बक्सा	-11.5689
▁प्रशंसनीय	-11.5689
▁फ़ैसले	-11.5689
▁सुल्तान	-11.5689
▁जर्नल	-11.569
▁चौथी	-11.5691
शियल	-11.5712
▁खरगोश	-11.5723
▁राक्षस	-11.5724
▁घुटनों	-11.5725
▁समाचारपत्र	-11.5731
▁अनिवार्यतः	-11.5732
होंने	-11.5732
000/-	-11.5735
▁उठाएगा	-11.5741
स्वच्छ	-11.5749
▁कर्त्तव्य	-11.5757
▁भयभीत	-11.5757
▁वैधानिक	-11.5757
▁नियामक	-11.5757
¤£	-11.5759
▁एंटर	-11.5761
▁चाचा	-11.5764
नारायण	-11.5776
▁बढ़ोतरी	-11.5791
▁यौगिक	-11.5791
▁सर्किट	-11.5791
▁तेरह	-11.5791
▁वाजिब	-11.5791
▁आंत्र	-11.5795
▁कुत्ता	-11.58
▁पत्ता	-11.5804
▁निर्मल	-11.5806
मंडप	-11.5811
गिर्द	-11.5811
sion	-11.5818
▁अपरिहार्य	-11.5825
▁जनगणना	-11.5825
▁उत्तराखंड	-11.5825
▁पूंछ	-11.5825
▁माणिक	-11.5825
▁जेम्स	-11.5825
▁नाभिक	-11.5825
▁कहानियां	-11.5826
▁क्योकि	-11.5827
आधारित	-11.5844
संवेदन	-11.5852
▁बांग्ला	-11.5858
▁अंतर्निहित	-11.5859
▁सॉफ़्टवेयर	-11.5859
▁नक्शे	-11.5859
▁जागृत	-11.5859
▁पल्लव	-11.5859
▁टोकन	-11.5867
नसीब	-11.5871
▁सेकंड	-11.5872
▁द्रुत	-11.5893
▁नवीकरणीय	-11.5893
▁प्रक्षेपण	-11.5893
▁उन्मुक्त	-11.5893
▁विलक्षण	-11.5893
▁चिन्तन	-11.5893
▁प्रायद्वीप	-11.5893
▁पुण्य	-11.5896
सुधार	-11.5899
क्टिव	-11.59
und	-11.5901
वैज्ञानिक	-11.5912
जिसमें	-11.5919
¥	-11.592
▁अफ्रीकी	-11.5927
▁शुभारंभ	-11.5927
▁लिहाज	-11.5954
लॉग	-11.5958
▁अहसास	-11.5962
▁विनियामक	-11.5962
▁1951	-11.5962
▁नृत्‍य	-11.5962
▁चमड़े	-11.5962
▁फँस	-11.5964
▁स्वरुप	-11.5968
ount	-11.598
▁महानगर	-11.5981
▁चिकित्सीय	-11.5996
▁जुर्माना	-11.5996
▁रिटर्न	-11.5997
▁चेष्टा	-11.5997
key	-11.6001
▁सडक	-11.6002
▁1972	-11.6006
▁समानांतर	-11.6014
समन्वय	-11.6017
▁बरतन	-11.6019
ऍ	-11.6024
ऑपरेटिंग	-11.6031
▁अंतर्विष्ट	-11.6031
▁इंटरनेशनल	-11.6031
▁एप्लिकेशन	-11.6031
▁डेल्टा	-11.6031
▁अलंकृत	-11.6031
▁प्रिंस	-11.6031
▁डेयरी	-11.6031
▁पहाड	-11.6032
▁विश्वव्यापी	-11.6036
▁सुविधाजनक	-11.6037
▁नरेश	-11.6037
ies	-11.6038
▁1970	-11.6038
▁मनाही	-11.6038
थलग	-11.6039
▁मानवाधिकार	-11.6041
▁बढावा	-11.6042
“	-11.6052
॥	-11.6066
▁पारम्परिक	-11.6066
▁मिजोरम	-11.6066
▁डाइ	-11.607
▁उद्गम	-11.6071
▁बाँस	-11.6072
▁1989	-11.6072
▁1974	-11.6074
▁सृजनात्मक	-11.6075
▁शॉ	-11.608
log	-11.6082
ide	-11.6082
▁मर्ज़	-11.6085
हृदय	-11.6087
▁मोनो	-11.61
▁मेट्रो	-11.6101
▁#39;	-11.6101
▁ग़नीमत	-11.6101
▁हस्तशिल्प	-11.6101
▁पड़ोसियों	-11.6101
▁प्रतिबिम्ब	-11.6101
▁रुग्ण	-11.6101
▁प्रतिभागियों	-11.6101
▁टंक	-11.6101
ोत्सव	-11.6106
▁छांट	-11.6117
निर्णय	-11.6122
संस्था	-11.6136
▁क़राबतदार	-11.6136
▁क़ूवत	-11.6136
▁शिलालेख	-11.6136
▁मुनाफिक़	-11.6136
▁सुगंध	-11.6136
इफ़तेरा	-11.6136
▁ख्वाब	-11.6136
▁प्रचंड	-11.6136
▁याकूब	-11.6136
▁मुनाफ़िक़	-11.6138
▁हाशिया	-11.6139
▁कर्सर	-11.6141
▁परदाज़	-11.6143
text	-11.6171
▁गनोम	-11.6171
▁रूपांतरित	-11.6171
▁कुत्ते	-11.6172
▁लाठी	-11.6182
▁तीक्ष्ण	-11.6207
▁एनआईओएस	-11.6207
▁फ़ायदा	-11.6207
▁सहिष्णुता	-11.6207
▁क्रमादेश	-11.6207
▁कचरे	-11.6207
▁सपनों	-11.6207
▁सकोगे	-11.6209
▁टेलीविजन	-11.6242
▁डिजीटल	-11.6242
▁अदायगी	-11.6242
▁पालिसी	-11.6242
▁मेघालय	-11.6243
▁जाहिल	-11.6245
▁घनत्व	-11.6247
▁वर्गमूल	-11.6249
कृष्ण	-11.6258
वोल्ट	-11.6261
उत्पाद	-11.6264
तुम्हारा	-11.6265
▁यूनिवर्सिटी	-11.6278
▁हुज्जत	-11.6278
▁हिफाज	-11.6278
▁पुनर्प्राप्त	-11.6281
उच्छेदन	-11.6281
▁वायुमंडल	-11.6282
▁1946	-11.6288
▁License	-11.6313
▁अभूतपूर्व	-11.6313
▁यथासंभव	-11.6313
▁व्यतिक्रम	-11.6313
▁अस्थाई	-11.6313
▁उच्चारण	-11.6314
भाष्	-11.6317
▁राजीव	-11.6326
इस्लाम	-11.6336
अपील	-11.6338
port	-11.634
शेखर	-11.6342
▁जिम्मे	-11.6346
▁मज़हब	-11.6349
▁दाहिनी	-11.6349
▁रोमांच	-11.6349
2007	-11.6378
च्युत	-11.638
▁कट्टरपंथी	-11.6385
▁चुनौतियां	-11.6385
▁निचली	-11.6385
▁कस्टम	-11.6386
▁रामकृष्ण	-11.6387
▁अमृतसर	-11.6387
▁बुझा	-11.6395
▁टेबल	-11.6397
व्यापार	-11.641
▁इंटरफेस	-11.6421
▁ह्रास	-11.6421
▁दहला	-11.6422
▁गौतम	-11.6423
▁वचनबद्ध	-11.6426
▁मार्केट	-11.6428
करीब	-11.6429
▁प्रोत्सा	-11.6456
▁सहकारिता	-11.6458
▁भृंग	-11.6458
▁लंबवत	-11.6458
▁ज्वार	-11.6458
day	-11.6459
▁अनावश्यक	-11.6494
▁चौधरी	-11.6494
▁महावीर	-11.6494
▁परीक्षक	-11.6494
▁लशकर	-11.6494
▁नफरत	-11.6494
▁विश्‍व	-11.6496
▁संरचनात्मक	-11.6501
▁स्थावर	-11.6502
घोष	-11.6523
province	-11.653
ऎ	-11.653
▁नागालैंड	-11.653
तृप्ति	-11.6531
▁पेट्रो	-11.6531
istan	-11.6532
▁रोज़गार	-11.6533
▁गोलाकार	-11.6534
▁तालीम	-11.6534
▁समाधि	-11.6541
▁पक्की	-11.6542
▁बरकतवाल	-11.6565
▁चंडीगढ़	-11.6567
▁लचीला	-11.6567
▁विश्वयुद्ध	-11.6572
▁पुश्त	-11.6576
▁1985	-11.6577
▁प्रातःकाल	-11.6582
महिला	-11.6593
▁झारखंड	-11.6604
▁ज़िल्लत	-11.6604
▁कुर्सी	-11.6604
▁संतोषजनक	-11.6605
विन्यास	-11.6629
▁गठबंधन	-11.6641
▁पूर्वानुमान	-11.6641
▁डुबो	-11.6641
▁संक्रमित	-11.6641
▁कच्चा	-11.6641
▁ब्रांड	-11.6641
▁बर्बाद	-11.6642
▁कराधान	-11.6645
br	-11.6661
▁अयोध्या	-11.6678
▁आशीर्वाद	-11.6678
▁कुटुम्ब	-11.6678
▁तत्समय	-11.6678
▁तारामंडल	-11.6679
format	-11.668
▁1952	-11.6686
▁सतर्क	-11.67
ेटेड	-11.6702
पद्धति	-11.6704
हमारा	-11.6704
▁गपशप	-11.6715
▁अलंकरण	-11.6715
▁अधिवक्ता	-11.6715
▁आईसीटी	-11.6715
▁जमाराशि	-11.6715
▁मनोवैज्ञानिक	-11.6716
▁आवधिक	-11.6716
▁निद्रा	-11.6716
▁झुंड	-11.6728
अच्छी	-11.6741
▁फर्नीचर	-11.6752
▁श्रृंग	-11.6752
▁मलेरिया	-11.6752
▁अल्फा	-11.6757
प्रमाण	-11.6779
▁ऊष्मा	-11.679
▁पच्चीस	-11.679
▁अनदेखा	-11.679
▁बस्तियाँ	-11.679
▁भत्ते	-11.679
▁मीनार	-11.6792
▁भावनात्मक	-11.6797
▁बहुधा	-11.6808
▁कॉन्फ्रेंस	-11.6827
▁बेलारूस	-11.6827
▁ग्रीवा	-11.6827
▁बाधित	-11.6827
▁आंकड	-11.6832
सन्धि	-11.6842
टुकड़े	-11.6854
▁साझे	-11.6862
▁आतिथ्य	-11.6865
▁शौचालय	-11.6865
▁माउंट	-11.6865
▁साइकिल	-11.6865
▁तथाकथित	-11.6865
▁पछता	-11.6865
▁अकेली	-11.6865
▁कूटनीति	-11.6866
▁नवजात	-11.687
lex	-11.6874
▁निरीक्षक	-11.6903
▁युसुफ़	-11.6903
▁षड्यंत्र	-11.6903
▁हड्डियाँ	-11.6903
निर्दिष्ट	-11.6924
▁फ़ितन	-11.6929
स्क्रीन	-11.693
▁आगंतुक	-11.6941
▁द्वेष	-11.6941
MIME	-11.6941
▁न्यूयार्क	-11.6941
▁प्रादेशिक	-11.6941
▁विषाणु	-11.6942
▁घोड़ों	-11.6942
▁कॉफी	-11.6944
▁प्लेयर	-11.6946
▁Chrome	-11.6979
▁HEAD	-11.6979
▁इबलीस	-11.6979
▁आवंटित	-11.6979
▁प्रकोष्ठ	-11.6979
▁बर्निंग	-11.6979
▁प्रशंसक	-11.6979
▁बनवाया	-11.6979
▁मौर्य	-11.6979
▁मक्खी	-11.698
▁लंका	-11.6981
▁ख़ून	-11.6984
▁लॉर्ड	-11.6987
▁बतला	-11.6992
▁उत्कीर्ण	-11.7017
▁पुनरीक्षण	-11.7017
▁शख़्स	-11.7017
▁कार्टून	-11.7017
▁हिंसक	-11.7017
▁अभिभावक	-11.7018
▁माधव	-11.7018
▁अड्डे	-11.7019
समाज	-11.7054
▁अवतरण	-11.7056
▁प्राप्य	-11.7056
▁रघु	-11.7056
▁साँस	-11.7057
▁भूतपूर्व	-11.7057
▁वायुयान	-11.706
▁वेंकट	-11.7065
ecu	-11.7089
▁एक्सप्रेस	-11.7094
▁सांविधिक	-11.7094
▁पाषाण	-11.7094
▁पाउंड	-11.7095
▁फ्रांसीसी	-11.7095
▁पर्दे	-11.71
▁फ्लोर	-11.7104
▁कम्युनिस्ट	-11.7133
▁बृहद	-11.7133
▁तरजीह	-11.7133
▁नक्काशी	-11.7133
▁भिक्षु	-11.7133
▁पैकेट	-11.7134
▁फोटोग्राफ	-11.7134
▁अट्ठा	-11.7134
▁बूंद	-11.7155
ातीत	-11.7158
land	-11.7166
▁अत्याधिक	-11.7172
▁अवक्षयण	-11.7172
▁अविभक्त	-11.7172
▁मेहरअली	-11.7172
▁सुलैमान	-11.7172
▁निहायत	-11.7172
▁फिनलैंड	-11.7172
▁मौलाना	-11.7172
▁you	-11.7173
जवाब	-11.7203
▁सम्प्रदाय	-11.7211
▁सम्पादित	-11.7211
▁गर्भावस्था	-11.7212
साहित्य	-11.7241
अज़सरतापा	-11.725
▁गुनेहगार	-11.725
▁जिज्ञासा	-11.725
▁मछलियों	-11.725
▁समझौतों	-11.725
▁मीम॰	-11.725
▁गन्दगी	-11.725
▁गुस्से	-11.725
▁ज़करिया	-11.7251
▁सामरिक	-11.7253
वाहिनी	-11.7282
सिर्फ	-11.7285
▁मकबरा	-11.729
▁मांसपेशियों	-11.729
▁स्वीडन	-11.729
▁टुकड़ों	-11.729
▁चेहरों	-11.729
▁निचला	-11.729
▁उद्भव	-11.7293
700	-11.7293
वास्तव	-11.7323
▁अत्यावश्यक	-11.7329
▁प्रोद्भूत	-11.7329
▁साम्राज़्य	-11.7329
▁कारखाने	-11.7329
▁सवेरे	-11.7329
▁अलमस्त	-11.7329
▁लवण	-11.733
▁मिथक	-11.733
▁शल्यक्रिया	-11.733
▁जवाहर	-11.733
▁आत्मसात	-11.7331
▁घसीट	-11.7331
▁मुक़द	-11.7341
·	-11.7362
▁कॉपीराइट	-11.7369
▁बहुपक्षीय	-11.7369
▁दरअसल	-11.7369
▁क्षीण	-11.7369
▁मातृभूमि	-11.737
▁रविवार	-11.7371
▁साइंस	-11.738
ग्रन्थि	-11.7382
परिभाषित	-11.74
ब्रह्म	-11.74
▁दाहिना	-11.7409
▁मुबारक	-11.7409
▁फकीर	-11.741
फ़ॉर्म	-11.741
▁करुँ	-11.741
▁पर्वतमाला	-11.741
▁द्विआधारी	-11.7449
▁SSL	-11.7449
▁शौहर	-11.7449
▁सम्पादक	-11.7449
▁फ्रेंच	-11.7451
▁translated	-11.7451
▁दीर्घकालीन	-11.7451
लौह	-11.7452
िष्णु	-11.748
सम्बन्ध	-11.7481
▁निष्पा	-11.7481
africa	-11.7489
▁स्थापत्य	-11.7489
▁दरवाजा	-11.7489
▁तात्या	-11.7489
▁रमण	-11.749
▁बल्ल	-11.7496
संधान	-11.7497
आईएम	-11.7525
▁असंतोष	-11.7529
▁इलैक्ट्र	-11.7529
▁गुवाहाटी	-11.7529
▁रिश्तों	-11.7529
▁क्रिस्टल	-11.753
▁आप्रवास	-11.7536
▁गिड़गिड़ा	-11.757
▁इजराइल	-11.757
▁मुमकिन	-11.757
▁सख़्त	-11.757
▁इशारा	-11.757
▁कड़ियाँ	-11.757
▁जोधपुर	-11.757
▁उन्ही	-11.7595
बराबर	-11.7603
▁ईर्ष्या	-11.761
▁उत्खनन	-11.761
▁भवभूति	-11.761
▁सरोजिनी	-11.761
▁नमूनों	-11.7611
▁परमात्मा	-11.7611
▁अधिनिर्णय	-11.7612
प्लेट	-11.7628
▁अमेरिकन	-11.7651
▁नरेन्‍द्र	-11.7651
▁प्राप्‍त	-11.7651
▁मैथुन	-11.7651
▁सुप्रीम	-11.7651
▁वार्मिंग	-11.7651
▁२००७	-11.7651
▁अछूत	-11.7651
▁निजाम	-11.7652
▁अरुण	-11.7652
बहरहाल	-11.7653
▁अभिलेखागार	-11.7653
▁थकान	-11.7661
▁अनुपलब्ध	-11.7692
▁बुढ़ापे	-11.7692
▁सर्वोपरि	-11.7692
▁इसमाईल	-11.7692
▁अड्डा	-11.7692
▁शुक्राणु	-11.7694
▁गोदाम	-11.7694
▁महोदय	-11.7694
▁ज्यों	-11.7695
▁कसरत	-11.7695
▁किराये	-11.7716
▁लसीका	-11.7727
▁पिछड़	-11.7733
▁यदुनाथ	-11.7733
▁वर्चुअल	-11.7733
▁वृंदावन	-11.7733
▁सुस्पष्ट	-11.7733
▁कारगुज़ार	-11.7733
▁निपुण	-11.7733
▁सदाबहार	-11.7733
▁अकसर	-11.7734
▁तामील	-11.7734
gov	-11.7735
▁कपड़ों	-11.7735
▁ख़ैरात	-11.7737
▁मृग	-11.7757
ोलॉजी	-11.7768
▁'{0}'	-11.7775
▁अभियांत्रिकी	-11.7775
▁परिचर्चा	-11.7775
▁विरोधाभास	-11.7775
▁इरादे	-11.7775
▁क़ीमत	-11.7775
▁बँध	-11.7776
▁इस्लामवादियों	-11.7777
क़ुरआन	-11.7809
हुक्म	-11.7809
यूसुफ	-11.7813
▁बेवकूफ	-11.7816
▁नानालाल	-11.7816
▁विचलित	-11.7816
▁ढाँक	-11.7816
▁कच्ची	-11.7817
▁पत्रकारिता	-11.7817
▁ग़ाफि	-11.7818
▁बहिर्	-11.7821
▁ग्रीक	-11.7821
LexUriServ	-11.7858
PRODUCT	-11.7858
▁कुटुंब	-11.7858
▁डिबेंचर	-11.7858
▁फेफड़ों	-11.7858
▁बहिष्कार	-11.7858
▁मुब्तिला	-11.7858
▁स्वयंसेवक	-11.7858
क़िबले	-11.7858
▁मार्टिन	-11.7858
▁प्रवीण	-11.7858
▁हाजिर	-11.7858
▁राजनेता	-11.7872
जिहाद	-11.7893
▁मथुरा	-11.79
▁सबवर्सन	-11.79
▁फ़ारसी	-11.79
▁बैकेंड	-11.79
▁मच्छर	-11.79
▁ग़रीब	-11.79
▁शंख	-11.7901
▁ग़ायब	-11.7942
▁भ्रष्ट	-11.7942
▁ख़ातिर	-11.7942
▁गोविंद	-11.7942
▁अपहरण	-11.7942
साहेब	-11.7946
▁अमिताभ	-11.7984
▁बुजुर्ग	-11.7984
▁दुरूस्त	-11.7984
▁पार्टियों	-11.7984
▁बक्से	-11.7984
▁प्रतिभाशाली	-11.7986
▁प्रौद्योगिक	-11.7996
▁फॉर्मेट	-11.7998
▁जवाबदेही	-11.8026
▁तर्कसंगत	-11.8026
▁औंधे	-11.8027
▁अनौपचारिक	-11.8069
▁औपनिवेशिक	-11.8069
▁निस्पृह	-11.8069
▁संकुचित	-11.8069
▁दूतावास	-11.8069
DVD	-11.8069
▁नक्षत्र	-11.8069
▁तंतु	-11.8069
▁सीढ़ी	-11.8069
▁मुद्रास्फीति	-11.807
▁सद्भाव	-11.8094
▁नवान्वेषक	-11.8112
▁नाइट्रोजन	-11.8112
▁सराहनीय	-11.8112
▁सिकंदर	-11.8112
ook	-11.8113
▁कवक	-11.8115
▁कड़क	-11.8131
▁GNU	-11.8155
▁HTTP	-11.8155
▁असुरक्षित	-11.8155
▁मोहब्बत	-11.8155
▁साम्प्रदायिक	-11.8155
▁2006-07	-11.8155
▁स्टार्टअप	-11.8155
▁मार्जिन	-11.8155
▁कवच	-11.8156
▁चौबीस	-11.8198
▁पुतली	-11.8198
▁छुट्ट	-11.8209
ize	-11.8219
▁इंडोनेशिया	-11.8241
▁क़ब्ज़	-11.8241
▁म्यांमार	-11.8241
बहुदेववादियों	-11.8241
▁टिकाऊ	-11.8241
▁ज़रिये	-11.8241
▁कार्यपालक	-11.8241
▁पोतन्ना	-11.8242
इंडिया	-11.8279
भांति	-11.8279
▁उद्घोषणा	-11.8284
▁महासचिव	-11.8284
▁लापरवाह	-11.8284
▁शिथिल	-11.8284
▁निरर्थक	-11.8284
▁कप्तान	-11.8284
डबल्यू	-11.8285
▁ग़ैर	-11.8289
▁उथल	-11.829
▁नासिक	-11.8298
▁ट्रिब्यूनल	-11.8328
▁लाभान्वित	-11.8328
▁वास्तुशिल्प	-11.8328
▁सामग्रियों	-11.8328
▁तानाशाह	-11.8328
▁२००६	-11.8328
▁तुल्यकालन	-11.8372
▁शताब्‍दी	-11.8372
▁उलफ़त	-11.8372
▁विराजमान	-11.8372
▁गरदन	-11.8372
▁मुंशी	-11.8372
▁उत्‍तर	-11.8372
▁उन्माद	-11.8372
▁बोनस	-11.8373
▁अथक	-11.8373
▁अध्यापन	-11.8373
▁गर्भगृह	-11.8373
▁ब्लैक	-11.8374
▁निस्स	-11.8376
▁1/2	-11.8376
▁वेश्या	-11.8385
शंकाओं	-11.8396
▁ब्राउज	-11.8413
सैनिक	-11.8414
फ़रिश्ता	-11.8416
▁{1}	-11.8416
▁द्रोण	-11.8416
▁मैनुअल	-11.8416
▁उल्टा	-11.8416
▁रेड्डी	-11.8416
▁विलम्ब	-11.8416
▁देसाई	-11.8417
आक्साइड	-11.8417
▁The	-11.8418
आज्ञाकारी	-11.8456
▁अद्वैत	-11.846
▁ठेकेदार	-11.846
▁दीपावली	-11.846
▁अज़ीज़	-11.846
बहुदेववादी	-11.8461
▁शंकु	-11.8461
▁वफादार	-11.8461
चढ़ाव	-11.8484
क़रार	-11.8504
fghan	-11.8505
▁इम्तिहान	-11.8505
▁तफसील	-11.8505
▁मुन्तज़ि	-11.8505
▁मुलाक़ात	-11.8505
▁राष्‍ट्रपति	-11.8505
▁संकुचन	-11.8505
▁संस्‍थान	-11.8505
▁न्यायसंगत	-11.8505
▁फ़रमाबरदार	-11.8505
▁ख़़ु	-11.8505
▁विलुप्त	-11.8505
मख़लूक़ात	-11.8505
▁इन्जील	-11.8505
▁फरीक़	-11.8505
▁ब्लॉग	-11.8505
▁आकृष्ट	-11.8505
▁वर्जित	-11.8505
▁कारसाज़	-11.8505
बुख्ल	-11.8506
▁वज़न	-11.8507
▁धीमा	-11.8508
तौक़	-11.8509
भंडार	-11.8547
▁अतिरिक़्त	-11.8549
▁इजाजत	-11.8549
▁कनेक्टिविटी	-11.8549
▁कॉर्पोरेट	-11.8549
▁कैरियर	-11.8549
▁आईएसओ	-11.8549
▁ड्यूटी	-11.8549
▁एटीएम	-11.8549
▁विधायक	-11.8551
line	-11.8553
▁वन्यजीव	-11.857
िलक्षित	-11.8572
स्रोत	-11.8591
▁उन्नीसवी	-11.8594
▁हस्तांतरित	-11.8594
▁कठपुतल	-11.8594
▁चार्ल्स	-11.8594
▁रुकावट	-11.8594
▁विद्यासागर	-11.8595
▁तख़्त	-11.8595
प्रोसेसर	-11.8595
रखाव	-11.8596
▁सेवानिवृत्त	-11.8628
Please	-11.8639
▁एचटीएमएल	-11.8639
▁जनसाधारण	-11.8639
▁प्रतिस्पर्धी	-11.8639
▁लद्दाख	-11.8639
▁नापसन्द	-11.8639
▁नायडू	-11.8639
▁परिहास	-11.8639
▁पठार	-11.864
▁विभक्त	-11.864
▁अभिनव	-11.8641
▁बन्धन	-11.8642
▁दूरभाष	-11.8673
`	-11.8681
शीघ्र	-11.8681
▁उज्ज्वल	-11.8684
▁छानबीन	-11.8684
italy	-11.8684
▁बॉम्बे	-11.8685
▁अनेकानेक	-11.8685
▁शिवाजी	-11.8685
▁पेयजल	-11.8686
▁General	-11.873
▁उपलब्‍ध	-11.873
▁ढाँचा	-11.873
▁महत्‍व	-11.873
▁निरूपण	-11.873
▁दुसरे	-11.873
▁पितृ	-11.8731
तुम्हें	-11.8773
oftware	-11.8776
▁कंट्रोल	-11.8776
▁कोल्हटकर	-11.8776
▁सिलसिला	-11.8776
▁शनिवार	-11.8776
▁सैयद	-11.8776
▁अजनबी	-11.8776
▁मॉनीटर	-11.8821
▁ब्यौरा	-11.8821
▁खजाने	-11.8822
▁नदियां	-11.8823
▁प्रत्‍य	-11.8823
प्रवेश	-11.8844
ाश्रित	-11.8855
°	-11.8861
▁ऑक्	-11.8861
चुपके	-11.8865
Permissions	-11.8868
▁नर्मदाशंकर	-11.8868
▁पदोन्नति	-11.8868
▁गणमान्य	-11.8868
▁श्रवण	-11.8868
▁सिन्धु	-11.8868
▁आइटम	-11.8868
▁बर्ताव	-11.8868
▁भरोसे	-11.8868
▁नदियाँ	-11.8868
▁निखार	-11.8869
▁निर्दय	-11.8869
▁धमनी	-11.887
▁सार्वभौम	-11.8907
फ़रिश्ते	-11.8911
ख़ुश	-11.8913
▁सर्वांगीण	-11.8914
▁रुझान	-11.8914
▁मार्शल	-11.8914
2.5	-11.8917
ात्‍मक	-11.8949
▁क्षितिज	-11.896
▁डेवलपर	-11.896
▁प्रदूषित	-11.896
▁संयोजक	-11.896
▁सिडबी	-11.896
▁बदचलन	-11.896
▁शुऐब	-11.896
▁परिजनों	-11.8961
युक्‍त	-11.8961
▁ताबीर	-11.8961
शैतान	-11.9005
▁ऑब्जेक्ट	-11.9007
▁उपेक्षित	-11.9007
▁गुम्बद	-11.9007
▁स्‍थान	-11.9007
▁प्रवर्तक	-11.9007
▁मेहता	-11.9009
परीक्षित	-11.9009
मिस्र	-11.9053
▁पुष्पांजलि	-11.9054
▁बेहिसाब	-11.9054
▁ह्रदय	-11.9054
▁चिराग़	-11.9054
▁राजशाही	-11.9054
▁पठित	-11.9054
▁कंधों	-11.9055
ख़ौफ	-11.9058
▁जाग्रत	-11.9058
▁इंद्रिय	-11.9066
चढ़कर	-11.9068
▁लतीफ	-11.9076
शिक्षित	-11.9094
▁Public	-11.9101
▁चुकौती	-11.9101
▁दफ्तर	-11.9101
▁इलेक्ट्रानिक	-11.9101
कम्बख्त	-11.9102
▁फ़ॉर्मेट	-11.9102
सामने	-11.9102
शौक़	-11.9121
विदेशी	-11.9148
▁उपमहाद्वीप	-11.9149
▁दृष्टिगोचर	-11.9149
▁सुप्रसिद्ध	-11.9149
▁अंटार्कटिक	-11.9149
▁वैचारिक	-11.9149
▁ताबेदार	-11.9149
▁वालिद	-11.9149
▁दुर्भाग्यवश	-11.9149
▁वायुसेना	-11.9155
प्रसाद	-11.9196
▁मसख़रा	-11.9196
कपटाचारी	-11.9196
नुत्फे	-11.9196
▁फ़रवरी	-11.9196
▁याददिहानी	-11.9196
▁संगमरमर	-11.9196
इत्मेनान	-11.9196
▁बेटियों	-11.9197
▁सौम्य	-11.9198
▁नसारा	-11.9198
तबलीग़	-11.9199
▁खासतौ	-11.92
name	-11.9205
▁पत्नि	-11.9206
▁फोरम	-11.9207
▁खिसक	-11.922
▁हफ्त	-11.9224
मुस्लिम	-11.9243
▁साइरिलिक	-11.9244
▁मकसद	-11.9244
▁वॉल्यूम	-11.9244
▁सेंट्रल	-11.9244
▁सिगरेट	-11.9244
▁अनोखी	-11.9244
▁उदात्त	-11.9244
शांति	-11.9249
▁कार्यान्व	-11.9279
हमेशा	-11.9292
▁सूत्रकृमि	-11.9292
▁पार्वती	-11.9292
▁फ़ोटो	-11.9292
▁क्रॉस	-11.9292
▁अनवरत	-11.9292
बैठक	-11.9293
प्रेषित	-11.934
गवर्नेंस	-11.934
▁अवरुद्ध	-11.934
▁मौद्रिक	-11.934
▁सीवीएस	-11.934
▁अधूरा	-11.9341
▁घंटी	-11.9341
▁सितारे	-11.9341
▁ईस्वी	-11.9341
gui	-11.935
प्रौद्योगिकी	-11.9389
▁आयुर्विज्ञान	-11.9389
▁ऑक्सीजन	-11.9389
▁क्षुद्र	-11.9389
▁व्यभिचार	-11.9389
▁रिचर्ड	-11.9389
▁जुनून	-11.9389
▁भाजपा	-11.9389
▁हज़रत	-11.9389
▁अवमानना	-11.9389
▁सुलूक	-11.9391
▁लुत्फ	-11.9392
sub	-11.9412
सत्कार	-11.9418
▁अनुषंगी	-11.9438
▁काउंटर	-11.9438
▁घुड़सवार	-11.9438
▁मंज़ूर	-11.9438
▁दुविधा	-11.9438
▁स्थानापन्न	-11.9438
▁सिक्कों	-11.9438
मस्तिष्क	-11.9438
▁शिमला	-11.9438
शून्य	-11.9438
▁वृद्धावस्था	-11.9438
▁सस्ते	-11.9439
मिजाज	-11.9465
0.00	-11.9466
▁ऑप्टिकल	-11.9487
▁क्रोमियम	-11.9487
▁सैद्धांतिक	-11.9487
select	-11.9487
▁लेबनान	-11.9487
▁${	-11.9487
▁द्रविड़	-11.9487
▁टेक्नोलॉजी	-11.9487
▁आयोजक	-11.9487
▁स्वंय	-11.9487
मुँह	-11.9488
▁छठे	-11.9488
▁एकाधिक	-11.9535
▁अधिष्ठापित	-11.9536
▁अनुज्ञेय	-11.9536
▁डेनमार्क	-11.9536
▁पूर्वाग्रह	-11.9536
▁चालुक्य	-11.9536
▁पराजय	-11.9536
▁नर्सिंग	-11.9536
▁फरेब	-11.9537
▁परिकलित	-11.9538
▁खीच	-11.9552
त्‍म	-11.9562
▁पैलेस	-11.9563
▁रिलीज	-11.9572
▁प्याज	-11.9577
▁अनगिनत	-11.9586
▁बख़्शि	-11.9586
▁हक़ीक़त	-11.9586
▁गांठ	-11.9586
▁उर्जा	-11.9586
उदाहरण	-11.9586
प्रेरित	-11.9586
▁सरोकार	-11.9587
▁संग्रहीत	-11.9587
सहायता	-11.9588
म्‍ब	-11.9618
चेतना	-11.9619
▁संसाधित	-11.9635
▁गर्दिश	-11.9635
▁प्रांगण	-11.9635
▁ब्राजील	-11.9635
▁नक्शा	-11.9635
▁सेमिनार	-11.9636
▁माइनस	-11.9636
लेकिन	-11.9637
▁उर्वर	-11.9685
▁विश्लेषक	-11.9685
@	-12.1812
{	-12.2862
×	-12.3191
ॄ	-12.7157
#	-12.7215
	-12.759
$	-12.7652
ऩ	-12.7927
+	-12.8467
⁄	-12.8761
^	-12.9012
é	-12.9402
£	-12.9664
Â	-13.0087
♪	-13.0087
ţ	-13.0522
=	-13.0622
	-13.0823
ň	-13.1133
	-13.1292
и	-13.1453
ú	-13.1617
ä	-13.1953
	-13.2126
♫	-13.2301
ऌ	-13.3035
ş	-13.3624
ő	-13.4249
₹	-13.4466
	-13.4916
॔	-13.5148
ऴ	-13.6137
ऽ	-13.6137
	-13.64
Ň	-13.64
ˇ	-13.667
′	-13.6948
ऒ	-13.6948
Θ	-13.7234
~	-13.7479
Ę	-13.7831
	-13.8143
ö	-13.9144
ů	-13.9501
॒	-14.0256
Ч	-14.1073
ॐ	-14.2438
ل	-14.2438
র	-14.2938
	-14.2938
±	-14.2938
ا	-14.2938
■	-14.3465
	-14.402
‡	-14.402
Ç	-14.402
−	-14.402
ò	-14.4608
ĺ	-14.5233
Ć	-14.5233
॑	-14.5233
®	-14.5893
ॣ	-14.59
া	-14.59
ু	-14.59
š	-14.59
ন	-14.59
√	-14.59
	-14.6614
â	-14.6614
÷	-14.6614
è	-14.7383
ü	-14.7383
¬	-14.821
π	-14.8217
Ó	-14.8217
م	-15.0126
ব	-15.0126
⇒	-15.1237
Ö	-15.2487
Т	-15.3916
─	-15.3916
ś	-15.3916
þ	-15.3916
ā	-15.5582
س	-15.5582
†	-15.5582
≤	-15.5582
Î	-15.5582
ক	-15.7582
ঠ	-15.7582
ভ	-15.7582
í	-15.7582
ت	-15.7582
ŕ	-15.7582
إ	-15.7582
ج	-15.7582
ح	-15.7582
চ	-15.7582
থ	-15.7582
ষ	-15.7582
ী	-15.7582
中	-15.7582
國	-15.7582
Ú	-15.7582
á	-16.0082
ç	-16.0082
ó	-16.0082
ī	-16.0082
秦	-16.0082
	-16.0082
Ü	-16.0082
	-16.3416
Æ	-16.3416
Ä	-16.3416
Ľ	-16.3416
τ	-16.3416
،	-16.3416
€	-16.3416
∕	-16.3416
≥	-16.3416
➣	-16.3416
	-16.3416
￼	-16.3416
„	-16.3416
ř	-16.3416
е	-16.3416
Ţ	-16.8416
Ż	-16.8416
ͧ	-16.8416
	-16.8416
­	-16.8416
Ê	-16.8416
õ	-16.8416
Ă	-16.8416
Ě	-16.8416
ł	-16.8416
ː	-16.8416
Λ	-16.8416
ψ	-16.8416
а	-16.8416
―	-16.8416
字	-16.8416
漢	-16.8416
ж	-16.8416
å	-16.8416
ż	-16.8416
ž	-16.8416
н	-16.8416
	-17.835
な	-17.8351
か	-17.8352
⏎	-17.8353
∂	-17.8354
р	-17.8355
У	-17.8356
ν	-17.8357
λ	-17.8358
Ą	-17.8359
Ω	-17.836
‐	-17.8361
φ	-17.8362
ن	-17.8363
ق	-17.8364
ر	-17.8365
آ	-17.8366
С	-17.8367
β	-17.8368
Δ	-17.8369
ॡ	-17.837
θ	-17.8371
̨	-17.8372
→	-17.8373
Ś	-17.8374
Ð	-17.8375
ι	-17.8376
স	-17.8377
দ	-17.8378
ñ	-17.8379
ώ	-17.838
ą	-17.8381
্	-17.8382
Ĺ	-17.8383
č	-17.8384
̇	-17.8385
Ş	-17.8386
́	-17.8387
̊	-17.8388
•	-17.8389
Ž	-17.839
ॠ	-17.8391
	-17.8392
̋	-17.8393
©	-17.8394
☺	-17.8395
¢	-17.8396
	-17.8397
§	-17.8398
	-17.8399
	-17.84
	-17.8401
	-17.8402
	-17.8403
☻	-17.8404
«	-17.8405
	-17.8406
	-17.8407
	-17.8408
¦	-17.8409
	-17.8409
	-17.8409
¡	-17.8409
¶	-17.8409
̄	-17.841
<	-17.8411
̈	-17.8412
¿	-17.8413
̧	-17.8414
	-17.8415
ű	-17.8415
Ѕ	-17.8416
Ô	-17.8416
æ	-17.8416
ù	-17.8416
ý	-17.8416
ć	-17.8416
Č	-17.8416
ģ	-17.8416
ı	-17.8416
ľ	-17.8416
Š	-17.8416
Ť	-17.8416
ť	-17.8416
ɓ	-17.8416
ɪ	-17.8416
ʼ	-17.8416
̃	-17.8416
̪	-17.8416
Π	-17.8416
α	-17.8416
γ	-17.8416
η	-17.8416
κ	-17.8416
ω	-17.8416
Д	-17.8416
в	-17.8416
д	-17.8416
й	-17.8416
о	-17.8416
п	-17.8416
ю	-17.8416
є	-17.8416
֦	-17.8416
ֹ	-17.8416
׃	-17.8416
د	-17.8416
ی	-17.8416
॓	-17.8416
ਲ	-17.8416
ਿ	-17.8416
ੀ	-17.8416
ੱ	-17.8416
પ	-17.8416
બ	-17.8416
ા	-17.8416
ુ	-17.8416
‚	-17.8416
∞	-17.8416
∣	-17.8416
∨	-17.8416
≠	-17.8416
⌈	-17.8416
⌉	-17.8416
⌊	-17.8416
⌋	-17.8416
⌘	-17.8416
堀	-17.8416
Û	-17.8416
ď	-17.8416
═	-17.8416
А	-17.8416
ਦ	-17.8416
	-17.8416
	-17.8416
ě	-17.8416
